[PAD]
[UNK]
[CLS]
[SEP]
[MASK]
!
"
#
$
%
&
'
(
)
*
+
,
-
.
/
0
1
2
3
4
5
6
7
8
9
:
;
<
=
>
?
@
[
\
]
^
_
`
a
b
c
d
e
f
g
h
i
j
k
l
m
n
o
p
q
r
s
t
u
v
w
x
y
z
{
|
}
~
¡
¢
£
¤
¥
¦
§
¨
©
ª
«
¬
®
¯
°
±
²
³
´
µ
¶
·
¸
¹
º
»
¼
½
¾
¿
×
ß
æ
ð
÷
ø
þ
đ
ħ
ı
ĳ
ĸ
ŀ
ł
ŋ
œ
ŧ
ſ
ƃ
ƅ
ƌ
ƍ
ƒ
ƕ
ƙ
ƚ
ƣ
ƥ
ƨ
ƫ
ƭ
ƴ
ƶ
ƹ
ƺ
ƻ
ƽ
ƾ
ƿ
ǀ
ǁ
ǃ
ǆ
ǉ
ǌ
ǝ
ǥ
ǳ
ȡ
ȣ
ȥ
ȴ
ȵ
ȶ
ȷ
ȸ
ȹ
ȼ
ȿ
ɂ
ɇ
ɉ
ɋ
ɍ
ɏ
ɐ
ɑ
ɒ
ɓ
ɔ
ɗ
ɘ
ə
ɛ
ɝ
ɟ
ɡ
ɢ
ɣ
ɤ
ɥ
ɦ
ɧ
ɨ
ɪ
ɫ
ɬ
ɯ
ɱ
ɲ
ɳ
ɴ
ɵ
ɶ
ɸ
ɹ
ɺ
ɻ
ɼ
ɽ
ɾ
ɿ
ʀ
ʃ
ʆ
ʇ
ʈ
ʉ
ʊ
ʋ
ʌ
ʍ
ʎ
ʏ
ʑ
ʒ
ʓ
ʔ
ʖ
ʗ
ʙ
ʜ
ʝ
ʞ
ʟ
ʠ
ʡ
ʢ
ʣ
ʤ
ʥ
ʦ
ʧ
ʨ
ʩ
ʬ
ʯ
ʰ
ʱ
ʲ
ʳ
ʴ
ʵ
ʷ
ʸ
ʹ
ʺ
ʻ
ʼ
ʽ
ʾ
ʿ
ˀ
ˁ
˄
ˆ
ˇ
ˉ
ˊ
ˋ
ˍ
ˏ
˒
˖
˚
˛
˜
˝
˟
ˡ
ˣ
ˤ
˥
˦
˨
˩
˪
˫
˭
ˮ
˰
˱
˲
˳
˴
˵
˶
˷
˸
˹
˺
˻
˼
˽
˾
˿
ͱ
ͳ
͵
ͷ
͸
͹
ͺ
ͻ
ͼ
ͽ
΂
΍
α
β
γ
δ
ε
ζ
η
θ
ι
κ
λ
μ
ν
ξ
ο
π
ρ
ς
σ
τ
υ
φ
χ
ψ
ω
ϑ
ϒ
ϝ
ϡ
ϣ
ϥ
ϧ
ϩ
ϫ
ϯ
ϰ
ϱ
ϲ
ϳ
ϵ
϶
ϸ
ϻ
ϼ
а
б
в
г
д
е
ж
з
и
к
л
м
н
о
п
р
с
т
у
ф
х
ц
ч
ш
щ
ъ
ы
ь
э
ю
я
ђ
є
ѕ
і
ј
љ
њ
џ
ѡ
ѣ
ѥ
ѧ
ѩ
ѫ
ѭ
ѯ
ѱ
ѳ
ѵ
ѹ
ѻ
ѽ
ѿ
ҁ
҂
҈
҉
ҋ
ҍ
ҏ
ґ
ғ
ҕ
җ
ҙ
қ
ҝ
ҟ
ҡ
ң
ҥ
ҧ
ҩ
ҫ
ҭ
ү
ұ
ҳ
ҵ
ҷ
ҹ
һ
ҽ
ҿ
ӄ
ӈ
ӊ
ӌ
ӏ
ӕ
ә
ӡ
ө
ӷ
ӻ
ӽ
ӿ
ԃ
ԅ
ԋ
ԏ
ԑ
ԕ
ԗ
ԙ
ԛ
ԝ
ԡ
ԣ
ԥ
ԩ
ԫ
ԭ
ԯ
԰
՘
ՙ
՛
՝
ՠ
ա
բ
գ
դ
ե
զ
է
ը
թ
ժ
ի
լ
խ
ծ
կ
հ
ձ
ղ
ճ
մ
յ
ն
շ
ո
չ
պ
ջ
ռ
ս
վ
տ
ր
ց
ւ
փ
ք
օ
ֆ
և
։
֎
֐
־
׃
׈
׊
׌
׍
א
ב
ג
ד
ה
ו
ז
ח
ט
י
ך
כ
ל
ם
מ
ן
נ
ס
ע
ף
פ
ץ
צ
ק
ר
ש
ת
׫
׬
׭
׮
ׯ
װ
ױ
ײ
״
׶
׷
׸
׺
׻
׼
׽
؆
؊
؋
،
؍
؎
؏
؛
؟
ؠ
ء
ا
ب
ة
ت
ث
ج
ح
خ
د
ذ
ر
ز
س
ش
ص
ض
ط
ظ
ع
غ
ػ
ؽ
ؾ
ؿ
ـ
ف
ق
ك
ل
م
ن
ه
و
ى
ي
٠
١
٢
٣
٤
٥
٦
٧
٨
٩
٫
ٯ
ٱ
ٳ
ٴ
ٵ
ٷ
ٹ
ٺ
ٻ
ټ
ٽ
پ
ٿ
ڀ
ځ
ڃ
ڄ
چ
ڇ
ڈ
ډ
ڊ
ڌ
ڍ
ڎ
ڑ
ڕ
ڗ
ژ
ښ
ڛ
ڞ
ڡ
ڤ
ڦ
ڧ
ک
ڭ
ڮ
گ
ڰ
ڱ
ڳ
ڵ
ڶ
ڷ
ڸ
ں
ڻ
ڼ
ھ
ڿ
ہ
ۃ
ۄ
ۅ
ۆ
ۇ
ۈ
ۉ
ۊ
ۋ
ی
ێ
ې
ے
ە
۞
ۥ
ۦ
۩
ۮ
۱
۲
۳
۵
۷
۹
ۺ
ۻ
ۼ
۾
ۿ
܄
܅
܇
܉
܊
܎
ܐ
ܓ
ܔ
ܘ
ܙ
ܚ
ܛ
ܜ
ܝ
ܠ
ܡ
ܢ
ܣ
ܤ
ܥ
ܦ
ܧ
ܨ
ܩ
ܪ
ܫ
ܬ
ܯ
ݍ
ݎ
ݏ
ݒ
ݓ
ݕ
ݘ
ݛ
ݟ
ݡ
ݣ
ݤ
ݥ
ݨ
ݫ
ݬ
ݮ
ݰ
ݱ
ݳ
ݴ
ݵ
ݶ
ݷ
ݸ
ݹ
ݺ
ݼ
ݾ
ݿ
ހ
ރ
އ
ފ
ތ
ލ
ގ
ސ
ޑ
ޒ
ޓ
ޕ
ޗ
ޞ
ޟ
ޡ
ޤ
ޥ
ޱ
޲
޳
޵
޶
޻
޽
޾
߃
߄
߇
ߋ
ߍ
ߎ
ߒ
ߘ
ߚ
ߛ
ߜ
ߡ
ߢ
ߣ
ߤ
ߥ
ߧ
ߴ
ߵ
߶
߷
߹
ߺ
߼
߾
߿
ࠅ
ࠆ
ࠇ
ࠈ
ࠋ
ࠍ
ࠎ
ࠏ
ࠐ
ࠔ
ࠤ
ࠨ
࠮
࠰
࠱
࠲
࠴
࠶
࠷
࠸
࠺
࠼
࠽
࠾
࠿
ࡁ
ࡃ
ࡇ
ࡈ
ࡍ
ࡎ
ࡔ
ࡕ
ࡘ
ࡡ
ࡢ
ࡤ
ࡨ
࡬
࡭
࡯
ࡰ
ࡲ
ࡴ
ࡷ
ࡸ
ࡻ
ࡿ
ࢀ
ࢁ
ࢂ
ࢅ
ࢊ
ࢎ
࢏
࢔
࢕
࢙
࢛
࢝
࢟
ࢠ
ࢢ
ࢥ
ࢧ
ࢩ
ࢪ
ࢭ
ࢮ
ࢰ
ࢶ
ࢸ
ࣀ
ࣁ
ࣂ
ࣃ
࣋
࣍
࣏
࣐
࣒
ࣕ
ࣖ
ࣘ
ࣜ
ࣝ
ࣞ
ࣟ
࣠
࣢
ः
ऄ
अ
आ
इ
ई
उ
ऊ
ऎ
ए
ऐ
ऑ
ऒ
ओ
औ
क
ख
ग
घ
ङ
च
छ
ज
झ
ञ
ट
ठ
ड
ढ
ण
त
थ
द
ध
न
प
फ
ब
भ
म
य
र
ल
ळ
व
श
ष
स
ह
ा
ि
ी
ॉ
ो
ौ
ॎ
ॠ
।
॥
१
४
५
६
७
९
॰
ॱ
ॲ
ॳ
ॴ
ॾ
ॿ
ং
অ
আ
ই
ঈ
উ
ঌ
঍
঎
এ
ঐ
঑
঒
ও
ঔ
ক
খ
গ
চ
ছ
জ
ঝ
ঞ
ট
ঠ
ড
ণ
ত
থ
দ
ধ
ন
঩
প
ফ
ব
ভ
ম
য
র
ল
঳
শ
ষ
স
হ
ঽ
া
ি
ী
৅
৆
ে
ৈ
৊
ৎ
৑
ৗ
৙
৛
৞
ৠ
ৡ
১
২
৩
৪
৭
৯
৳
৵
৻
৽
৾
৿
ਅ
ਆ
ਇ
ਈ
ਉ
਋
਍
਑
ਔ
ਕ
ਖ
ਙ
ਚ
ਛ
ਜ
ਟ
ਠ
ਡ
ਤ
ਥ
ਦ
ਧ
ਨ
ਪ
ਫ
ਬ
ਯ
ਰ
਱
ਵ
਷
ਸ
ਹ
ਾ
ਿ
ੀ
੄
੆
੊
੎
੒
੕
੗
ੜ
੤
੩
੫
ੴ
੷
઀
ઇ
ઈ
ઌ
઎
ઓ
ખ
ગ
છ
ઝ
ટ
ઠ
ણ
ધ
પ
ફ
બ
ભ
ય
ર
ળ
વ
ષ
હ
઺
઻
ા
િ
ી
૊
ૌ
ૐ
૒
૔
૕
૗
૘
૙
૚
૜
૟
ૠ
ૡ
૤
૥
૨
૪
૬
૱
૴
૵
ૼ
૽
଀
ଂ
ଅ
ଊ
ଋ
ଌ
଍
଎
ଘ
ଙ
ଚ
ଜ
ଟ
ଡ
ଢ
ଧ
ଫ
ମ
ର
ଳ
ଷ
ସ
଻
ା
୆
େ
୊
୏
୐
୒
ୗ
ୟ
ୠ
୧
୮
୯
୴
୶
୺
୻
୽
୾
୿
஁
ஃ
ஊ
஋
஌
எ
ஐ
஑
ஒ
க
஘
ங
ச
ஜ
ட
த
ன
ப
஫
஬
ம
ய
ர
ற
ல
ள
ழ
வ
ஹ
ா
ி
ு
ூ
ெ
ே
ை
௏
ௐ
௑
௕
ௗ
௚
௜
௝
௞
௠
௢
௤
௭
௰
௱
௵
௷
௻
௼
௽
௾
ః
ఆ
ఇ
ఉ
఍
ఐ
఑
ఓ
ఔ
క
ఖ
గ
జ
ట
ణ
త
ద
ధ
న
య
ల
ళ
శ
స
఻
ు
౉
౎
౑
ౙ
ౚ
౜
ౝ
౞
ౡ
౤
౥
౦
౩
౫
౬
౮
౲
౵
౷
౹
౺
౻
౼
౿
ಀ
ಂ
ಃ
ಅ
ಆ
ಎ
ಐ
಑
ಒ
ಓ
ಔ
ಕ
ಡ
ತ
ಧ
಩
ಪ
ಫ
ರ
ಲ
ವ
ಸ
ಹ
ಽ
ಾ
ು
ೂ
೎
೏
೒
೓
೔
ೕ
೛
೜
ೡ
೥
೪
೫
೬
೮
ೱ
ೲ
೵
೻
೽
ം
ആ
ഇ
ഈ
ഊ
ഌ
എ
ഐ
഑
ഒ
ഓ
ഔ
ച
ജ
ഝ
ഞ
ഡ
ഢ
ഥ
ധ
ന
പ
ബ
മ
യ
ര
ല
ള
സ
ഺ
഼
ാ
ി
െ
േ
൉
൓
ൔ
൚
ൟ
ൡ
൦
൨
൪
൰
൱
൵
൷
ൽ
඀
ඁ
ං
඄
අ
ආ
ඇ
ඉ
උ
ඌ
එ
ඒ
ඔ
ඕ
඗
඘
ක
ඛ
ග
ඝ
ඞ
ච
ඡ
ජ
ඤ
ඥ
ට
ඩ
ණ
ත
ථ
ද
ධ
න
ඳ
ප
ඵ
බ
ම
ය
ර
ල
඾
ව
ශ
ෂ
ස
හ
ළ
ෆ
෈
෋
෍
෎
ා
ැ
ෑ
෕
෗
ෘ
ෙ
ෟ
෣
෤
෨
෪
෰
ෳ
෵
෷
෻
෾
ก
ข
ฃ
ค
ง
จ
ฉ
ช
ซ
ฌ
ญ
ฎ
ฐ
ฑ
ฒ
ณ
ด
ต
ถ
ท
ธ
น
บ
ป
ผ
ฝ
พ
ฟ
ภ
ม
ย
ร
ล
ฦ
ว
ศ
ษ
ส
ห
อ
ฮ
ฯ
ะ
า
ำ
฼
฿
เ
แ
โ
ใ
ไ
ๆ
๒
๗
๙
๚
๜
๝
๠
๡
๤
๦
๧
๩
๪
๯
๰
๳
๵
๺
๻
๼
๿
຀
ກ
ຄ
຋
ຎ
ຐ
ຓ
ຕ
ຖ
ບ
ປ
ຝ
ພ
຤
ລ
ວ
ຩ
ສ
ອ
ຯ
າ
຺
຿
ໂ
ໃ
ໄ
໐
໒
໗
໘
໙
໠
໧
໩
໭
໰
໶
໼
໽
༄
༆
༇
།
༎
༏
༐
༒
༔
༚
༞
༟
༠
༢
༧
༪
༳
༶
༺
༻
༼
ཁ
ང
ཅ
ཌ
ཎ
ཐ
ད
ཙ
ཚ
ཟ
ར
ཤ
ཧ
཭
཯
ྈ
ྉ
ྊ
ྌ
྿
࿀
࿄
࿇
࿈
࿌
࿍
࿐
࿑
࿒
࿓
࿔
࿕
࿙
࿞
࿡
࿢
࿣
࿤
࿥
࿧
࿨
࿲
࿳
࿵
࿽
࿾
က
ခ
ဃ
င
စ
ည
ဍ
ဒ
န
ပ
ဖ
မ
ရ
လ
အ
ဣ
ဥ
ဩ
ါ
ာ
ေ
း
ြ
ဿ
၃
၅
၉
၊
။
၏
ၐ
ၓ
ၖ
ၗ
ၝ
ၣ
ၮ
ၯ
ၶ
ၸ
ၺ
ၻ
ၽ
ၾ
ၿ
ႀ
ႈ
ႊ
ႋ
႑
႒
႕
႖
႘
ႚ
႞
჈
჉
჋
ა
ბ
გ
დ
ე
ვ
ზ
თ
ი
კ
ლ
მ
ნ
ო
პ
ჟ
რ
ს
ტ
უ
ქ
ღ
ყ
ჩ
ც
წ
ხ
ჯ
ჱ
ჲ
ჵ
ჷ
ჸ
ჹ
ჽ
ჾ
ჿ
ᄀ
ᄁ
ᄂ
ᄃ
ᄅ
ᄆ
ᄇ
ᄈ
ᄉ
ᄋ
ᄌ
ᄍ
ᄎ
ᄏ
ᄐ
ᄑ
ᄒ
ᄗ
ᄙ
ᄠ
ᄢ
ᄤ
ᄥ
ᄦ
ᄩ
ᄭ
ᄵ
ᄸ
ᄹ
ᄺ
ᄼ
ᅀ
ᅄ
ᅆ
ᅈ
ᅉ
ᅊ
ᅋ
ᅎ
ᅒ
ᅔ
ᅖ
ᅛ
ᅝ
ᅡ
ᅢ
ᅣ
ᅤ
ᅥ
ᅦ
ᅧ
ᅨ
ᅩ
ᅪ
ᅫ
ᅬ
ᅭ
ᅮ
ᅯ
ᅰ
ᅱ
ᅲ
ᅳ
ᅴ
ᅵ
ᅶ
ᅹ
ᅺ
ᅻ
ᅼ
ᅽ
ᅾ
ᆀ
ᆅ
ᆇ
ᆊ
ᆌ
ᆎ
ᆓ
ᆕ
ᆖ
ᆟ
ᆥ
ᆦ
ᆨ
ᆪ
ᆫ
ᆬ
ᆭ
ᆮ
ᆯ
ᆰ
ᆱ
ᆲ
ᆳ
ᆴ
ᆵ
ᆷ
ᆸ
ᆹ
ᆺ
ᆻ
ᆼ
ᆽ
ᆾ
ᇀ
ᇂ
ᇃ
ᇅ
ᇆ
ᇎ
ᇒ
ᇔ
ᇖ
ᇚ
ᇜ
ᇞ
ᇡ
ᇢ
ᇣ
ᇥ
ᇩ
ᇫ
ᇬ
ᇭ
ᇰ
ᇱ
ᇳ
ᇸ
ᇻ
ᇾ
ᇿ
ሀ
ሁ
ሂ
ሃ
ሄ
ህ
ሆ
ሇ
ለ
ሉ
ሊ
ላ
ሌ
ል
ሎ
ሏ
ሐ
ሑ
ሒ
ሓ
ሔ
ሕ
ሖ
ሗ
መ
ሙ
ሚ
ማ
ሜ
ም
ሞ
ሟ
ሠ
ሡ
ሢ
ሣ
ሤ
ሥ
ሦ
ሧ
ረ
ሩ
ሪ
ራ
ሬ
ር
ሮ
ሯ
ሰ
ሱ
ሲ
ሳ
ሴ
ስ
ሶ
ሷ
ሸ
ሹ
ሺ
ሻ
ሼ
ሽ
ሾ
ሿ
ቀ
ቁ
ቂ
ቃ
ቄ
ቅ
ቆ
ቇ
ቈ
቉
ቊ
ቋ
ቌ
ቍ
቎
ቐ
ቑ
ቒ
ቓ
ቔ
ቕ
ቖ
቗
ቘ
቙
ቚ
ቛ
ቜ
ቝ
቞
በ
ቡ
ቢ
ባ
ቤ
ብ
ቦ
ቧ
ቨ
ቩ
ቪ
ቫ
ቬ
ቭ
ቮ
ቯ
ተ
ቱ
ቲ
ታ
ቴ
ት
ቶ
ቷ
ቸ
ቹ
ቺ
ቻ
ቼ
ች
ቾ
ቿ
ኀ
ኁ
ኂ
ኃ
ኄ
ኅ
ኆ
ኇ
ኈ
኉
ኊ
ኋ
ኌ
ኍ
኏
ነ
ኑ
ኒ
ና
ኔ
ን
ኖ
ኗ
ኘ
ኙ
ኚ
ኛ
ኜ
ኝ
ኞ
ኟ
አ
ኡ
ኢ
ኣ
ኤ
እ
ኦ
ኧ
ከ
ኩ
ኪ
ካ
ኬ
ክ
ኮ
ኯ
ኰ
኱
ኲ
ኳ
ኴ
ኵ
ኸ
ኹ
ኺ
ኻ
ኼ
ኽ
ኾ
኿
ዀ
ዂ
ዃ
ዄ
ዅ
዇
ወ
ዉ
ዊ
ዋ
ዌ
ው
ዎ
ዏ
ዐ
ዑ
ዒ
ዓ
ዔ
ዕ
ዖ
዗
ዘ
ዙ
ዚ
ዛ
ዜ
ዝ
ዞ
ዟ
ዠ
ዡ
ዢ
ዣ
ዤ
ዥ
ዦ
ዧ
የ
ዩ
ዪ
ያ
ዬ
ይ
ዮ
ዯ
ደ
ዱ
ዲ
ዳ
ዴ
ድ
ዶ
ዷ
ዸ
ዹ
ዺ
ዻ
ዼ
ዽ
ዾ
ዿ
ጀ
ጁ
ጂ
ጃ
ጄ
ጅ
ጆ
ጇ
ገ
ጉ
ጊ
ጋ
ጌ
ግ
ጎ
ጏ
ጐ
጑
ጒ
ጓ
ጔ
ጕ
ጘ
ጙ
ጚ
ጛ
ጜ
ጝ
ጞ
ጟ
ጠ
ጡ
ጢ
ጣ
ጤ
ጥ
ጦ
ጧ
ጨ
ጩ
ጪ
ጫ
ጬ
ጭ
ጮ
ጯ
ጰ
ጱ
ጲ
ጳ
ጴ
ጵ
ጶ
ጷ
ጸ
ጹ
ጺ
ጻ
ጼ
ጽ
ጾ
ጿ
ፀ
ፁ
ፂ
ፃ
ፄ
ፅ
ፆ
ፇ
ፈ
ፉ
ፊ
ፋ
ፌ
ፍ
ፎ
ፏ
ፐ
ፑ
ፒ
ፓ
ፔ
ፕ
ፖ
ፗ
ፘ
ፙ
ፚ
፛
፠
፡
።
፣
፤
፥
፦
፧
፨
፩
፪
፫
፬
፭
፮
፯
፰
፱
፲
፳
፴
፵
፶
፷
፸
፹
፺
፻
፼
፿
ᎀ
ᎁ
ᎂ
ᎃ
ᎄ
ᎅ
ᎆ
ᎇ
ᎈ
ᎉ
ᎊ
ᎋ
ᎌ
ᎍ
ᎎ
ᎏ
᎐
᎑
᎒
᎓
᎔
᎕
᎖
᎗
᎘
᎙
᎚
᎛
᎜
᎝
᎞
᎟
᏶
᏷
ᏸ
ᏹ
ᏺ
ᏼ
᏿
᐀
ᐁ
ᐂ
ᐃ
ᐄ
ᐍ
ᐓ
ᐗ
ᐙ
ᐚ
ᐛ
ᐜ
ᐝ
ᐞ
ᐠ
ᐣ
ᐥ
ᐩ
ᐪ
ᐰ
ᐳ
ᐵ
ᐸ
ᐹ
ᐺ
ᐼ
ᐽ
ᑂ
ᑃ
ᑅ
ᑋ
ᑌ
ᑍ
ᑏ
ᑐ
ᑑ
ᑕ
ᑖ
ᑙ
ᑟ
ᑠ
ᑡ
ᑣ
ᑨ
ᑩ
ᑪ
ᑬ
ᑭ
ᑱ
ᑲ
ᑵ
ᑶ
ᑻ
ᑼ
ᑽ
ᒂ
ᒇ
ᒊ
ᒍ
ᒎ
ᒏ
ᒐ
ᒑ
ᒒ
ᒓ
ᒖ
ᒙ
ᒝ
ᒠ
ᒡ
ᒢ
ᒥ
ᒦ
ᒪ
ᒬ
ᒯ
ᒰ
ᒱ
ᒴ
ᒵ
ᒶ
ᓄ
ᓅ
ᓈ
ᓌ
ᓎ
ᓏ
ᓒ
ᓖ
ᓘ
ᓝ
ᓦ
ᓧ
ᓨ
ᓩ
ᓬ
ᓲ
ᓴ
ᓷ
ᓸ
ᓺ
ᓻ
ᓼ
ᓽ
ᓾ
ᔁ
ᔃ
ᔄ
ᔇ
ᔈ
ᔊ
ᔋ
ᔏ
ᔐ
ᔑ
ᔔ
ᔕ
ᔘ
ᔛ
ᔝ
ᔞ
ᔢ
ᔤ
ᔥ
ᔪ
ᔭ
ᔰ
ᔱ
ᔵ
ᔻ
ᔼ
ᕂ
ᕃ
ᕆ
ᕊ
ᕌ
ᕍ
ᕎ
ᕔ
ᕕ
ᕚ
ᕣ
ᕤ
ᕩ
ᕪ
ᕯ
ᕰ
ᕱ
ᕳ
ᕵ
ᕸ
ᕼ
ᕽ
ᕾ
ᖀ
ᖁ
ᖂ
ᖄ
ᖆ
ᖈ
ᖉ
ᖋ
ᖍ
ᖎ
ᖒ
ᖔ
ᖖ
ᖗ
ᖘ
ᖚ
ᖠ
ᖣ
ᖦ
ᖧ
ᖨ
ᖬ
ᖯ
ᖰ
ᖱ
ᖳ
ᖴ
ᖶ
ᖸ
ᖹ
ᖺ
ᖽ
ᗀ
ᗂ
ᗃ
ᗆ
ᗈ
ᗍ
ᗎ
ᗓ
ᗖ
ᗗ
ᗘ
ᗙ
ᗚ
ᗛ
ᗜ
ᗟ
ᗤ
ᗨ
ᗬ
ᗳ
ᗸ
ᗹ
ᗻ
ᗿ
ᘂ
ᘃ
ᘄ
ᘅ
ᘇ
ᘎ
ᘏ
ᘐ
ᘑ
ᘒ
ᘗ
ᘙ
ᘚ
ᘛ
ᘝ
ᘟ
ᘥ
ᘦ
ᘨ
ᘫ
ᘬ
ᘭ
ᘯ
ᘲ
ᘳ
ᘵ
ᘻ
ᘾ
ᙀ
ᙁ
ᙄ
ᙆ
ᙇ
ᙈ
ᙉ
ᙍ
ᙐ
ᙒ
ᙓ
ᙔ
ᙙ
ᙞ
ᙡ
ᙥ
ᙦ
ᙨ
ᙩ
ᙪ
᙭
ᙰ
ᙽ
ᚆ
ᚇ
ᚉ
ᚋ
ᚕ
ᚘ
᚝
ᚠ
ᚢ
ᚣ
ᚨ
ᚬ
ᚯ
ᚰ
ᚳ
ᚵ
ᚶ
ᚻ
ᚼ
ᚽ
ᛁ
ᛂ
ᛃ
ᛅ
ᛈ
ᛊ
ᛏ
ᛒ
ᛓ
ᛔ
ᛞ
ᛠ
ᛡ
ᛥ
ᛦ
ᛨ
ᛪ
᛭
ᛮ
ᛯ
ᛲ
ᛶ
ᛷ
ᛸ
᛺
᛽
᛿
ᜀ
ᜄ
ᜅ
ᜋ
ᜍ
ᜎ
᜖
᜙
ᜢ
ᜣ
ᜤ
ᜥ
ᜦ
ᜧ
ᜨ
ᜫ
ᜯ
᜸
᜻
᜿
ᝀ
ᝁ
ᝂ
ᝇ
ᝈ
ᝉ
ᝏ
᝕
᝖
᝛
᝝
ᝣ
ᝪ
ᝫ
ᝯ
᝱
᝴
᝵
᝷
᝿
ក
ខ
ង
ច
ជ
ឈ
ញ
ដ
ឋ
ឍ
ណ
ត
ថ
ទ
ធ
ន
ប
ព
ភ
ម
យ
រ
ល
វ
ឝ
ឞ
ស
ហ
អ
ឦ
ឧ
ឨ
ឩ
ឪ
ឭ
ឱ
ា
ឿ
េ
ែ
ោ
ៅ
៖
៛
ៜ
៞
៦
៫
៭
៮
៯
៱
៳
៴
៷
៸
៽
៾
៿
᠀
᠂
᠃
᠅
᠇
᠈
᠉
᠊
᠓
᠕
᠙
᠜
᠝
᠟
ᠠ
ᠡ
ᠣ
ᠤ
ᠥ
ᠦ
ᠧ
ᠪ
ᠫ
ᠰ
ᠲ
ᠳ
ᠵ
ᠶ
ᠷ
ᠻ
ᠿ
ᡂ
ᡅ
ᡈ
ᡎ
ᡏ
ᡐ
ᡖ
ᡘ
ᡚ
ᡢ
ᡣ
ᡥ
ᡦ
ᡪ
ᡬ
ᡮ
ᡰ
ᡳ
ᡷ
᡺
᡻
᡼
᡿
ᢀ
ᢁ
ᢂ
ᢃ
ᢅ
ᢇ
ᢈ
ᢉ
ᢋ
ᢌ
ᢏ
ᢑ
ᢗ
ᢘ
ᢚ
ᢜ
ᢝ
ᢟ
ᢥ
ᢧ
ᢨ
ᢪ
᢭
᢮
᢯
ᢴ
ᢵ
ᢶ
ᢻ
ᢾ
ᢿ
ᣆ
ᣈ
ᣋ
ᣌ
ᣎ
ᣓ
ᣔ
ᣕ
ᣘ
ᣙ
ᣛ
ᣜ
ᣟ
ᣢ
ᣤ
ᣪ
ᣬ
ᣭ
ᣴ
᣷
᣺
᣽
᣾
ᤀ
ᤁ
ᤄ
ᤅ
ᤎ
ᤒ
ᤔ
ᤘ
ᤝ
ᤣ
ᤪ
ᤫ
᤬
᤭
᤯
ᤰ
ᤱ
ᤴ
ᤷ
ᤸ
᤽
᤾
᤿
᥀
᥂
᥃
᥄
᥅
᥈
᥊
᥎
ᥓ
ᥗ
ᥙ
ᥛ
ᥟ
ᥠ
ᥣ
ᥨ
ᥰ
ᥱ
ᥲ
ᥳ
ᥴ
᥹
᥼
᥽
ᦁ
ᦂ
ᦃ
ᦄ
ᦈ
ᦊ
ᦋ
ᦌ
ᦏ
ᦕ
ᦖ
ᦘ
ᦙ
ᦛ
ᦞ
ᦤ
ᦥ
᦬
᦭
ᦰ
ᦸ
ᦹ
ᦺ
ᧀ
ᧂ
ᧄ
ᧉ
᧋
᧍
᧎
᧑
᧔
᧖
᧗
᧘
᧝
᧞
᧡
᧦
᧨
᧩
᧪
᧬
᧮
᧱
᧲
᧶
᧷
᧿
ᨀ
ᨄ
ᨍ
ᨑ
ᨒ
ᨖ
᨜
᨝
ᨦ
ᨧ
ᨨ
ᨮ
ᨱ
ᨳ
ᨴ
ᨶ
ᨷ
ᨸ
ᨹ
ᨺ
ᨻ
ᨽ
ᨿ
ᩁ
ᩃ
ᩄ
ᩊ
ᩌ
ᩓ
᩟
ᩣ
ᩤ
ᩮ
᪀
᪁
᪅
᪆
᪈
᪍
᪏
᪑
᪓
᪔
᪗
᪚
᪛
᪜
᪞
᪠
᪣
᪥
᪦
ᪧ
᪨
᪬
᪮
ᪿ
ᫀ
᫁
᫅
᫆
᫉
᫊
ᫍ
᫏
᫐
᫔
᫕
᫟
᫢
᫣
᫤
᫪
᫫
᫬
᫯
᫱
᫵
᫷
᫻
᫼
᫽
᫾
ᬅ
ᬉ
ᬑ
ᬘ
ᬝ
ᬟ
ᬨ
ᬩ
ᬪ
ᬫ
ᬬ
ᬭ
ᬮ
ᬯ
ᬱ
ᬲ
ᬵ
ᬾ
ᬿ
᭄
ᭆ
ᭋ
᭑
᭔
᭗
᭚
᭛
᭝
᭞
᭟
᭠
᭡
᭥
᭨
᭶
᭷
᭸
᭹
᭽
ᮆ
ᮉ
ᮌ
ᮍ
ᮔ
ᮙ
ᮚ
ᮛ
ᮜ
ᮞ
ᮟ
ᮠ
ᮦ
ᮧ
᮪
᮴
᮵
᮶
᮹
ᮻ
ᮼ
ᮿ
ᯀ
ᯁ
ᯂ
ᯅ
ᯈ
ᯋ
ᯐ
ᯕ
ᯗ
ᯙ
ᯟ
ᯡ
ᯢ
ᯥ
ᯧ
ᯪ
ᯬ
᯲
᯳
᯷
᯻
᯼
᯽
᯿
ᰀ
ᰂ
ᰅ
ᰇ
ᰈ
ᰊ
ᰍ
ᰎ
ᰐ
ᰚ
ᰜ
ᰝ
ᰞ
ᰠ
ᰡ
ᰤ
ᰥ
ᰨ
ᰫ
᰸
᰺
᰽
᰿
᱄
᱉
᱌
᱐
᱑
᱒
᱔
᱖
ᱚ
ᱜ
ᱠ
ᱡ
ᱨ
ᱪ
ᱬ
ᱱ
ᱳ
ᱴ
ᱵ
ᱸ
ᱺ
ᱻ
ᱼ
ᱽ
ᲁ
ᲊ
᲌
᲍
᲼
᳅
᳈
᳓
ᳪ
ᳯ
ᳱ
ᳳ
᳷
᳼
᳾
ᴀ
ᴄ
ᴅ
ᴇ
ᴈ
ᴉ
ᴊ
ᴋ
ᴌ
ᴍ
ᴏ
ᴐ
ᴑ
ᴓ
ᴕ
ᴖ
ᴗ
ᴘ
ᴙ
ᴚ
ᴛ
ᴜ
ᴝ
ᴞ
ᴠ
ᴡ
ᴢ
ᴣ
ᴧ
ᴨ
ᴫ
ᴬ
ᴮ
ᴳ
ᴷ
ᴺ
ᴻ
ᵅ
ᵋ
ᵌ
ᵍ
ᵎ
ᵐ
ᵒ
ᵓ
ᵙ
ᵚ
ᵟ
ᵠ
ᵢ
ᵤ
ᵥ
ᵫ
ᵬ
ᵭ
ᵮ
ᵰ
ᵴ
ᵵ
ᵶ
ᵹ
ᵻ
ᶁ
ᶂ
ᶃ
ᶇ
ᶈ
ᶉ
ᶋ
ᶌ
ᶑ
ᶒ
ᶔ
ᶕ
ᶖ
ᶜ
ᶠ
ᶤ
ᶥ
ᶩ
ᶫ
ᶬ
ᶲ
ᶸ
ᶻ
ᶼ
ᶾ
᷶
᷻
ẟ
἖
἗
἟
὆
὘
᾿
῀
῅
῕
῱
῾
῿
‐
‑
‒
–
—
―
‖
‘
’
‚
‛
“
”
„
‟
†
‡
•
‣
․
…
‰
′
″
‶
‹
›
※
‼
⁄
⁉
⁰
⁴
⁵
⁶
⁷
⁸
⁹
₁
₂
₈
₉
₍
₎
₤
₩
₪
€
₰
₴
₵
₹
₺
⃣
ℂ
℃
℅
℉
ℍ
ℒ
ℕ
№
℘
ℙ
ℚ
ℛ
ℜ
ℝ
™
ℤ
℮
ℯ
ℱ
ℳ
ⅎ
⅓
⅔
ⅲ
ⅾ
ↄ
←
↑
→
↓
↔
↠
↩
↵
⇄
⇐
⇒
⇓
⇣
⇨
∂
∇
−
∕
∗
∙
√
∞
∠
∧
∨
∫
∶
∷
∼
∽
≤
≥
≪
≫
⊏
⊕
⋅
⋆
⋔
⎼
⏩
⏰
⏹
⏺
①
②
③
④
ⓘ
ⓛ
ⓦ
─
━
│
┄
┇
┉
┌
┏
┐
┓
└
┗
┘
┛
├
═
╬
▂
█
░
▒
▓
■
□
▪
▫
▬
▲
▶
▷
▸
►
▻
▼
◀
◂
◄
◆
◇
◉
◊
○
◌
●
◙
◣
◥
◯
◽
◾
☂
★
☆
☎
☑
☕
☚
☛
☜
☝
☞
☰
☺
☻
♀
♂
♈
♉
♊
♋
♌
♍
♎
♏
♐
♑
♒
♓
♠
♡
♢
♣
♥
♦
♨
♩
♪
♫
♬
♭
♻
⚀
⚅
⚖
⚠
⚡
⚽
✅
✆
✈
✉
✋
✍
✎
✓
✔
✘
✙
✝
✞
✡
✥
✧
✨
✫
✲
✳
✸
✽
✿
❀
❄
❇
❌
❍
❏
❐
❑
❒
❓
❖
❗
❝
❞
❡
❣
❤
❦
❶
❷
❸
❹
❺
❻
➊
➋
➌
➍
➎
➏
➐
➑
➒
➔
➕
➖
➡
➢
➤
➥
➧
➶
⟵
⟶
⡢
⡣
⡦
⡪
⤢
⤤
⤦
⤬
⤳
⤵
⤷
⤽
⤿
⥤
⦁
⦿
⨳
⭐
ⱥ
ⱦ
ⱶ
ⲁ
ⲉ
ⲏ
ⲓ
ⲙ
ⲛ
ⲟ
ⲡ
ⲣ
ⲥ
ⲧ
ⲩ
ⲫ
ⲱ
ⲿ
⳿
ⴂ
ⴆ
ⴇ
ⴈ
ⴉ
ⴊ
ⴋ
ⴎ
ⴐ
ⴒ
ⴓ
ⴗ
ⴘ
ⴙ
ⴛ
ⴜ
ⴠ
ⴡ
ⴤ
ⴥ
⴦
ⴧ
ⵆ
ⵤ
ⶀ
ⶁ
ⶂ
ⶃ
ⶄ
ⶅ
ⶆ
ⶈ
ⶉ
ⶊ
ⶋ
ⶌ
ⶎ
ⶏ
ⶐ
ⶒ
ⶥ
ⶨ
ⶩ
ⶪ
ⶫ
ⶬ
ⶭ
ⶰ
ⶵ
ⶶ
ⶸ
ⶽ
ⷀ
ⷃ
ⷅ
ⷈ
ⷋ
ⷍ
ⷎ
⷏
ⷐ
ⷑ
ⷒ
ⷓ
ⷔ
ⷕ
ⷖ
⷗
ⷘ
ⷙ
ⷚ
ⷛ
ⷜ
ⷝ
ⷞ
⷟
⸀
⸁
⸂
⸃
⸄
⸅
⸆
⸇
⸈
⸉
⸊
⸋
⸌
⸍
⸎
⸏
⸐
⸑
⸒
⸓
⸔
⸕
⸖
⸗
⸘
⸙
⸚
⸛
⸜
⸝
⸞
⸟
⸠
⸡
⸢
⸣
⸤
⸥
⸦
⸧
⸨
⸩
⸪
⸫
⸬
⸭
⸮
ⸯ
⸰
⸱
⸲
⸳
⸴
⸵
⸶
⸷
⸸
⸹
⸺
⸻
⸼
⸽
⸾
⸿
⹀
⹁
⹂
⹃
⹄
⹅
⹆
⹇
⹈
⹉
⹊
⹋
⹌
⹍
⹎
⹏
⹐
⹑
⹒
⹓
⹔
⹕
⹖
⹗
⹘
⹙
⹚
⹛
⹜
⹝
⹞
⹟
⹠
⹡
⹢
⹣
⹤
⹥
⹦
⹧
⹨
⹩
⹪
⹫
⹬
⹭
⹮
⹯
⹰
⹱
⹲
⹳
⹴
⹵
⹶
⹷
⹸
⹹
⹺
⹻
⹼
⹽
⹾
⹿
⺀
⺁
⺂
⺃
⺄
⺅
⺆
⺇
⺈
⺉
⺊
⺋
⺌
⺍
⺎
⺏
⺐
⺑
⺒
⺓
⺔
⺕
⺖
⺗
⺘
⺙
⺚
⺛
⺜
⺝
⺞
⺟
⺠
⺡
⺢
⺣
⺤
⺥
⺦
⺧
⺨
⺩
⺪
⺫
⺬
⺭
⺮
⺯
⺰
⺱
⺲
⺳
⺴
⺵
⺶
⺷
⺸
⺹
⺺
⺻
⺼
⺽
⺾
⺿
⻀
⻁
⻂
⻃
⻄
⻅
⻆
⻇
⻈
⻉
⻊
⻋
⻌
⻍
⻎
⻏
⻐
⻑
⻒
⻓
⻔
⻕
⻖
⻗
⻘
⻙
⻚
⻛
⻜
⻝
⻞
⻟
⻠
⻡
⻢
⻣
⻤
⻥
⻦
⻧
⻨
⻩
⻪
⻫
⻬
⻭
⻮
⻯
⻰
⻱
⻲
⻳
⻴
⻵
⻶
⻷
⻸
⼣
⽭
⾳
、
。
〈
〉
《
》
「
」
『
』
【
】
〒
〰
あ
い
う
お
か
き
く
こ
さ
し
す
せ
た
ち
っ
て
と
な
に
の
は
ま
む
め
も
よ
ら
り
る
れ
を
ア
イ
ォ
オ
キ
ク
サ
シ
ス
タ
ッ
ツ
テ
ト
ニ
ネ
ハ
ヒ
フ
ホ
マ
ミ
ム
ュ
ラ
リ
ル
レ
ロ
ン
・
ー
㗹
㙀
㜎
㝕
㡢
㡣
㡱
㤤
㤦
㤨
㤬
㤭
㤯
㤱
㤵
㥹
㱨
㲼
㳲
㵺
㷢
䡣
䡪
䣬
䤫
䤬
䤯
䤴
䤷
䤹
䤻
䥬
䰲
一
七
三
上
下
不
世
业
两
丨
个
中
为
么
义
之
乌
乐
乔
也
书
了
事
二
五
亚
交
京
人
什
今
介
从
他
以
们
仰
件
任
仿
企
伊
会
伦
伯
位
体
作
你
使
依
侰
侳
信
修
倉
候
偉
備
價
充
先
光
克
免
入
公
六
兰
共
其
具
兹
兽
内
写
冰
冷
准
凡
出
分
切
刊
列
刘
初
利
别
到
前
力
办
动
助
努
劳
势
勒
務
包
北
医
十
千
卖
南
卡
危
原
厥
厦
去
又
及
友
双
反
取
受
变
口
古
句
只
叭
可
台
右
叶
号
司
各
合
吉
同
名
后
吕
吗
含
听
吴
告
呢
和
品
哈
哦
商
喀
喇
回
因
图
土
圣
在
地
坎
坦
埃
城
基
堡
塔
塞
塢
塼
壬
壹
处
夏
外
多
大
太
夫
夬
央
头
奇
奈
契
奖
套
奥
女
好
如
姆
威
子
孔
字
孜
季
孤
学
孩
孫
學
宁
它
安
宓
定
实
客
室
家
容
宾
宿
寢
对
将
小
尔
就
尼
尽
屋
山
岡
川
己
巴
市
布
希
带
常
帺
干
平
年
床
库
应
店
府
庭
廣
延
开
归
当
彬
彼
得
徫
微
德
心
忠
忪
念
怎
性
恋
恶
悪
情
想
愛
感
態
慕
憲
懂
戈
戏
成
我
戒
房
扉
手
才
扎
托
批
技
把
报
拆
拉
拍
括
持
捌
捷
掉
推
提
換
搭
摩
撒
播
支
收
政
数
文
料
斯
新
方
日
时
昆
明
是
晶
智
曝
曦
曼
最
月
有
服
木
末
本
村
条
来
杨
東
林
果
架
柒
柴
标
样
根
格
档
梅
棬
棱
椤
椦
業
概
様
模
橐
櫓
正
此
毁
母
民
氣
水
污
汾
沃
沙
法
波
洗
洛
津
洪
活
浩
浪
海
涫
液
游
湯
滭
漏
漣
漸
濪
灣
灭
点
無
照
爪
爱
版
特
状
狼
猛
獲
王
玖
玫
现
球
理
琰
琳
瑙
瑰
甄
甘
生
產
用
甫
甲
申
界
畴
疑
疾
病
瘾
登
發
的
益
监
目
直
看
真
眼
着
睛
知
石
码
砍
破
硢
硣
碍
磼
礦
礭
示
祈
祝
神
福
禹
私
秋
科
称
秽
稣
稼
突
站
端
競
第
等
签
简
算
管
箱
節
範
米
籸
粉
粤
粵
粽
精
素
索
紹
組
經
続
網
緽
縶
縺
繁
纳
线
绍
经
给
维
缅
缼
网
罕
罗
翰
者
而
耳
耶
聖
聞
肃
肯
背
能
自
至
舍
色
花
芳
芸
苏
苦
英
范
荐
莫
营
萨
落
著
蔡
藤
蝶
行
衛
衣
衦
表
製
褦
褫
褯
褵
褷
褹
襤
西
要
視
解
設
詹
語
読
认
话
诞
语
说
诸
诺
谈
費
賣
購
责
质
贵
贾
赛
赢
走
起
路
踽
车
软
辛
辰
農
边
辽
达
过
还
这
进
远
连
迪
选
速
造
道
遗
選
那
部
鄂
释
里
重
金
錄
钩
铁
長
門
防
阿
院
险
障
难
雅
集
雪
電
需
霍
霜
静
非
面
頁
頼
類
顢
顣
顦
顱
题
餤
餦
館
餫
餵
餷
餸
餹
餺
餻
饤
马
體
高
鬼
魔
鱦
鲁
鲿
鳡
鶦
鶯
鷨
鸦
鹭
麦
黃
鼣
齪
齫
齭
龯
ꜥ
ꜰ
ꜱ
ꡢ
ꡣ
꡼
ꤤ
ꤵ
ꤷ
ꤸ
ꤹ
ꤿ
ꥹ
ꬁ
ꬂ
ꬃ
ꬄ
ꬅ
ꬆ
ꬉ
ꬊ
ꬋ
ꬌ
ꬎ
ꬑ
ꬓ
ꬖ
ꭱ
ꭲ
ꭳ
ꭴ
ꭹ
ꭺ
ꭼ
ꭽ
ꮁ
ꮃ
ꮄ
ꮅ
ꮆ
ꮍ
ꮓ
ꮕ
ꮛ
ꮞ
ꮠ
ꮤ
ꮨ
ꮮ
ꮯ
ꮶ
ꮺ
ꮽ
ꮾ
ﬀ
ﬁ
﮲
﮳
﮴
﮵
﮶
﮷
﮸
﮹
﮺
﮻
﮼
﮽
﮾
﮿
﯀
﯁
﯂
ﯨ
ﯩ
ﯹ
ﯺ
ﯻ
ﰲ
ﱠ
﴾
﴿
ﷺ
ﷻ
﷼
﷽
︵
ﹶ
ﹸ
ﹾ
ﺀ
ﺁ
ﺂ
ﺃ
ﺄ
ﺅ
ﺆ
ﺇ
ﺈ
ﺋ
ﺌ
ﺍ
ﺎ
ﺏ
ﺐ
ﺑ
ﺒ
ﺓ
ﺔ
ﺕ
ﺖ
ﺗ
ﺘ
ﺙ
ﺚ
ﺛ
ﺜ
ﺝ
ﺞ
ﺟ
ﺠ
ﺡ
ﺢ
ﺣ
ﺤ
ﺦ
ﺧ
ﺨ
ﺩ
ﺪ
ﺫ
ﺬ
ﺭ
ﺮ
ﺯ
ﺰ
ﺱ
ﺲ
ﺳ
ﺴ
ﺵ
ﺷ
ﺸ
ﺹ
ﺺ
ﺻ
ﺼ
ﺽ
ﺾ
ﺿ
ﻀ
ﻂ
ﻃ
ﻄ
ﻆ
ﻇ
ﻈ
ﻉ
ﻊ
ﻋ
ﻌ
ﻎ
ﻏ
ﻐ
ﻑ
ﻒ
ﻓ
ﻔ
ﻕ
ﻖ
ﻗ
ﻘ
ﻙ
ﻚ
ﻛ
ﻜ
ﻝ
ﻞ
ﻟ
ﻠ
ﻡ
ﻢ
ﻣ
ﻤ
ﻥ
ﻦ
ﻧ
ﻨ
ﻩ
ﻪ
ﻫ
ﻬ
ﻭ
ﻮ
ﻯ
ﻰ
ﻱ
ﻲ
ﻳ
ﻴ
ﻷ
ﻹ
ﻻ
ﻼ
！
（
）
，
－
：
；
？
ａ
ｃ
ｄ
ｅ
ｆ
ｇ
ｈ
ｉ
ｊ
ｎ
ｏ
ｐ
ｒ
ｓ
ｔ
ｗ
ｙ
￼
𐌁
𐌆
𐌇
𐌈
𐌊
𐌌
𐌍
𐌎
𐌏
𐌐
𐌑
𐌒
𐌓
𐌖
𐌗
𐌘
𐌙
𐌚
𐌠
𐌡
𐌢
𐩢
𐩧
𐩨
𒄀
𒅗
𒈾
𒌷
𝐁
𝐦
𝐭
𝐵
𝐸
𝐹
𝐻
𝐼
𝐿
𝑀
𝑅
𝑒
𝑔
𝑜
𝒜
𝒞
𝒟
𝒢
𝒥
𝒦
𝒩
𝒪
𝒫
𝒬
𝒮
𝒯
𝒰
𝒱
𝒲
𝒳
𝒴
𝒵
𝒶
𝒷
𝒸
𝒹
𝒻
𝒽
𝒾
𝒿
𝓀
𝓁
𝓂
𝓃
𝓅
𝓆
𝓇
𝓈
𝓉
𝓊
𝓋
𝓌
𝓍
𝓎
𝓏
𝓧
𝓪
𝓬
𝓮
𝓯
𝓲
𝓷
𝓸
𝓻
𝓼
𝓽
𝓾
𝓿
𝔀
𝔢
𝔣
𝔦
𝔫
𝔬
𝔯
𝔰
𝔱
𝔴
𝔸
𝔹
𝔻
𝔼
𝔽
𝔾
𝕀
𝕁
𝕂
𝕃
𝕄
𝕆
𝕊
𝕋
𝕌
𝕍
𝕎
𝕏
𝕐
𝕒
𝕓
𝕔
𝕕
𝕖
𝕗
𝕘
𝕙
𝕚
𝕛
𝕜
𝕝
𝕞
𝕟
𝕠
𝕡
𝕢
𝕣
𝕤
𝕥
𝕦
𝕧
𝕨
𝕩
𝕪
𝕫
𝖆
𝖇
𝖈
𝖉
𝖊
𝖋
𝖌
𝖍
𝖎
𝖏
𝖐
𝖑
𝖒
𝖓
𝖔
𝖕
𝖖
𝖗
𝖘
𝖙
𝖚
𝖛
𝖜
𝖝
𝖞
𝖟
𝟘
𝟙
𝟚
𝟛
𝟜
𝟝
𝟞
𝟟
𝟠
𝟡
𝟢
𝟣
𝟤
𝟥
𝟦
𝟧
𝟨
𝟩
𝟪
𝟫
🀄
🅰
🅱
🅲
🅳
🅴
🅵
🅶
🅷
🅸
🅹
🅺
🅻
🅼
🅽
🅾
🅿
🆀
🆁
🆂
🆃
🆄
🆅
🆆
🆇
🆈
🆉
🇦
🇧
🇨
🇩
🇪
🇫
🇬
🇭
🇮
🇯
🇰
🇱
🇲
🇳
🇴
🇵
🇶
🇷
🇸
🇹
🇺
🇼
🇾
🇿
🌙
🌱
🌴
🌸
🌹
🌺
🌻
🌼
🌿
🍀
🍁
🍂
🍃
🎤
🎨
🎲
🎴
🎶
🎷
🎸
🎹
🎺
🏆
🏠
🏴
🏻
🏼
🏽
🏾
🏿
🐌
👅
👆
👇
👈
👉
👌
👍
👏
👧
👨
👩
👱
👻
💀
💁
💃
💋
💍
💏
💐
💓
💔
💕
💖
💗
💘
💚
💛
💝
💞
💡
💥
💫
💯
💰
💸
💻
📁
📍
📖
📜
📣
📩
📬
📮
📲
📷
🔅
🔆
🔊
🔐
🔘
🔚
🔝
🔞
🔥
🔪
🔮
🔴
🔵
🔸
🔹
🔺
🕋
🕎
🖐
🗣
🗽
😀
😁
😂
😃
😄
😅
😆
😈
😉
😊
😋
😌
😍
😎
😘
😜
😝
😡
😢
😥
😦
😨
😫
😭
😱
😳
🙁
🙂
🙄
🙇
🙊
🙏
🚄
🚎
🚚
🚩
🚬
🚶
🛑
🤎
🤑
🤔
🤖
🤣
🤦
🤫
🤲
🤳
🥀
🥁
🥇
🥶
🦑
🦰
🦲
𡯡
𣬶
𤵤
𤸤
񤤤
񤨤
񤫤
񤷤
񻭣
񻭵
򤤤
򤪵
򤭤
򤷤
򤹤
򲼤
򵡤
򶷳
򸫤
򹯤
򹯿
򽱤
򿪽
󡢸
󡢼
󡣤
󣬱
󣬴
󣬵
󤤥
󤫲
󤬡
󤬸
󤬼
󤬽
󤷤
󤷥
󤸤
󤿤
󥯤
󥰥
󥵡
󥹥
󥿡
󥿥
##ሚ
##ያ
##ጐ
##ሳ
##ቁ
##ል
##ማ
##ይ
##መ
##ለ
##ከ
##t
##z
##ኣ
##ቸ
##ን
##ቀ
##ታ
##ው
##ና
##ጥ
##ም
##ጦ
##ሩ
##ባ
##ት
##ዙ
##ላ
##ዳ
##ገ
##ረ
##ሰ
##ብ
##በ
##ጅ
##ቼ
##ሁ
##ራ
##ጠ
##ዲ
##ሸ
##ኘ
##5
##1
##9
##2
##0
##ጨ
##ሱ
##ቶ
##ች
##ሉ
##ሽ
##ዜ
##አ
##ግ
##ዛ
##ዝ
##ደ
##ር
##የ
##ፈ
##ስ
##ጎ
##ዋ
##ቲ
##ኦ
##ካ
##ቄ
##ፉ
##ድ
##ተ
##ሠ
##ሴ
##ኒ
##ቡ
##ኪ
##ፋ
##ሶ
##ዚ
##ቬ
##ቅ
##ዱ
##ሃ
##ቴ
##ኛ
##ነ
##ጻ
##ወ
##ጋ
##ኽ
##ፍ
##ሄ
##ዎ
##ቻ
##ቆ
##ቺ
##ህ
##a
##n
##i
##o
##r
##s
##m
##l
##g
##e
##d
##4
##ዕ
##ኝ
##ዘ
##ኢ
##ሕ
##ፓ
##p
##u
##ጮ
##ኮ
##ሮ
##ሜ
##c
##ᎍ
##ᎋ
##ᎌ
##ᎉ
##ᎃ
##᎘
##ᎆ
##ሀ
##ጉ
##ኤ
##ኑ
##ጊ
##ቹ
##ቢ
##ሻ
##ሟ
##ቦ
##ፎ
##ክ
##ኖ
##ሎ
##ጂ
##ዶ
##ዉ
##ቱ
##ሺ
##ሲ
##ቃ
##ጣ
##ዊ
##ሪ
##ዩ
##6
##ሌ
##о
##т
##м
##к
##в
##y
##ኙ
##ፕ
##እ
##ሯ
##ዮ
##w
##ፊ
##ሆ
##ሹ
##ኩ
##ጆ
##f
##k
##ቷ
##ጓ
##ข
##า
##ኞ
##ሣ
##ዔ
##ሞ
##ሊ
##ፒ
##ኬ
##ቂ
##ቈ
##ጡ
##ሓ
##ጫ
##ጭ
##ኔ
##ፌ
##8
##3
##ዞ
##ኋ
##ዴ
##ሙ
##ቤ
##ዬ
##ፅ
##ፀ
##ኃ
##ጢ
##ኀ
##ق
##ت
##ل
##፳
##ዓ
##ሢ
##ኹ
##ፖ
##ا
##ح
##ሷ
##7
##ሖ
##ሬ
##h
##ቪ
##ዖ
##ቧ
##ቋ
##ሏ
##ጵ
##ሐ
##ጽ
##ኸ
##ጀ
##ዟ
##ጸ
##ጌ
##и
##н
##г
##ሂ
##ሾ
##ጹ
##ሼ
##ቨ
##ኅ
##ጃ
##ፃ
##ቕ
##ኗ
##q
##ে
##া
##হ
##ፔ
##ሑ
##ሔ
##ጲ
##ጶ
##ዑ
##ዪ
##ቭ
##ዤ
##ጁ
##ፏ
##፫
##፬
##ጄ
##ሥ
##б
##x
##b
##م
##ዌ
##ዣ
##ዃ
##ጤ
##ﻟ
##ﻠ
##ﻤ
##ﺆ
##ﻣ
##ﻨ
##ﻲ
##ﻥ
##ጿ
##ቿ
##ቍ
##ጳ
##ቾ
##ቫ
##÷
##е
##ч
##j
##ጧ
##ኾ
##ዷ
##ፆ
##ي
##ጩ
##ጺ
##ዥ
##د
##ن
##ك
##ኻ
##ዐ
##ጾ
##ኡ
##ፁ
##ኁ
##ጔ
##ዦ
##ሒ
##ר
##א
##ፇ
##ፑ
##ﻐ
##ﺖ
##ر
##ه
##ዽ
##д
##а
##ы
##ط
##ጏ
##ع
##ز
##п
##р
##я
##с
##ቮ
##ኍ
##ꬃ
##ፐ
##v
##ጼ
##ሇ
##ب
##و
##ة
##፩
##ኚ
##ጪ
##ቝ
##ዠ
##ኼ
##ف
##ሡ
##ጰ
##ቐ
##у
##፪
##ی
##ژ
##ኳ
##ሗ
##ዢ
##ב
##י
##ש
##ו
##ל
##ⶀ
##र
##त
##ी
##क
##ा
##ቖ
##л
##ь
##ю
##ዡ
##ኯ
##🇩
##፲
##س
##ቓ
##з
##ि
##व
##ह
##इ
##स
##श
##ቌ
##ቛ
##᎓
##ш
##ቩ
##ጙ
##ፄ
##፮
##፻
##፯
##᎜
##ኲ
##خ
##ص
##ኺ
##ሿ
##ዒ
##°
##¥
##ኜ
##ﺎ
##ﺀ
##ﺕ
##ሦ
##ʻ
##፱
##ब
##ጬ
##µ
##ፂ
##ח
##ጝ
##ጇ
##ج
##ዧ
##ж
##ኄ
##х
##¨
##ጯ
##ס
##פ
##ק
##ה
##¹
##ट
##ת
##ኵ
##᎑
##࿣
##ᖧ
##᦭
##ι
##٢
##١
##ጕ
##ذ
##อ
##บ
##ƒ
##ኊ
##¸
##፸
##ኆ
##ꬌ
##ꬂ
##ᅧ
##ᆫ
##ዯ
##ኧ
##ኟ
##ц
##ø
##ጒ
##ዻ
##ኰ
##ﺘ
##ﻦ
##ǥ
##዗
##ष
##ण
##щ
##ʤ
##🇷
##🇪
##🇹
##ল
##গ
##→
##ዸ
##🇬
##፵
##ำ
##ล
##ง
##מ
##צ
##ם
##ᇔ
##ᢁ
##ᵒ
##ꮤ
##ད
##ʒ
##ቇ
##ض
##ג
##€
##ኌ
##ﻴ
##ﺌ
##ᎈ
##᎝
##᎚
##ᎀ
##፴
##ৈ
##র
##ি
##👉
##୴
##ڡ
##ᄑ
##፰
##ሤ
##ኴ
##ሧ
##থ
##ী
##দ
##ो
##ظ
##ะ
##ว
##น
##ก
##᎟
##ᎅ
##᫷
##٨
##፼
##፶
##𝔻
##𝔼
##𝔽
##𝔾
##ℍ
##𝕀
##𝕁
##𝕂
##𝕃
##𝕄
##ℕ
##𝕆
##ℙ
##ℚ
##ℝ
##𝕊
##𝕋
##𝕌
##𝕍
##𝕎
##𝕏
##𝕐
##ℤ
##ı
##፷
##፹
##ד
##ן
##ቯ
##ቊ
##፭
##ᤰ
##ˤ
##ƹ
##ρ
##ش
##ٱ
##˝
##ಫ
##ө
##ᬮ
##౞
##ʦ
##࠮
##ඡ
##य
##ﻬ
##ﻢ
##¤
##ዿ
##ﺸ
##ई
##ڸ
##ߴ
##ݺ
##զ
##ɽ
##£
##ᄌ
##ᅭ
##ᆳ
##ƺ
##󣬵
##ጴ
##द
##ध
##×
##ዼ
##٤
##ء
##ጘ
##᎐
##ड
##न
##ኇ
##ա
##կ
##ց
##ն
##ե
##լ
##ո
##ւ
##ᎇ
##ช
##፺
##ቑ
##ዅ
##স
##ং
##ক
##ন
##ꬊ
##🇰
##ल
##ব
##চ
##ত
##´
##ኂ
##þ
##ω
##૬
##༪
##౹
##ಅ
##❗
##⹵
##ﻮ
##ﺝ
##ט
##נ
##ـ
##ى
##ﻗ
##ﺍ
##غ
##ጛ
##ª
##ए
##ቜ
##ﺣ
##ﺪ
##ﻩ
##ᐺ
##ᢥ
##ഇ
##ܜ
##ભ
##᎞
##᎙
##ᎊ
##♥
##᎗
##ᎏ
##᎒
##᎖
##ᎂ
##ᎁ
##ث
##¦
##¾
##ठ
##च
##ץ
##घ
##ﺨ
##ﻔ
##ﻒ
##ﺳ
##ﺠ
##ﺑ
##׬
##բ
##ᎎ
##ዀ
##ﺰ
##ቔ
##½
##ዏ
##ᥲ
##ᄅ
##ᅩ
##ᆮ
##٦
##ঔ
##ᕪ
##ԏ
##য
##ও
##ۦ
##چ
##٠
##ʼ
##᎔
##ﻜ
##ﺏ
##၅
##म
##ग
##ⶋ
##ﺋ
##ﺮ
##ﻫ
##▸
##୻
##ዂ
##α
##᥃
##ല
##э
##ौ
##ﻘ
##🏾
##σ
##τ
##ο
##υ
##ⶭ
##🇼
##ষ
##ﻋ
##╬
##®
##ƥ
##ʾ
##ɾ
##λ
##η
##ν
##κ
##ﺤ
##׮
##ঠ
##఍
##ᑵ
##ਟ
##ႀ
##ࣕ
##ᄐ
##ট
##❷
##ጱ
##ע
##᎛
##♦
##🇲
##ך
##ډ
##ࡸ
##੆
##ﻚ
##ය
##න
##כ
##💡
##ᦊ
##ﺬ
##ﺭ
##🌸
##🌺
##प
##ਠ
##ᔊ
##৑
##ᖺ
##ᨮ
##਋
##👇
##ł
##ﺼ
##﷽
##پ
##ꬄ
##💝
##ﺩ
##ﻭ
##∕
##ɫ
##©
##²
##ꬅ
##໧
##ᔐ
##ɇ
##🙂
##♪
##ҹ
##ﻛ
##ﹶ
##ﺄ
##ﻧ
##ȼ
##ਇ
##ᴣ
##࢏
##ƽ
##һ
##ɳ
##æ
##񻭣
##񻭵
##ɣ
##ͼ
##ࡷ
##ԣ
##᎕
##ﻌ
##ﺒ
##😍
##ඩ
##ම
##ቒ
##⤳
##¯
##ⶄ
##ﻰ
##ැ
##ද
##ප
##ෙ
##ර
##ග
##ට
##►
##኱
##⺁
##ξ
##ς
##ዺ
##│
##ቘ
##῀
##΂
##ഡ
##ჲ
##ఖ
##ඵ
##ᚵ
##؆
##ᴗ
##ф
##⻯
##ጟ
##ছ
##ড
##ⶨ
##✨
##🌹
##⭐
##ख
##ﻈ
##ꬆ
##ﺧ
##ր
##վ
##ք
##ը
##տ
##ղ
##ծ
##գ
##オ
##ン
##ラ
##イ
##に
##す
##る
##ハ
##ー
##ト
##タ
##ム
##⻵
##ﻓ
##ﻪ
##ۥ
##¢
##گ
##ﺚ
##ﺫ
##ਰ
##ﺟ
##ε
##জ
##ﺔ
##ፗ
##ᣔ
##ஒ
##ដ
##ி
##ர
##ை
##வ
##ல
##ณ
##ս
##૙
##ᦁ
##ᏹ
##ᴫ
##˖
##⁄
##ৡ
##଻
##ᇃ
##༞
##𝖔
##𝖓
##𝖙
##ﻳ
##±
##ܪ
##ܡ
##ܝ
##ܐ
##প
##ﺷ
##⺉
##ᎄ
##⺬
##❣
##ﺢ
##¬
##ා
##﮸
##ॎ
##ڀ
##ɔ
##ᱴ
##ᄭ
##ᖖ
##−
##ꬎ
##ի
##ﻱ
##ᮦ
##ᆇ
##᱖
##ᐩ
##῱
##૔
##᡼
##ࡁ
##ਵ
##ᯀ
##ଡ
##¼
##ﷻ
##ז
##ኈ
##✈
##׍
##ᘄ
##࿤
##ᅣ
##ᐂ
##ⴤ
##ԋ
##ݫ
##᪁
##჈
##࿥
##ᶲ
##ѿ
##छ
##⺄
##ज
##ѽ
##ڗ
##ᢝ
##ጜ
##🚚
##ᜄ
##ร
##थ
##ȥ
##ޤ
##ޡ
##ݷ
##󥿡
##ᆼ
##ᄀ
##ᅮ
##ጷ
##ﷺ
##ၾ
##ᇅ
##৭
##ᩊ
##٣
##⹪
##🇿
##ʲ
##ᧄ
##ⴆ
##ဣ
##ॲ
##ጚ
##ន
##ក
##ꬋ
##յ
##২
##˵
##พ
##✍
##ᄇ
##ᅴ
##ᆵ
##ᯗ
##ต
##ย
##ɐ
##ꬁ
##ף
##শ
##𝐵
##𝒞
##𝒟
##𝐸
##𝐹
##𝒢
##𝐻
##𝐼
##𝒥
##𝒦
##𝐿
##𝑀
##𝒩
##𝒪
##𝒫
##𝒬
##𝑅
##𝒮
##𝒯
##𝒰
##𝒱
##𝒲
##𝒳
##𝒴
##𝒵
##ﻝ
##ڤ
##ᙥ
##἗
##ᖄ
##ᛮ
##マ
##ニ
##ヒ
##ュ
##レ
##ﺲ
##ম
##ዾ
##ﺁ
##ﺗ
##ᅰ
##ᆺ
##❖
##ﻑ
##ࡴ
##˚
##⺧
##ค
##💚
##💛
##❤
##༠
##ᠤ
##ƿ
##ധ
##ࢊ
##ᒴ
##χ
##π
##ъ
##ﺜ
##ﺛ
##ﻞ
##ﻷ
##ʇ
##ɟ
##θ
##💀
##⺗
##भ
##◙
##○
##ß
##ᅳ
##ᆬ
##͵
##ϡ
##δ
##ᄃ
##ᅡ
##ᆯ
##๻
##ʟ
##ᔰ
##ഓ
##ᚣ
##׭
##⺵
##∫
##ƕ
##ᆪ
##ʡ
##ﺴ
##క
##ᢟ
##ʋ
##ⷛ
##ත
##ۇ
##ە
##ﻡ
##࿳
##ᠠ
##ด
##ⷋ
##ᅻ
##ར
##➤
##ⶉ
##ॉ
##🇨
##ጞ
##ͳ
##ˮ
##װ
##ǳ
##⾳
##ⶒ
##🕎
##ల
##ు
##గ
##򤤤
##ꮛ
##մ
##て
##🇸
##🇳
##ᯂ
##๙
##ᇖ
##ߣ
##᫼
##ᕤ
##ᝯ
##ᨦ
##௼
##⹋
##﮽
##⺢
##ᅥ
##ป
##ห
##ม
##ⲛ
##ⲟ
##ධ
##º
##ᐜ
##🏽
##ꬖ
##খ
##🍃
##🍂
##ᆨ
##බ
##˾
##ۺ
##ʹ
##ȣ
##ߤ
##ᅶ
##ව
##ᅯ
##ᆻ
##񤷤
##ɡ
##☞
##⺖
##˻
##ɤ
##ȡ
##௱
##ᴚ
##ײ
##ಕ
##ٻ
##ҝ
##ѕ
##і
##ﺿ
##ᵋ
##आ
##៸
##ᶁ
##ʈ
##ᶃ
##⡣
##򵡤
##ߡ
##٥
##🇮
##ᄉ
##ᅬ
##૥
##ϻ
##⤢
##򤷤
##ฒ
##ꮮ
##ﻻ
##ﻀ
##႘
##๼
##୮
##᮹
##቗
##ණ
##ไ
##ฟ
##ﺐ
##³
##⃣
##เ
##ƴ
##˹
##ধ
##ං
##හ
##ල
##🇦
##●
##փ
##թ
##ই
##ᚽ
##ӻ
##ౝ
##᧖
##ᐸ
##ﻄ
##⻝
##😱
##ˆ
##ﺓ
##फ
##٧
##ﻙ
##ফ
##ভ
##≫
##★
##ᗃ
##օ
##ԭ
##ӡ
##ʱ
##ڵ
##ង
##ទ
##ព
##󥵡
##ɥ
##ळ
##ፘ
##᧱
##๩
##ன
##𝕥
##𝕣
##𝕦
##𝕔
##𝕜
##໼
##୐
##ᇒ
##ꮠ
##຺
##∂
##׫
##ຩ
##ⴐ
##᫾
##ᢪ
##൉
##᳾
##ð
##᱐
##ᇸ
##٩
##ϫ
##ѥ
##ႈ
##პ
##ฌ
##૚
##ʥ
##ȿ
##϶
##ᵌ
##ʆ
##޻
##ዹ
##∙
##ᔏ
##င
##ꮁ
##ƌ
##ⴠ
##ᑅ
##ԫ
##˿
##ᄥ
##ͽ
##ې
##ﯹ
##ᄤ
##𐌌
##🔥
##た
##め
##₂
##ࢢ
##ࠤ
##ᯥ
##ఓ
##ᓄ
##ᖔ
##ක
##૟
##ᅒ
##ଋ
##က
##ေ
##ာ
##ʿ
##ⵤ
##դ
##⹷
##😂
##😁
##ﺈ
##⺇
##ᖨ
##ᯐ
##ᱼ
##ᣋ
##ࠏ
##љ
##ᰍ
##ᴍ
##᤭
##ᇾ
##ჹ
##œ
##ᔃ
##ᓏ
##ᓬ
##ᔝ
##ਛ
##ඳ
##✧
##™
##ﻯ
##ᕆ
##ཚ
##ು
##୽
##ᖁ
##ᆕ
##ល
##҉
##ࢰ
##ᓽ
##ᝪ
##˪
##ᆰ
##੤
##ⴡ
##௻
##💸
##ⶩ
##ə
##ﺇ
##𒅗
##𒄀
##𒈾
##ܫ
##ឿ
##ᭋ
##ʬ
##ใ
##γ
##ѵ
##ᤫ
##ᢾ
##ᢗ
##■
##ᇻ
##ᴈ
##ﱠ
##ๆ
##🌙
##ⶪ
##᪗
##ᤱ
##˰
##👆
##򿪽
##🇫
##ҫ
##շ
##԰
##⤷
##ͻ
##ᆸ
##उ
##ᦌ
##ᕊ
##ೕ
##ᢵ
##🙏
##🏼
##ᄈ
##ᆹ
##⹜
##ϥ
##ܤ
##ȸ
##💯
##ᆷ
##њ
##˽
##ࣜ
##ธ
##ᰨ
##૒
##ᮧ
##ѫ
##ᬭ
##ߜ
##จ
##ญ
##ﹸ
##ﺻ
##ﻊ
##ϸ
##ͱ
##ﺞ
##⹘
##஬
##झ
##と
##の
##こ
##ૐ
##൰
##ӿ
##ႚ
##ے
##⹈
##ᶈ
##ᤅ
##ɛ
##੕
##ⷓ
##ፚ
##ɶ
##ݛ
##ᴺ
##ᗜ
##💕
##ⵆ
##🇧
##៭
##ψ
##ස
##🏻
##ণ
##᜙
##ⴧ
##ᅖ
##ଜ
##か
##۲
##ⶥ
##ᶸ
##ᒏ
##ٿ
##ⷎ
##ᜥ
##๝
##ᢅ
##ᓻ
##⺨
##᭹
##᜖
##֎
##΍
##ᯢ
##ᑂ
##ส
##ʊ
##᛽
##ᑠ
##ꮺ
##ၖ
##ౙ
##⻭
##⺯
##ﺃ
##ᒯ
##ឝ
##ᓾ
##ᣪ
##౺
##ᰀ
##ᩁ
##ۿ
##ౚ
##ᆲ
##ผ
##૵
##խ
##ᛃ
##ᚶ
##💞
##պ
##μ
##ԥ
##ᡢ
##ꮍ
##ӈ
##お
##є
##ﻖ
##ƍ
##ᒑ
##ߋ
##ɗ
##ϝ
##ឱ
##ᜋ
##ᗓ
##ᐃ
##ნ
##ળ
##఑
##ᙔ
##ࡘ
##ಹ
##═
##ⲧ
##ⲉ
##ࡻ
##ﺂ
##ﻃ
##⤿
##ʣ
##򲼤
##ɬ
##れ
##ᒎ
##ᴏ
##ɴ
##ᴛ
##ꜱ
##ꜰ
##ⶅ
##ᢋ
##፿
##ⶽ
##🌻
##🌼
##๿
##ᨒ
##ᨻ
##ˍ
##ე
##ბ
##⹥
##⺸
##ᰐ
##᭔
##ᄁ
##ᅤ
##♣
##˥
##ⲱ
##ⲩ
##ท
##ศ
##⺀
##ⷙ
##⺣
##࿈
##👈
##ࠈ
##👅
##❄
##򤭤
##ʷ
##ꡢ
##ɸ
##ҵ
##✆
##➐
##➏
##➒
##ᚠ
##ﹾ
##ꤤ
##∷
##⹚
##᮶
##ᖯ
##ᖱ
##⺍
##ہ
##￼
##⟶
##ƨ
##ᔁ
##᭽
##ૼ
##࿀
##ு
##ᠳ
##ᜯ
##࢔
##ܣ
##ᛲ
##ၮ
##ឈ
##ɋ
##ӄ
##ᔈ
##ཤ
##ᶑ
##ȴ
##လ
##😄
##ƚ
##񤤤
##ᵅ
##ݵ
##ᜅ
##💥
##─
##⺭
##ȷ
##ҷ
##ϵ
##ƣ
##޵
##ռ
##ओ
##ჾ
##ɱ
##ᨧ
##ᖳ
##ɒ
##ⴥ
##ʗ
##᲼
##ⶫ
##แ
##⻉
##ໃ
##᫱
##ᰊ
##ગ
##ƅ
##ഌ
##৪
##ჵ
##ᐥ
##は
##ア
##ロ
##ス
##ホ
##ツ
##๒
##າ
##ວ
##ြ
##శ
##ပ
##ᝁ
##ﺯ
##💔
##⺺
##√
##չ
##ᄗ
##඗
##თ
##ᔘ
##ᥠ
##დ
##ʺ
##⺻
##ऊ
##ⲥ
##ʔ
##ॠ
##ജ
##ऎ
##ଫ
##ƙ
##⻳
##ໄ
##კ
##ⴒ
##ࢧ
##ᵠ
##ݶ
##ݼ
##ᛶ
##ᄵ
##ᡦ
##ܙ
##ᮞ
##ⴂ
##ᄙ
##ຯ
##ྊ
##ᗚ
##௜
##ᮼ
##ᛊ
##ࣀ
##♀
##ⶎ
##シ
##ネ
##を
##⻫
##ࢀ
##⤤
##🇱
##🤲
##≥
##ʞ
##∶
##ջ
##ѧ
##ථ
##ℱ
##᏶
##ᮉ
##ᖴ
##ၺ
##ᴕ
##ॾ
##🔘
##ᒐ
##ᐞ
##ൟ
##ᗈ
##ϰ
##ʽ
##ϣ
##ʵ
##⹒
##᱌
##ᚬ
##঒
##よ
##う
##⁴
##󥿥
##ᜨ
##ᅝ
##ஐ
##ჯ
##ᏺ
##ᡖ
##ᘐ
##ᕾ
##ᱨ
##ʌ
##ᛅ
##ವ
##ɺ
##೫
##౦
##ᣘ
##ᱳ
##♂
##ک
##⺔
##❡
##⺊
##ϲ
##᲍
##❞
##⺙
##➊
##հ
##ᥳ
##ᬅ
##ᬵ
##ᘇ
##ᒙ
##ᢨ
##େ
##ᱵ
##๡
##ᖰ
##ᆽ
##ᇭ
##៮
##࣢
##᫵
##቉
##᝝
##ᗿ
##😆
##🇴
##🇾
##ⷑ
##ළ
##ݣ
##ߵ
##ဒ
##ᥟ
##ᝣ
##ᠪ
##ʨ
##░
##▒
##▓
##█
##ჟ
##᧑
##ᐍ
##⻧
##⹨
##▼
##⹇
##😀
##ݡ
##ƶ
##ꡣ
##⺃
##👏
##⹐
##᫁
##႑
##ਈ
##ﻏ
##ﻂ
##ݨ
##ѯ
##ᛔ
##৾
##඀
##ࡨ
##୶
##ᱠ
##ຝ
##᤿
##ᘗ
##ʩ
##૘
##ᔛ
##ਥ
##ᒓ
##঍
##󥰥
##ﺱ
##ᢿ
##ھ
##ᨍ
##ᧂ
##ճ
##ࢩ
##ɝ
##ዄ
##ﺵ
##ெ
##ா
##ள
##˲
##ѹ
##˷
##ѣ
##ҳ
##ڳ
##ժ
##ͷ
##ӽ
##ޱ
##޳
##޲
##޶
##޾
##޽
##߄
##ᇰ
##ځ
##ᒡ
##ᑬ
##᭗
##ᑖ
##ࣘ
##⻄
##⹅
##᤯
##󡣤
##ꤹ
##ⓘ
##𝕖
##ｒ
##ｄ
##🗣
##ା
##ᩄ
##ზ
##࣋
##ᒠ
##ⷝ
##৛
##ᕚ
##⁹
##ᓈ
##ᑕ
##ܧ
##஑
##ʍ
##ஹ
##ᘬ
##ᒇ
##ᐵ
##ჿ
##׊
##ⷔ
##ษ
##𝔰
##↔
##ซ
##⹶
##⺠
##𝔀
##𝓲
##𝓽
##𝓮
##𝓻
##𝓾
##𝓼
##𝓿
##ਤ
##ࡔ
##ၣ
##ᜍ
##҈
##९
##ŧ
##џ
##ܦ
##ჱ
##᜿
##౷
##௷
##ᰡ
##੎
##ᇜ
##އ
##⤦
##ढ
##ᆭ
##ҥ
##ꥹ
##β
##ﻕ
##➖
##⹹
##⡦
##ෆ
##🎶
##โ
##ꮃ
##ᱜ
##୿
##ჽ
##ѻ
##᫔
##ߎ
##ᖽ
##૊
##ᗍ
##ŋ
##ʢ
##െ
##ാ
##᯲
##ܯ
##೓
##੫
##ݓ
##᚝
##ᰞ
##ફ
##✞
##᫅
##˄
##ᔑ
##᣷
##໶
##᝴
##᥊
##ᬱ
##っ
##も
##⻷
##リ
##せ
##サ
##ђ
##ᄆ
##ᅵ
##ᄋ
##ᄒ
##ᅪ
##ᛡ
##ᔵ
##ϼ
##ӏ
##ʙ
##ᴄ
##ᴅ
##ᴇ
##ғ
##ɢ
##ʜ
##ɪ
##ᴊ
##ᴋ
##ᴘ
##ʀ
##ᴜ
##ᴠ
##ᴡ
##ʏ
##ᴢ
##ፙ
##👌
##ਖ
##ਿ
##ਆ
##ﺅ
##ᖎ
##ᵥ
##෎
##ѱ
##⻩
##▂
##ణ
##࿇
##ᚕ
##ٹ
##ᵫ
##ٷ
##෤
##⺳
##ៅ
##ᤘ
##ᆓ
##ᣓ
##ᢏ
##♨
##ؠ
##ᚉ
##᦬
##˸
##ෟ
##᳷
##ⷐ
##౬
##ﻇ
##ݤ
##উ
##͸
##ﰲ
##󣬴
##ڻ
##ഐ
##ञ
##ᔋ
##ຐ
##ᩮ
##˜
##⺞
##⹊
##ᠲ
##ࠨ
##ᅀ
##򸫤
##ﻉ
##ﺡ
##ݕ
##ˁ
##ؾ
##┇
##ڼ
##է
##ቚ
##𝓸
##𝓷
##𝓯
##⡢
##⹆
##ᙩ
##ࢥ
##ᲊ
##ฉ
##⻆
##ﺺ
##ᙄ
##ᤴ
##ᵐ
##ᢌ
##ຖ
##ࠔ
##ᘒ
##ң
##⹕
##ဥ
##೛
##⺪
##ʯ
##ƭ
##ル
##ᅲ
##ᇂ
##ᆴ
##׷
##ɂ
##🔮
##႕
##ᣭ
##ᨀ
##ᧀ
##ᕼ
##৿
##ᆎ
##߼
##🅱
##🅲
##🅳
##🅴
##🅵
##🅶
##🅷
##🅸
##🅹
##🅺
##🅻
##🅼
##🅽
##🅾
##🅿
##🆀
##🆁
##🆂
##🆃
##🆄
##🆅
##🆆
##🆇
##🆈
##🆉
##▪
##ი
##😘
##૪
##஁
##୊
##ᚻ
##ᵴ
##ෑ
##ﺽ
##⹮
##ⶁ
##ᘎ
##౲
##ᮿ
##ᡚ
##ࠐ
##ܨ
##࿾
##ట
##ಽ
##঩
##ᖒ
##ǌ
##᫬
##᥼
##ˉ
##⺚
##🇯
##ࣂ
##ཎ
##⺈
##⹦
##⻞
##フ
##ォ
##ࡢ
##˭
##໒
##⻀
##ᒰ
##┐
##኏
##♫
##💰
##ᢻ
##ᓧ
##ꮅ
##ޒ
##◊
##ඝ
##ｏ
##ｎ
##ｔ
##ｓ
##ｆ
##き
##ま
##⺼
##ƻ
##ᤷ
##ՠ
##ᝇ
##ࠇ
##ޕ
##᠝
##࣠
##ⷖ
##🥀
##ა
##მ
##ო
##ტ
##ვ
##რ
##௏
##೮
##᡺
##ꤷ
##ᆌ
##ᣌ
##ᘲ
##᣽
##ｐ
##ａ
##ｃ
##ｉ
##ｇ
##𝕓
##𝕕
##𝕗
##𝕘
##𝕙
##𝕚
##𝕛
##𝕝
##𝕞
##𝕟
##𝕠
##𝕡
##𝕢
##𝕤
##𝕧
##𝕨
##𝕩
##𝕪
##𝕫
##𝔸
##𝔹
##ߍ
##ꬓ
##យ
##ា
##ௗ
##𝖘
##𝖋
##⹉
##˼
##ȶ
##ˡ
##⻥
##ә
##វ
##᯷
##ᇬ
##ଟ
##ᦈ
##ˋ
##ᨸ
##🖐
##⻍
##ᣕ
##ౡ
##ꤿ
##׸
##ⴙ
##ഊ
##ᦰ
##៴
##අ
##ℯ
##☂
##ﺦ
##᷶
##⻚
##⹟
##᝵
##᨝
##ʴ
##ꬑ
##ⶂ
##⺕
##ⶊ
##હ
##ર
##᝷
##󡢼
##ŀ
##ம
##ப
##த
##ᢀ
##஋
##ः
##᫽
##⹝
##⻬
##௞
##ᵟ
##﮶
##೎
##ಐ
##߿
##⺂
##᧍
##ꮞ
##୧
##⹰
##៞
##᫻
##ᄏ
##ෘ
##₉
##₁
##₈
##ᶩ
##ࢠ
##😉
##ᗙ
##৯
##᜻
##⹿
##◣
##ി
##˴
##⁷
##अ
##₰
##☻
##ᅛ
##৽
##ᤁ
##ϱ
##⻗
##ٺ
##🎹
##🎺
##🎤
##🎸
##🎷
##؏
##❺
##≤
##📍
##୺
##ឨ
##⻃
##ԡ
##ގ
##኿
##⹱
##𝓌
##𝒾
##𝓉
##𝑒
##𝓇
##😋
##󥹥
##⹲
##۷
##⻘
##ᬿ
##ᖆ
##໭
##િ
##ઝ
##ࡈ
##ᚰ
##᤾
##ᵙ
##඘
##ˣ
##ⴊ
##🥁
##◉
##♩
##φ
##ɯ
##໠
##ᓦ
##ᛥ
##ᳱ
##⻣
##⻸
##⹬
##ڌ
##⺲
##᥈
##ᡎ
##𝓊
##𝓅
##⻠
##⻁
##˦
##ഝ
##ᚨ
##៳
##ᑲ
##ⶬ
##ᕽ
##ᄂ
##ਨ
##჉
##⺹
##🇶
##᧝
##ᶂ
##ᬑ
##ଂ
##ಸ
##⁰
##ʃ
##ⷀ
##ᵹ
##ෳ
##࿵
##ᦥ
##᠕
##ᮙ
##ᶼ
##὆
##⁶
##⺏
##☜
##࢙
##ൔ
##ᕯ
##ന
##ᬲ
##ᯕ
##ਉ
##ඌ
##ॴ
##ᡘ
##៾
##ບ
##ᑑ
##૕
##ꮯ
##⻪
##ҕ
##᭷
##᲌
##ᇳ
##᧷
##ѡ
##ԕ
##ॳ
##ಀ
##ᓼ
##✔
##۳
##ᦄ
##ඉ
##⹡
##⻂
##😎
##আ
##ﺹ
##ཅ
##ᖋ
##ᨴ
##᜸
##ᅊ
##ᨺ
##༢
##ᤀ
##﮵
##᛿
##ଘ
##ᑟ
##ᗎ
##ζ
##ᄺ
##േ
##ᫍ
##ッ
##テ
##⤽
##№
##ബ
##ച
##ဃ
##ⷅ
##៛
##ᒪ
##៫
##ⶆ
##ৎ
##ଙ
##ᶻ
##🤳
##ݍ
##ฑ
##ħ
##ᐗ
##ᚋ
##ঐ
##᨜
##߇
##௝
##ૡ
##৆
##💋
##ᮔ
##ᣬ
##ℜ
##ც
##਷
##ɉ
##ᘛ
##ܥ
##෾
##❻
##ય
##᧋
##ᙍ
##ᴝ
##໰
##⹯
##ⶈ
##ប
##ɿ
##ࡡ
##ᳳ
##ᤝ
##ᅋ
##ઈ
##᧔
##ੜ
##ᦖ
##ᢚ
##ᤔ
##ҭ
##᣺
##ᛷ
##ڊ
##ᢉ
##ҟ
##๠
##ᙞ
##ᓲ
##⺝
##৞
##♭
##⹫
##󤬼
##ხ
##ټ
##ᡷ
##˱
##ᖘ
##🇭
##⏰
##ﻹ
##⻑
##ᅄ
##ᇣ
##඾
##ᕸ
##ᇫ
##ᓅ
##ᡳ
##ᑃ
##ᙁ
##ձ
##ꮨ
##঎
##ᛪ
##ඤ
##⻡
##ழ
##ᗟ
##ҙ
##੩
##ඕ
##꡼
##ࡇ
##ꭳ
##ᗬ
##ા
##વ
##⹔
##⤬
##ೡ
##ȹ
##᪑
##ସ
##ڰ
##ɹ
##ڿ
##⴦
##߶
##ࡤ
##ⶰ
##ɵ
##ؽ
##ڷ
##ﺾ
##ƃ
##←
##ѳ
##ɑ
##➢
##ශ
##ۃ
##᭡
##೽
##ֆ
##ᅽ
##ᳪ
##ᨳ
##✅
##ⸯ
##⻶
##န
##۩
##🕋
##━
##💓
##┛
##⹺
##⺋
##🦰
##ۄ
##℃
##ᢘ
##ᄠ
##࿞
##ᖸ
##ᴑ
##ఉ
##⻰
##ᑐ
##ﻎ
##უ
##ލ
##ᒵ
##ᅈ
##࿲
##ᗆ
##ᱺ
##୏
##ᮠ
##ᓨ
##᧪
##ⷃ
##ធ
##മ
##യ
##സ
##ം
##⻮
##ⲣ
##ⲓ
##ﻆ
##࡯
##ᄎ
##𝓧
##𝐭
##𝟙
##𝟚
##𝟛
##𝟜
##𝟝
##𝟞
##𝟟
##𝟠
##𝟡
##𝟘
##ԙ
##ޓ
##཯
##ꮶ
##࣍
##᾿
##ᛁ
##ໂ
##⺘
##ᴨ
##⺜
##ཁ
##⻏
##⺟
##℅
##⻙
##❹
##𝓈
##𝒿
##ク
##ជ
##ၗ
##ⶸ
##ⶐ
##⁸
##ෂ
##౿
##଀
##ᦙ
##ᐳ
##▬
##⹢
##ᐹ
##ᓴ
##ޟ
##ܘ
##❦
##✫
##ᓺ
##ҽ
##೒
##ᜦ
##ಓ
##ԑ
##♠
##⻦
##ឪ
##ݬ
##ӌ
##ᰇ
##ﻼ
##ᯪ
##ᒒ
##ৠ
##ۈ
##⺐
##ӊ
##੊
##ᥨ
##ү
##ݎ
##ݸ
##ᇀ
##❸
##ே
##க
##ԃ
##ᬘ
##᭄
##ᑪ
##᡿
##ѩ
##᫤
##ʸ
##ܢ
##ܓ
##ܠ
##❀
##య
##ತ
##ᑍ
##຿
##ڑ
##⺽
##⹤
##⹴
##᝛
##ᅦ
##⹣
##ಲ
##ᬾ
##ࣟ
##┘
##⺶
##ڭ
##ᛸ
##৵
##໩
##᧶
##ঽ
##ꮕ
##ᱸ
##ᅺ
##ރ
##ᑼ
##๗
##ಃ
##ࣝ
##᝱
##𝒷
##𝒸
##𝒹
##𝒻
##𝑔
##𝒽
##𝓀
##𝓁
##𝓂
##𝓃
##𝑜
##𝓆
##𝓋
##𝓍
##𝓎
##𝓏
##ऒ
##ᝫ
##ᱪ
##˺
##⺰
##⺓
##┉
##┄
##ᗖ
##󤷤
##ࢶ
##௰
##᤬
##ᘳ
##ࢪ
##૤
##൷
##഑
##😭
##ۆ
##ᶬ
##᪜
##🎨
##ꭴ
##৅
##⹃
##⺫
##ᯙ
##༟
##ᩤ
##૱
##◥
##🀄
##🗽
##🦑
##👻
##ஊ
##ூ
##ᢶ
##ᠣ
##ᕕ
##๳
##և
##⹽
##ಒ
##ᬫ
##዇
##᥽
##ᣴ
##ԝ
##ອ
##਱
##ᠷ
##⹧
##ᣎ
##ᓎ
##ඁ
##ᮌ
##ݱ
##ݴ
##ҩ
##ʳ
##󣬱
##ٽ
##󤿤
##ފ
##ʎ
##ყ
##ڃ
##۹
##ܛ
##﮻
##ᱡ
##ᘫ
##௽
##ର
##⺾
##৙
##ｗ
##ｅ
##๪
##ᶋ
##ᅨ
##˨
##೻
##ङ
##ᜣ
##ᅢ
##ݾ
##ᆾ
##ຕ
##⺒
##⻈
##⷗
##ꭽ
##ڦ
##ᓘ
##ｙ
##ᯋ
##ഒ
##ᬨ
##⻴
##ʑ
##௠
##˒
##ސ
##ᕂ
##অ
##ய
##ᕃ
##ᵓ
##ᕔ
##ᘯ
##ⶃ
##ᗤ
##⹩
##𐩢
##𐩨
##⺷
##ᙆ
##ഢ
##᪅
##ǆ
##ᠫ
##ᮜ
##⹗
##ສ
##ລ
##🔪
##ґ
##ࠅ
##ᶾ
##✽
##౫
##ᖦ
##᢭
##᪚
##៷
##ᆅ
##ᚼ
##ᒂ
##ᶔ
##ࡰ
##ਦ
##⇣
##💃
##⻓
##💫
##྿
##܎
##ᙇ
##ԅ
##୾
##ǝ
##ហ
##ⴛ
##ҿ
##ᇱ
##⺴
##ᆱ
##⺆
##﮹
##ˊ
##ⱥ
##ட
##ங
##ச
##ҡ
##ᦏ
##ਚ
##῕
##ଳ
##త
##ɻ
##ᵤ
##🔵
##♡
##ᛓ
##ᄍ
##ၓ
##ᙰ
##გ
##ᝀ
##ᔭ
##฿
##⹓
##ڇ
##⺥
##ណ
##ᨱ
##᧡
##᭶
##ⷕ
##đ
##ɧ
##ᡂ
##෗
##ឞ
##ᔕ
##ᘝ
##ᱬ
##ᏼ
##𝖊
##𝖉
##𝖎
##𝖛
##𝖆
##𝖑
##⺛
##キ
##ミ
##ᭆ
##ࢭ
##ੀ
##ᝉ
##ǁ
##ᚆ
##ɓ
##స
##᧨
##࢝
##ۻ
##ᡬ
##ᬩ
##ƾ
##ڮ
##ⴗ
##ᩓ
##ᖗ
##⹠
##ҏ
##ೱ
##ᛈ
##󤤥
##ᅉ
##👨
##💻
##ഈ
##ᘅ
##ᅫ
##᤽
##ᒢ
##ᨹ
##ݮ
##ោ
##ϑ
##ⴋ
##ێ
##ⴉ
##ᡈ
##ᙙ
##᭸
##႒
##ၻ
##ɨ
##ࣁ
##⇒
##󤫲
##ᦤ
##⻱
##⇓
##ଊ
##ᤎ
##り
##⻕
##ଚ
##ᚘ
##ᓷ
##ਙ
##ᛒ
##ႊ
##ᘦ
##ࡿ
##᮴
##ᘟ
##ᕩ
##ᑭ
##ᄸ
##൓
##ⱦ
##﮴
##⺑
##៿
##ᑌ
##൵
##🍀
##⹖
##ᢂ
##૨
##ᦋ
##ႋ
##ち
##ら
##𝔴
##𝔦
##𝔱
##𝔢
##𝔯
##ɼ
##𝐦
##ⓛ
##󤬽
##⹙
##௕
##󥯤
##┓
##⹾
##۵
##ฐ
##᠜
##׶
##ᳯ
##ਬ
##ⲏ
##⹎
##ԛ
##🔅
##ᵮ
##ⷚ
##ᅱ
##ߥ
##പ
##ᴬ
##ᴮ
##⻤
##ꮾ
##ࠎ
##෕
##ڶ
##ᙐ
##ᶫ
##ᆀ
##෋
##ᵰ
##🏆
##⻜
##ᩣ
##ʰ
##ܔ
##᪆
##඄
##🙇
##⡪
##⹑
##🛑
##᥹
##ٴ
##ᡣ
##ĳ
##ᮚ
##ᕌ
##᫯
##ᤄ
##๤
##⺩
##ᥱ
##൨
##᧘
##࢕
##ᰈ
##࡬
##ᥰ
##✝
##⻢
##ᦃ
##ϒ
##ᗂ
##᏿
##ᠵ
##࠿
##ᕰ
##ᵚ
##ᗨ
##֐
##⺌
##ᅎ
##ꤵ
##⁵
##⚅
##℮
##ⅾ
##𝖇
##𝖈
##𝖌
##𝖍
##𝖏
##𝖐
##𝖒
##𝖕
##𝖖
##𝖗
##𝖚
##𝖜
##𝖝
##𝖞
##𝖟
##᰺
##ਡ
##ᖣ
##򤪵
##߾
##๺
##ற
##➡
##⺎
##ᖈ
##ɦ
##՘
##ꮄ
##ᬟ
##ၶ
##ᩌ
##౵
##ᮍ
##ឍ
##ᤸ
##ᠶ
##し
##ৗ
##ಡ
##ᵎ
##រ
##򽱤
##ೲ
##ଧ
##ϧ
##੄
##ᖍ
##⺮
##⻇
##ࠋ
##ଅ
##៱
##ᜤ
##഼
##୆
##ᐄ
##ქ
##ᑙ
##ၸ
##઻
##ᚳ
##᱄
##ᗸ
##຋
##ઠ
##ᱻ
##᫏
##቎
##ણ
##ી
##⻎
##؎
##ᵭ
##ﬀ
##ถ
##⻲
##఻
##🦲
##💐
##⺦
##ళ
##᪔
##ۊ
##ꭱ
##ᱚ
##࿽
##⻌
##๯
##ݿ
##ఐ
##ೂ
##ᅹ
##ⷞ
##ঞ
##᯳
##࢟
##ః
##ᥗ
##᣾
##˩
##⺿
##េ
##🔚
##ᅼ
##󤸤
##ᨶ
##ⷘ
##⹸
##⻟
##く
##ᡪ
##१
##ᨖ
##ᘻ
##ៜ
##ڎ
##ࡃ
##ᛨ
##ࠆ
##ᵍ
##෨
##ᣆ
##ᄩ
##᫐
##὘
##଍
##ಎ
##઀
##ᠰ
##ᦺ
##񤨤
##ഺ
##७
##ᬯ
##ᬪ
##቞
##ષ
##ᦸ
##᫫
##᝕
##⹍
##⺱
##ང
##ڕ
##ᗛ
##⹳
##⻨
##ɲ
##ⶵ
##ⷒ
##౉
##෍
##ڞ
##ඛ
##᱒
##ᯈ
##ള
##ⷜ
##ᖹ
##᩟
##ᵵ
##ᑱ
##ᶖ
##ᵬ
##ᴙ
##এ
##൚
##ཙ
##ᇿ
##⹞
##𝟣
##𝟤
##𝟥
##𝟦
##𝟧
##𝟨
##𝟩
##𝟪
##𝟫
##᪏
##ꭼ
##ᥙ
##ჩ
##එ
##ᆦ
##ᐝ
##⺅
##਍
##ᮆ
##ඥ
##ᗳ
##৊
##ᩃ
##༳
##ୗ
##ᘭ
##ၿ
##ᓌ
##ߢ
##ᨷ
##ᝈ
##҂
##ᘏ
##⻊
##෷
##࿢
##ᯡ
##ᰂ
##ꭹ
##ᇩ
##᪍
##ᠻ
##ᄢ
##❓
##ௐ
##🤎
##ࢮ
##ˀ
##೪
##ద
##ᴌ
##ᴀ
##ᶇ
##᧗
##ᐚ
##򤹤
##ᣙ
##௵
##ߒ
##ᶒ
##ᖠ
##ᮛ
##ᑽ
##񤫤
##ʓ
##೥
##ᣈ
##ᐪ
##ಆ
##ថ
##ᒊ
##ԩ
##⹭
##ˏ
##ᙒ
##᥎
##ฝ
##ઓ
##⼣
##ກ
##಑
##᷻
##ခ
##ရ
##း
##🌿
##👍
##ୟ
##ڛ
##ဿ
##ᑣ
##ଢ
##∞
##ٵ
##઺
##၃
##៦
##ಂ
##ಧ
##ರ
##ឩ
##ᜫ
##ញ
##ߘ
##௭
##ᰤ
##໗
##ᴓ
##ꬉ
##⻅
##⹄
##ᒖ
##׻
##ࢎ
##🌱
##ࡲ
##⹛
##⻒
##ᡥ
##ᗘ
##ʧ
##ᴉ
##ဩ
##᪞
##ઌ
##ស
##ខ
##ម
##ែ
##қ
##ঝ
##򹯿
##⻋
##🏿
##⻖
##⷏
##󤷥
##⻐
##ఆ
##ᕣ
##ឦ
##ᗹ
##⻛
##෵
##ᛞ
##ᐙ
##៯
##๰
##ᆥ
##ᴻ
##῾
##᰸
##⺡
##૗
##ᙀ
##ښ
##あ
##⹏
##᠟
##႖
##ᲁ
##ᡏ
##᭥
##௾
##༚
##ᙦ
##ݳ
##ݹ
##ͺ
##׽
##✿
##ᕍ
##ᐼ
##ˇ
##ᄼ
##ᶥ
##๵
##ୠ
##ᐰ
##⹌
##ҍ
##⹼
##🎴
##ࡎ
##ᑡ
##ⲿ
##ᘑ
##򶷳
##ᘥ
##న
##ᤪ
##໐
##᱑
##૽
##⹻
##ⷍ
##ᢑ
##ᐠ
##ｈ
##ါ
##✘
##ऐ
##ಪ
##ᬝ
##ĸ
##᫉
##ᆖ
##ᕱ
##ฎ
##🇺
##ݰ
##ᘃ
##ฯ
##˛
##ǃ
##႞
##౜
##ᖚ
##෻
##५
##᪈
##౤
##జ
##ᨿ
##𝔬
##𝔫
##𝔣
##ᕵ
##᧞
##ᪿ
##ⲙ
##⻔
##᪛
##ᶕ
##࣏
##ᒥ
##⺤
##ࢅ
##଎
##๦
##౻
##ధ
##ᨄ
##ᯟ
##ᗻ
##ພ
##۾
##཭
##᫊
##ਫ
##ﬁ
##⷟
##ખ
##಩
##ཌ
##ﺙ
##ߺ
##ᣟ
##ᆊ
##ᛂ
##ޗ
እን
##ቸው
የሚ
ነው
##ዎች
##ነት
የተ
እንደ
ላይ
##ችን
እና
##ለው
##ንድ
በመ
##በት
እንዲ
##ገር
አስ
##ውን
##ዋል
##በር
##ሆን
የአ
##ስት
በአ
##ትዮ
##ዚህ
የመ
##ጵያ
##ትዮጵያ
መን
በተ
አይ
##ቶች
##ለም
ወደ
##ስጥ
ለመ
##ለት
##ሆኑ
##ደር
##ደረ
ግን
አን
ለማ
##ሆነ
##ቸውን
ውስጥ
##ንም
እየ
ይህ
በማ
##ሪያ
ስለ
##ተኛ
የሚያ
##ትን
##በረ
ጋር
ነበር
##ላይ
አለ
ጊዜ
የም
##ያን
##ራት
የማ
##ረት
##ድር
ከተ
እንዳ
አል
ባለ
##ኢትዮጵያ
##ስተ
አንድ
##ገባ
##ርት
እስ
እንደሚ
መንግ
20
##ሁን
በሚ
##ላል
##ድረ
##ርስ
ምክ
##ዝብ
##ናል
ነገር
##ቱን
##ንያ
##ሮች
##ዲስ
##መን
ወይ
ኢትዮጵያ
##ሰብ
ሁሉ
ምን
##ሎች
##መለ
ጉዳ
##ትና
አገ
##ራዊ
##ምን
ደግ
##ረጃ
እያ
የነ
ቤት
##ላቸው
ሰው
መል
##ንግ
ያለ
##ሪካ
በእ
ደግሞ
ብቻ
የእ
##ረው
##ጀመ
##ታል
##ግባ
ሳይ
አስተ
መስ
ሰዎች
##ችሁ
##ገድ
##ዳን
ድር
##መት
##ለን
አካ
አባ
##ፈል
##ታት
##ብር
##ግር
##ከል
##ቅር
ያለው
##ኛው
##ላት
የሰ
##ሉት
##ልጣ
##ነው
እየተ
አብ
##ማሪ
ከአ
አም
ከመ
##ተው
##ታወ
እነ
##ባቸው
አበ
ምክንያ
##ሚያ
መሆኑ
ብዙ
##ታቸው
ወይም
##ለሁ
በዚህ
##በሩ
የኢትዮጵያ
##ናት
##ኞች
##ምህ
የወ
##ድረግ
##መራ
##ኋላ
##ለያ
##ኔታ
ናቸው
201
አቶ
እር
አይደ
##ከተ
##ንን
##ማራ
##ዎችን
ከፍ
##ለቲ
ቀን
##ቀር
##ራል
##ረስ
##ደረገ
ሁኔታ
##ግራ
በኋላ
##ታው
##ከት
##ድን
##ባቢ
##ቦች
##ማት
##ገኘ
የት
ክፍ
##ቅም
##ልም
##የት
በላይ
##ጠና
##ጥር
##ተር
##ንስ
##ታዊ
##መል
ያስ
##ጠቀ
##ኖር
##ፊት
##መስ
##ገኙ
##ሥት
##ይወ
##ለቲካ
አበባ
ምር
##ያው
##ጠር
##ገን
እስከ
አድር
##ብረ
##ባት
ከተማ
##ምሮ
አሁን
##ልል
##ጣት
##ያስ
ሥራ
##ገለ
እኔ
አዲስ
ሚኒ
ማስ
ብር
ሲሆን
##ገራ
ማለት
ለአ
##ረዳ
የሆነ
##ዎቹ
##ለች
በቀ
ብሎ
ሆኖ
##ሪክ
የህ
ቤተ
አይደለም
ጉዳይ
##ርቲ
##ሔር
##ላም
##ግል
##ረጋ
##ጣም
##ገል
መንገድ
ማን
ሆነ
##ያቄ
መካ
##መር
##ርስቲ
##ሰው
##ክት
##ሳት
##ባል
ድርጅ
ምክንያት
የስ
ያል
መሆኑን
ስራ
##ህል
##00
##ምር
ሌላ
ይች
##ቢያ
##ብት
##ሰራ
እንዴ
ጥያቄ
##ርድ
##ዓት
##ዚያ
እንጂ
##ከላ
ዛሬ
##ይል
መንግስት
አው
##ቷል
በር
##ልቅ
እንዲሁ
##ጠበ
##ሳይ
##ንት
አደ
##ግዚ
##ርያ
##ላማ
##ታችን
##ሰማ
የኢ
ህዝብ
##ኖች
ደረጃ
ነገ
##ክል
የቀ
ከፍተኛ
##ዮን
መሰ
ዓመት
##ምህርት
##ለያዩ
ከዚህ
##ሽን
ወቅ
##ቀው
##ነሳ
##ሩት
የነበረ
##አብ
##ኝነት
ከእ
##ዘጋ
##ገና
እው
ተጠ
##ኛል
##ይት
ይህን
##መጣ
##ሎት
በጣም
የው
##ግለ
##ስፋ
##ደው
##ላፊ
##ሪዎች
##ፍት
##ግዚአብ
##ችል
##ውያን
##ላሉ
##ጀመሪያ
ስር
##ፈው
##ምና
##ገኝ
መካከል
##ወሰ
##በል
##ግብ
##ጠው
##ዮች
##ተዋል
##መድ
##ገው
##ቱም
##ዘብ
##ሱን
የበ
##ወጣ
በፊት
እንዲሁም
አገል
##መው
##ሩን
##ዱስ
ቦታ
##መታት
በየ
##ኩል
##ለይ
አቀ
እንኳ
ወን
##ካሄ
እንዲህ
ክልል
##ሉም
እንደሆነ
የታ
የማይ
##ቶችን
##ሞክ
##ናገ
ችግር
መጠ
ምንም
በሰ
ተወ
ስም
##ታቸውን
መንግሥት
##ላክ
የሚያስ
##ለዋል
##ንና
##ፍሪካ
ፕሮ
##ግዚአብሔር
ተቀ
አካባቢ
ቢሆን
ጠቅ
አሳ
ሚኒስት
##ሜሪካ
##ደም
ሳይሆን
በም
##ጨማሪ
በስ
##ይወት
##በው
ከሚ
የሚል
በወ
ተብ
ወቅት
##ገሪ
##ይነት
##ጆች
##ቸዋል
##ዓለም
##ልጣን
ድረስ
##የር
ፓርቲ
##ጨረ
እንዴት
ሲያ
##ላለ
በኢትዮጵያ
##ንተ
##ቀት
##ሳብ
ሁለት
እኛ
##ነበረ
ዋና
ተቋ
##ህን
##ማር
ልዩ
ገል
አገልግ
አር
##ፖለቲካ
መረጃ
##ሰባ
ይሄ
##ደረጉ
አገር
እጅ
ተከ
በት
##ምነት
ልጅ
##ቸዉ
##ባለ
##ሆና
##ረን
ዓለም
##ዶች
አላ
##ፋት
##መረ
##ክር
በደ
##ከር
##ግራይ
##ሏል
##ሊዮን
##ራቸው
##ኦሮ
ቅዱስ
እነዚህ
##ረብ
ፕሬ
ያሉ
##ነቱ
በተለይ
##ቤት
መር
ሌሎች
##ራሲ
##ረዋል
ከማ
አት
ይችላል
##ፈለ
ወር
##ንዳ
##ደት
የሕ
ተግባ
##ሥራ
ዘመን
የግ
##ኤል
እንዲያ
##ቃት
##ፈጠ
የሚሰ
##ችንን
ተና
##ሞች
ያህል
በሌ
ዘር
##ጽሐ
ውጤ
##ዲያ
ሥር
ለው
ክርስቲ
##ዳደር
አንዱ
ቁጥር
ስብ
አሉ
ሕዝብ
##ቃል
ሁለ
##ካታ
በመሆኑ
##ክስ
ኢን
በጥ
ለእ
##ያኔ
##ብረት
##ጋል
##ኘት
##ያዊ
##ውል
ችግ
አድ
እንዳይ
ድን
ማህ
ኮሚ
##አዴ
አማራ
ከሆነ
ቃል
አያ
ትምህርት
ዘንድ
ንግ
##ውም
##ልን
አዳ
ጨዋ
##ጨረሻ
##ሬት
##ጠቃ
እንደተ
ሊያ
##20
የለም
የዘ
ማድረግ
ለም
ታሪክ
የምት
200
##ግና
##ቀረ
አንዳ
የፖለቲካ
##ሳሌ
##ከራ
##ዝቡ
##ካም
ገን
##ሠራ
ይሁን
እድ
##በትን
ዓመታት
ዘመ
መቀ
##ታይ
##ገደ
በነ
##ገሪቱ
##ነስ
ለሚ
##ርነት
##ሳቸው
ምስ
##ጋት
ይሆ
##ይማ
በማለት
##ንቀ
የሚለው
##ገነ
##ጡት
ይሆናል
የባ
አስፈ
ተፈ
እንቅ
##ለማ
የደ
##ፉት
ይገባ
መሠ
##ሰቡ
##ገኘው
ለተ
ግብ
##ፖርት
ሙሉ
በአንድ
በኩል
ተስፋ
መሆን
ምርጫ
##ድሞ
##ኮኖ
##ሱስ
ሀገር
##ተን
##ቻቸው
##ናዊ
##መሰ
##ገቡ
አሰ
የተሰ
##ይማኖ
##ስታ
##ጊዜ
ብለው
የብ
በሁ
በሙ
አማ
እንኳን
ጥሩ
##ሉን
ፖሊ
ተቃ
ክፍል
##ዛት
አጋ
ነዉ
የተባ
##ራን
ድርጅት
ጀምሮ
##ተኞች
የምን
##ያዘ
##ደራ
መግለ
##ጠት
ጠቅላይ
በህ
መለ
##ላችሁ
##ብን
##የው
ወጣ
የሆኑ
ብለዋል
##ሞክራሲ
ተናግ
##ላው
19
##ችው
##ቻችን
##ኖሩ
##ኑን
ውድ
##ቤተ
በው
ጋዜ
##ደረግ
##የሱስ
##ይና
አገልግሎት
አቅ
##ነጋ
##ቡብ
##ምጃ
ትን
ስለዚህ
##ወቅ
##ጽሐፍ
##ረም
##ስና
አለመ
ቡድን
##ፈጸ
የለ
##ፈር
##ምንት
##ልፍ
ዕድ
ለማስ
የመንግ
ግድ
ድም
##በብ
ሚኒስትር
ይገ
##ደርግ
##ሄድ
##ማይ
##ጠራ
ምክር
##ክተር
በሚል
ሲል
##ባይ
ስት
##ሰቦች
##ሳኔ
##ቀጥ
##ሖዋ
ሁሉም
የነበሩ
##ስቃ
የሀ
ጨዋታ
የጥ
በግ
ማዕ
##ቅድ
በታ
##ልክ
##ግኘት
እንድ
በ1
##ጀት
##አዴግ
እግዚአብሔር
##ቋል
##ጥሮ
##ጥታ
የራ
10
በዓ
ያሳ
የሌ
መሪ
ወንድ
ለምን
በርካታ
##ታደ
በብ
##ደረገው
##ስን
##ኒቨ
ኃላፊ
ካል
ያለውን
##ናው
##ሻሻ
##ዛሬ
መብ
ባን
##ንቋ
የል
##ርሱ
##ነትን
##ጠቀም
አዋ
##ኛውም
ግንባ
መብት
##ጋራ
##ላጊ
ኃይ
##ስቃሴ
ፖለቲካ
##ያዝ
##ርቶ
##ዳንት
ድጋ
አመራ
##ደርጉ
የተለያዩ
ይህንን
ስን
እንዳለ
##ጠበቅ
##ከሰ
ነፃ
##ነገ
##ጎች
##ዳር
##ጠይ
##በቃ
መግለጫ
##ሁኑ
እጅግ
በሕ
##ነግ
ሚሊዮን
##ቂያ
የኮ
##ከፍ
ባህ
##መሳ
##ኮኖሚ
ተሰ
##ሯል
አፍ
ይመስ
##ትር
##ዲህ
ኢትዮጵያዊ
##ረጋገ
ተማሪ
##ላዊ
ጥቅም
##ጠቅ
በተጨማሪ
ግንኙ
ገንዘብ
ዜና
ተብሎ
ጉባ
እንቅስቃሴ
##ጠብ
##ችሉ
ሰላም
##ገራችን
በፍ
የነበረው
##ቆጣ
ከዚያ
ትር
መጥ
አጥ
##ለጠ
በበ
እንግ
##ገት
ዝግ
##ተኛው
ቅድ
በኢ
ቤቱ
##ቦት
መንግሥ
አቀፍ
##ቅና
##ርትራ
##er
##ስራ
##ሙያ
የገ
##ሮችን
አለበት
ልጆች
##ነሱ
##ረድ
መንፈ
ባል
ውሳኔ
##ሳተ
ባይ
የኦሮ
##ለህ
ዓይነት
በዘ
##ትም
##ገብ
በራ
##መለከ
##ቻል
አመት
##ሁንም
አይነት
##ቀመ
ለዚህ
##ቹን
##ይን
ሲሉ
አባላት
ግም
ለማድረግ
የመጀመሪያ
##ሰር
አምላክ
በሙሉ
##ሙን
##ደረሰ
ፍርድ
ትልቅ
አደጋ
ሀገ
ልብ
##ግጥ
መድረ
ይዘ
ያልተ
ፍላ
##ዋን
አስተዳደር
11
አመ
አንተ
##ጠል
ኃይል
##ላን
ገብ
ብሔ
##ለኝ
ድጋፍ
አክ
##በታል
ቤቶች
ሺህ
##ርሲ
ያሉት
##ሳል
ለውጥ
##ብራ
መልካም
##ነበር
ሰብ
ተናግረዋል
በሀ
##ፈት
##ደን
ጉዳዮች
##ቋም
ስሜ
ግለ
ከወ
ተገ
ዋጋ
እርምጃ
##ካባቢ
##ናወ
12
ማሳ
አሁንም
##ላቸውን
ነዋ
ትኩ
ሰዓት
ይሰ
##ከለ
የሰው
ኢየሱስ
##ስቴ
እሱ
ቢሆንም
##ርክ
በማድረግ
##ቃሚ
##ክለ
አንዳንድ
##ከላከ
ወንጀ
መነ
##ዳጅ
##ደኛ
የኤ
ነጥ
ስለሆነ
##ብረተ
በሽ
##ናገር
የሚገኙ
##አት
በመቶ
ቋንቋ
ቆይ
##ተት
##ጭት
የአማራ
##ሮና
መሆና
##መለስ
##መልክ
መሠረት
##ሜን
ድርጊ
አህ
በቅር
እንደሚያ
ግንኙነት
ወጥ
አስተያ
ቀደም
##ደርስ
##ጠፋ
##ሳዊ
##ቀል
##ብኝ
በል
ስል
አሸ
##በራዊ
##ፈራ
አካል
ነገሮች
መሰረት
ብሄ
ከባ
ገበ
##ክምና
##ቂት
የቆ
##ጣል
##ዚሁ
##ደግ
##መለከተ
##ከተማ
ደር
##ይይት
አልተ
ታላ
##ህአዴግ
##ሶች
ዩኒቨ
##ጠሩ
##ናቸው
በአዲስ
ይገባል
አድርጎ
##ወስ
ፍላጎ
ፕሬዚ
##ርስቶ
ቅር
ክርስቲያን
##ርሲቲ
ይልቅ
##ጠቃላይ
ይህም
ከነ
ልማት
በተለያዩ
መደ
በድ
##ባብ
ውጤት
በረ
እስካ
ያላቸው
እኮ
መው
ኦሮ
15
##መሳሳይ
##ስብ
##ይማኖት
##ፍራ
##ማን
አስፈላጊ
መጽሐፍ
ህዝ
ማኅ
አፍሪካ
##ለመ
##ላሽ
አሜሪካ
##ስቱ
ፍቅር
መቶ
መመ
አለው
##ናን
##ሙት
ቡድ
አስታው
ግል
##ስር
የዓለም
##ከብ
##ኩት
##ጠኛ
##ትል
የሞ
##ዕራ
እውነ
##ፖር
##ከናወ
መልኩ
ከ1
##ፈን
የውጭ
ማስተ
##ቆም
መታ
ፈቃ
ጥረት
ሆነው
##ንብ
ከሌ
##io
##ደጋ
##ሃት
##ችልም
##ባዊ
የፌ
##ለቱ
##ገንዘብ
ሕግ
ነኝ
ሊሆን
##ጣሪ
##ጠናቀ
##ጅት
##ገኛ
##ከላከያ
##ጤና
##ጀር
የፍ
እዚህ
መዝ
##ረተ
ስብሰባ
##ላር
##ሊዝ
መም
ስለሚ
##ንካ
ወያኔ
ገልጸ
##ሊያ
ይላል
##ፈልግ
##ነትና
የክ
የለው
##ጠየ
የካ
ባለሙያ
##ቀበ
ወረ
ከሁ
ዙሪያ
##ቅረብ
የጎ
ተደር
መድ
##ሻለ
##ያል
በሌላ
##ከታ
##ለውን
##ወር
##ውሮ
##ቀስ
ክል
ጨምሮ
ምክንያቱም
##ዛዝ
##ረጥ
ካለ
ውጭ
እምነት
ርዕ
ጉባኤ
የሃ
##ጫወ
##የን
የሁ
ከሰ
በመስ
##ንጫ
እንዳል
ንጉ
##ወሓ
በማስ
ገለ
በጎ
ብዬ
##ንደር
መጠን
##ኞቹ
በሆነ
አማካ
ይዞ
አፈ
##ንፈ
መንገ
##ውሞ
ተጨማሪ
##ሃን
የአዲስ
##ውና
ነበረ
መሬት
መፍት
##ላማዊ
##ማቸው
ኮሚቴ
##ታወቀ
ሚኒስቴ
የትግራይ
ቀጥ
##ረበ
በአሁኑ
መሳ
ይችላሉ
ወገ
##ባንያ
##ርያም
##te
##ያዙ
##መቱ
##ገማ
##ዘር
##ዲዮ
ትክ
##ርስቶስ
##ዳት
##ዘጋጀ
##ሳቸውን
##ዉን
ያደር
##ጣሚ
ሕይወት
ጦርነት
ዶክተር
ኳስ
የሆነው
ተቋማት
ነፍ
አቅር
##ሰን
##ከፋ
##ቾች
ዶላር
##ኗል
##ሰጥ
##ቁት
##ማል
ሰጥ
አብይ
በእር
##ነቱን
##ንቀሳ
ኢትዮጵያውያን
##ሰሩ
##ካል
እውነት
##ከላከል
በይ
##ዋሚ
##ገባው
##ክልሉ
##ኖረው
##ጠን
በክ
2012
ባለፈው
##ላችን
ወጣቶች
እናም
##ዳል
ሳምንት
ድርጅቶች
##ፈፀ
##ንግድ
ደስ
ነጋ
ከም
ቢሮ
##ነዚህ
##ሞት
ወረዳ
አባል
ተከት
##ስማ
የምር
##ፎች
በባ
##ዝር
ሴቶች
ፖሊስ
ይቻ
ትኩረት
ገና
ልክ
ቀር
ተግባር
ገጽ
ማለ
ክርስቲያ
ተጫ
ጥቃት
ብል
ነበሩ
##ቶቹ
ሕዝ
በግል
ይታወ
ስላ
ዜጎች
14
ግንባታ
##ጣቸው
ይሆን
##ሱም
##ባሉ
##ዱት
ሚኒስቴር
##ሎጂ
ዳር
ያስፈል
##ደል
ሴት
ሆኖም
##ዱን
ቀናት
አራት
ፍት
##ጉም
መልስ
ናት
##ምህር
ይቻላል
##ጅም
##ሪቃ
በቁ
መተ
##ዳሚ
የድ
13
##ar
##ጋቸው
##ወጥ
##ራሽ
##ያቸው
ዓላማ
በተመለከተ
##ባለው
ኩባንያ
##ዳታ
ግምገማ
ይሖዋ
እራ
##th
##ጥጥር
ጉዳት
##ዎችና
##ይረስ
##ርስዎ
##ሰት
እያለ
ነጻ
##ምፒ
##ፍን
##ጋሚ
አምስት
##ደገ
##ተና
በቅ
##ቀም
##ውልድ
##ወሓት
ሌላው
እስኪ
##ባሪ
የሙ
ሥርዓት
ተመል
እንደማይ
ገልጸዋል
##ገናኛ
##ንደ
##ንድን
ለመስ
አግ
ውይይት
አገሮች
ወታደ
አብዛ
18
ደም
##ታማ
ምላሽ
የምና
##ዘን
የኦሮሞ
ፕሮጀ
##ከበር
አቅም
መፍ
##ሃል
##ካሄድ
##ቡት
##ወጡ
ፊት
አውሮ
##ጦር
16
##200
ጦር
በ19
##ጓል
##መም
##ለየ
##ፈረ
##ጋቢ
ፕሮግራ
##ሸነ
የአፍሪካ
ይታ
ወል
እም
##ቀዋል
አልነበረ
##ደብ
ወጣት
የሥራ
ተጠቃሚ
##በረሰብ
ያው
የተነሳ
##ሎችን
##ጠረ
##ሰበ
##ከፈ
##ያንዳን
በዓለም
ስሜት
ብሔራዊ
##ግባር
ድል
ነጥብ
##ia
ተራ
በተለይም
##ጣው
ሊቀ
እንደነበር
30
ትግል
##ቧል
ዩኒቨርሲቲ
ደጋ
ለህ
ለምሳሌ
የስራ
እስካሁን
##አል
ህግ
ተዋ
ጤና
በጉ
##ንቅ
ባንክ
ዝም
ከባድ
##ራም
##በሩት
በኮ
##ጠኝ
##ያት
##ቡር
የሚመ
##ጣን
##ኮች
##ቡን
##ስትና
በቅርቡ
##ጋሪ
የቀድሞ
ሂደት
ይቅር
አካላት
ጥር
##ንቲ
##ቻቸውን
በዚህም
##ንታ
ችግሮች
##ቅረ
ተከትሎ
መሥ
የቅ
ገቢ
ፕሬዝ
ምድር
##ኪና
##ገዛ
##ዲሱ
የሚቆ
##ችሁን
##ማርኛ
መዋ
ልጆ
##ቂቃ
##ዳደ
##ምላክ
17
##ደረጉት
##ሱት
በሚያ
ዞን
ዘርፍ
##ጀመር
ተማሪዎች
##ልቁ
##ጋይ
ባለው
ወንጀል
##ኞችን
ጀር
ይገኛል
ተገቢ
##በልጥ
አስተያየት
##ገበ
አምባ
##ንባ
ፍላጎት
ስታ
የአሜሪካ
##በላ
የሚታ
##ከፍተኛ
መንግስ
ለሁ
በሃ
ክለ
የተቀ
ስድ
ባለስ
##የም
ከስ
መግ
የጤና
##ራዊት
##ክኖ
የመንግስት
##ነታቸው
ብለን
##ታችንን
አህመድ
የተወሰ
መኖ
##ንቃ
##ልኝ
##ስቶ
የህዝብ
##ፈልጉ
ለወ
##ላቀ
##ሞክራሲያዊ
##ሳሰብ
ፕሬዚዳንት
##ንነት
##ጋዊ
##ችላ
##ቱት
##ፊያ
##ባቸውን
##የሁ
ጌታ
ሰር
##ጥረት
##ያይ
መሪዎች
መልዕ
##in
ወራት
የፀ
በዋ
25
ኢትዮጵያን
የዚህ
ባለመ
##ዝና
ተመ
##ልና
ቅድሚያ
የቤተ
##በትም
##ርማ
ያላ
የኦ
##ጨዋ
##ክርስቲ
ጥናት
አለም
##ካት
አንዳን
ይላሉ
##ድሮ
##ሩም
ይኖር
ጥሪ
ዝር
አረ
##ረዳት
##ለቀ
ደብ
##በኛ
##ፍና
መቼ
##201
##ቀርብ
የተሻለ
በቂ
የሚሰጡ
ክብር
##ነበ
ወዳ
##ዎን
##ሳሉ
##ሰድ
##ዳማ
አስተዋ
##ካባቢው
ጉዞ
##ገረ
በወቅ
የዋ
ደቂቃ
##ከረ
ህይወት
የአንድ
##ንካራ
ግብር
##ቃወ
ትንሽ
ህገ
በሽታ
##ፈጠረ
እንደም
##ንጀ
##ዱስት
ለማሳ
##ዘጋጅ
##ጀመረ
የንግድ
ትግ
##ገዋል
የይ
##መንግ
##ራንስ
ውጪ
##ኛውን
ስምምነት
የትምህርት
አንድነት
ለማግኘት
ተሳ
##ላላ
##ዳዳ
ተቃውሞ
የግል
ለብ
##or
##ጭር
ልም
አየር
##ዘው
##ዩን
##ቆጣጠር
ነን
መንፈስ
የፓ
##ከታተ
##ኝም
##ራሉ
##ችለው
##ካሄደ
##ሳን
ይፋ
##ጮች
መሆናቸውን
##መዘ
ለኢትዮጵያ
የዕ
አጋጣሚ
##መና
የሚፈ
የቻ
ሦስት
መጣ
##ዳቸው
የፈ
##ዚቃ
በተጨማሪም
የፕ
##ቦችን
ንብረት
##ጣጫ
24
ስርዓት
ማንም
##ክኖሎጂ
##ርቅ
##ያያዘ
ተጫዋ
ውሃ
##ሬሽን
##መለከት
##ያቂ
እግር
ሜትር
##ማሽ
እናንተ
ስልጣን
##ነኛ
ቢያ
ንግግር
##ግባት
##ዓዊ
##ሷል
ጽሑ
ከው
##ሳቢ
##ወለ
አዳዲስ
##ቁር
##ፖሊ
ምል
ግንቦት
##በዋል
##ህና
##አዊ
ማግኘት
የለውም
የሥ
በመሆኑም
##ሎስ
ኤፍ
ዳይ
##ጣይ
የሚለውን
ስደ
ባሕ
ሕገ
አልፎ
ሠራ
አገልግሎ
ከበ
##ሳሰ
##ናገሩ
ጥላ
ባለፉት
##ኳይ
##ንጉ
##ምባ
ኢህአዴግ
በስተ
##ዳሴ
ዘገባ
##ኪያ
##ጿል
##ዋር
ማስታወ
የጋራ
አልነበረም
እንዲሆን
##መለካ
##ውሮፓ
27
አራ
ንግድ
ኦሮሞ
አድርገው
መለስ
የሚችል
ሱዳን
##መዋል
ሶስት
##ረታዊ
##ደርገው
መልክ
ትውልድ
ህዝቡ
ታው
መጨረሻ
##ቸኳይ
በዓል
የሚያሳ
ብሏል
21
ምክትል
ሆኗል
##ታን
##ገሩ
##ናገራ
##ነበረው
የበላይ
##ስሊ
ታዲያ
##ክሮ
ትዕ
ሰነ
አመራር
ለዘ
ልማ
ክርስቶስ
ዝግጅት
በኦሮ
ተጋ
ከዚያም
##ግም
##ሌክት
##ለፍ
ባለቤት
##ዲት
ፈቃድ
##መጡ
##ሻሻል
ጠንካራ
##በራ
በመንግ
ከአንድ
መነሻ
##ዊት
ክስ
##ሟል
##ረጋገጥ
##ፈና
ያስተ
##ጥነት
ተከታ
##ቢይ
የሽ
##ብዛ
ሚዲያ
ጭምር
##ነር
ምርመራ
ምግብ
ይኖ
##ዩት
ሚኒስትሩ
የበለጠ
መኖር
##thio
ታላቅ
##ካሄደው
##ነቶች
እንድት
##ኒያ
ተመሳሳይ
ከታ
##ስፒ
ግጭት
##ቋቋ
በመሆን
##en
ግምገማዎች
##ናገሩት
##ጥፋት
በበኩ
መድረክ
ከኢትዮጵያ
አወ
ትግራይ
##ዳም
አመታት
##om
##ሴቶች
##ረር
##ገለጸ
##ራው
አንቀ
ለመቀ
መሳሪያ
ማድረ
##ፊዎች
##ባቸዋል
##ማኝ
##ስተኛ
##ጀም
ጥቂት
##ቤቱ
##ቀን
##ዱስትሪ
##ህር
የምታ
ሃይ
ጣቢያ
ሰፊ
##ወሃት
ሰዎችን
22
አቅጣጫ
ቫይረስ
አካባቢዎች
ሚና
መጀመሪያ
##ረሱ
##ውጣት
##ናይት
ሰራ
ሰሞ
ባህል
በመቀ
##ሆንም
ጥበቃ
የቴ
##ቷን
ጥቅ
##ውስ
##ባባይ
ተወካ
የሚሉ
ተግባራዊ
መላ
##ንኛውም
##ልስ
##ንስት
እያሉ
ሰማ
አዋጅ
ለመፍ
##ዝም
##ጀርመን
##ለል
##ic
ዳይሬ
ወገን
##ጥም
ሃሳብ
##ዴራል
ethio
##ጊዜው
የጦር
አገራት
##በሌ
##ሁት
አለማ
በወቅቱ
ደን
የሶ
በዚያ
##ከረም
##ዋት
##መሩ
##es
ፓርቲዎች
ሚሊ
ቡና
##ልጣናት
##በረታ
ጉድ
በጋራ
ምሁ
##ቲት
መስጠት
##ሊክ
ምዕራ
ብት
የመንግሥት
##ህንነት
ሁለተኛ
ነዋሪዎች
2013
አግኝ
የመስ
##ተኝነት
ተሸ
##ሌት
አይችልም
##ረጋግ
ማር
26
2020
ትክክለ
የከተማ
##ወድ
##ብረተሰቡ
ያለበት
##ቴን
##ቋቋም
##ልማት
ሊግ
##ደጋጋሚ
ጠይ
የነበሩት
የነበረውን
##ናንተ
##ከቱ
##ራይ
##ለያየ
ግልጽ
##ለኛል
እርሱ
የሰብ
አመለካ
ውድድር
##ከው
ተቃዋሚ
##ሄዱ
ወዲህ
##ስቲ
##ያንስ
ሞት
ምናል
ቀላል
ከህ
23
ተጠና
የጠ
##ካሪ
ለሌ
ስህ
ምሳሌ
ድምፅ
##ባበ
ኃጢ
ዓመ
##ሰጡ
ኤርትራ
ምናልባት
##ዋቸውን
መከላከያ
ገበያ
##ተናል
ቢሊዮን
ራሱን
አቡ
##ሸት
ያን
ሐሳብ
##ነጋገር
ዋንጫ
የሚባል
ስቴ
ፈተና
እነዚህን
##ሳስ
አመራሮች
ያስፈልጋል
ማስረጃ
የመጨረሻ
አንደ
ክፍለ
ወጪ
ዕለት
ወስ
ይፈ
##ሆነው
የሆኑት
ኢኮኖሚ
##al
ተቋም
የገንዘብ
የሚገኘው
##ዮር
##ዛሬው
##ገለጹ
##ፈልጋ
ቤተሰቦች
ይባ
##ደራል
ሰላ
በእርግጥ
ዓይ
##ለበት
##ዳቤ
ሰለ
##ረኛ
##ፈጸም
ተነ
መፍትሄ
ክር
##ሄር
##ጠቅላይ
##ከባ
##ፈልገው
##ፉን
በቃ
ደስታ
በአጠቃላይ
##ቀድ
ሀብት
የሚሆኑ
##መልከት
በአን
##ቁም
ደረ
ከጥ
##ጠቀሙ
ትና
##ገም
ረገድ
የተባለው
##ቀርቡ
ከቀ
##ዳና
##መጥ
ያደረገ
ሀገራት
##ዎት
ግራ
እኔም
##ርም
##an
##ረግ
በዚሁ
የኢን
ኖሮ
ምንጭ
ከት
##ችኋ
ትርጉም
መመሪያ
ከተሞች
ይመስላል
##ሰጠው
##ሳኝ
##ብሪካ
በሌሎች
ሃገ
##ንክ
##ሬን
መክ
ዘመቻ
ሜዳ
ሲባል
አላቸው
ሰላማዊ
እነሱ
##ትስ
##is
ይበ
ሥልጣን
ብቸ
ጠብ
ይበልጥ
ተገል
ደቡብ
ደሞ
ፕሮግራም
አቋም
እንድን
የ1
በገ
ምርት
##ብረተሰብ
##ደሰ
ይኸ
##ናይትድ
##ናይ
ባህር
ባለሥ
ችሎ
ባለሙያዎች
አስተሳሰብ
በአማራ
##ረቱ
እንግዲህ
##መንት
አለባቸው
##ያንዳንዱ
ራሱ
የጉ
ትናንት
##ድና
ከሚያ
ከላይ
##ስተር
የሚገባ
##ላሴ
##ዕኖ
መልዕክት
ማም
ወገኖች
##ፈጥሮ
የተቃ
አብሮ
##ናፊ
ለሕ
መስተ
ሃላፊ
የሕዝብ
እንደሌ
ሰባት
##ጨት
መቆ
##ለቲከ
##ደረጃ
የድር
ከብ
ጠቁ
##መነ
የሚሰጡዋቸውን
##ክርስቲያን
ስፍራ
የሐ
ልዩነት
ታሪካ
##ሊት
በኃ
በታች
##ሽኑ
መልእ
የማስ
ዕድል
##ጋና
ዉስጥ
##ጠኞች
##ፏል
ሥነ
ግለሰቦች
ሀሳብ
ወደፊት
እኩል
##ዋለሁ
ወላ
ራስ
አስታወቀ
የሰላም
እድል
##ልቃ
##ሻገር
##ለቅ
ጥያቄዎች
##ሬዎች
##ጠበቀ
##ወጣው
እንደሚችል
##ቃቸው
ሆይ
መስመር
##ቸዉን
##ቀፍ
ማየት
መከራ
የዓ
ሙከራ
##ሽከር
ግድብ
ከል
ሁሉንም
##ገራቸው
##ግባብ
ዓም
ጋዜጣ
##ew
በከፍተኛ
##ሳው
በምን
በመጀመሪያ
ገልፀ
አስረድ
ሰልፍ
##ረታ
አለኝ
##ህነት
አባት
ብላ
##ዎቹን
ጥና
መሣ
የዩ
##ማሌ
መኮ
ዘዴ
##ካቸው
ዝቅ
አዲሱ
ገብረ
28
##ዮርጊ
##ሰል
##ይታ
የግብ
ብሔር
የኔ
##ገኙት
ማርያም
የሚጠ
ክፉ
ኮሚሽን
እናት
ሃገር
እንደገና
ወዘ
መሀ
##ካን
በኤ
##on
ወይስ
የወያኔ
ስለተ
ይሄን
ጥበብ
ክፍሎች
ፖሊሲ
በመጨረሻ
የኢኮኖሚ
##ሰዋል
የመጣ
ኪሎ
ማዕከል
እንደማ
##ሞላ
##ክሲ
የልማት
በሶ
##ሎቹ
##ታወቅ
##ድሩ
##ጧል
የወጣ
##ረዱ
ኢትዮ
##ራሪ
##ዋቂ
በራሱ
ማለትም
ከሌሎች
እህ
##ልበት
##ገነባ
የተለየ
ሆስፒ
አማራጭ
##ዥን
ተሳት
##ምሌ
##ደበ
ያቀረ
##ንቃቄ
##ውሎስ
ቢያንስ
መጽ
##ሠሩ
በዕ
ሕዝቡ
የዜ
እርዳታ
በተያያዘ
ሁለቱ
##ላንድ
አጀ
##ሐንስ
2011
##ሻል
ለስ
የሚችሉ
የተመ
##ራር
ኮን
##ሆናቸው
ግዜ
##ኔት
ካር
2019
ሪፖርት
ቦታዎች
##ከላዊ
##ቀሳ
##ጀመረው
##ልማ
ስጋት
በደቡብ
ግዴ
ፕሮፌ
ክፍያ
ያላቸውን
##ልድ
ደብዳቤ
##ጉን
በይፋ
##ለጥ
ተጠቅ
በፈ
አይመስ
ተል
የቀረ
ምሥ
##ሴት
የቡ
ወዘተ
##ሮው
##ፈለገ
የእግዚአብሔር
ስድስት
##ለጋ
ፎቶ
ሕይወ
##ጊያ
መሸ
ጀም
ተቀባ
ይቀ
ህይወ
##ዝግ
ሰይ
ተጠር
ሳያ
##ንሲ
##ሾች
ብሄራዊ
##መለሱ
##ርላማ
ሀብ
እንደዚህ
ድርሻ
የጋ
መኪና
እንዲያው
ዛሬም
##ህም
##ቻለ
የሚወ
ትምህር
##ፈጠረው
##ሌክትሪክ
ሆቴ
ተገኝ
ፕሬዝዳንት
አሰልጣ
አያስ
ልን
የኮሮና
ከኢ
በቀላሉ
##ሁፍ
በ200
##ጉት
ሥርዓ
##ዛቤ
ነዋሪ
ዘግ
ተጽ
##ኛሉ
አድማ
አቋ
በዚ
ታስ
##መኑ
እርስ
ፍሬ
መንፈሳዊ
ሪፖር
##ኘው
የአየር
##ይይ
ማንኛውም
##ፋን
##ሉበት
ጋዜጠኛ
መጻ
##ኒት
ብርሃ
##ነህ
##ኬት
ፖለቲካዊ
ቁር
የሚያስችል
##ማዊ
አውሮፕ
እውነተኛ
የደረ
##ራቸውን
##ንቀሳቀ
##ስተካ
ህዝቦች
##ድረስ
ድርጊት
አይቀር
ታይ
ላለ
##ባባ
ቴክኖሎጂ
በግልጽ
በተደጋጋሚ
##ራችን
ጎን
በተመሳሳይ
##ቀደ
ተጠያቂ
##ጦች
##መለክ
##ዳሜ
##ላለም
##ንበት
##ጡን
የፋ
የሚሉት
ለት
የኢትዮጵያን
ፖለቲከ
መሣሪያ
##ጠለ
የምርጫ
##ራቅ
የክልሉ
2010
ተብሏል
##ጠነ
ተወላ
00
እስር
##ሁድ
ተደርጎ
ነፍስ
##ጹም
##ፃናት
##ቃይ
አላማ
በሰላም
##ቀጥል
##ታም
##ሥር
##ስቸኳይ
ይገኛሉ
ሀይ
##ዳው
##ቃቤ
የዘር
እንዳለው
መስከረም
##ገንባት
የመሰ
##ቁን
ልት
ህመም
##ደድ
##መልክቶ
በብዙ
##ርቶዶ
ፋብሪካ
የሚተ
ህብረት
የሆነውን
አፍሪቃ
ጳውሎስ
000
ተቀባይነት
እድሜ
ይመስለኛል
ምልክት
አና
##ሞን
##ረፍ
##ወገድ
##ንግሊዝ
መቅ
##ሳካ
የሚኖሩ
##ስቡ
የመጀመሪያው
ዘጠኝ
ያፈ
##ላለፍ
##ላቅ
##ታር
##ቃሉ
##ምሩ
ይዘው
ምርጥ
##ብይ
##ውው
##ልህ
አድራ
ለማለት
አልባ
ዕው
2018
የሲ
##it
ድርጊቶች
##ሳሽ
ወሳኝ
የደረሰ
##ንድነው
ዕድሜ
ምህ
##እምሮ
##ዮርጊስ
ነፃነት
በሰው
##ምርጫ
መንግሥታት
##ሱዳን
##ስተዋ
ወይንም
##ዬን
##ርሽ
##ሰስ
##ማግ
ቴሌ
ስነ
ተመራ
ክልሎች
##ታዎች
##ቨስት
አመለካከት
##ሽት
የማያ
ሰሞኑን
ለይ
ይናገራ
ኢንተር
ክት
ዋናው
ግዛት
##ጁን
በቀጥታ
እንጅ
ማወቅ
##ጻሚ
የዳ
##ዋዕ
ይናገራሉ
የተደረገ
ተቀብ
##ከን
##ገለጹት
በመተ
##pia
##ባረ
ትክክለኛ
##ፈጠር
አሰራ
አስከ
ተቆ
ዝርዝር
##ራክ
##ፋር
ቀበሌ
##ደና
ዴሞክራሲያዊ
ለመከላከል
የደቡብ
ምንድን
##ላቂ
##ንጋ
ምና
##ወያ
ኑሮ
በፌ
##ባችን
ይገል
##ረገ
አጠቃላይ
መንገዶች
##ጠይቅ
ካልተ
አይቻ
ሃይል
##ብርና
የኃ
##ጀመሩ
ግንባር
##ሸነፍ
##ነስተኛ
##ፍሪቃ
የተባለ
አገሪ
ቀድሞ
##ረንሳይ
##ድብ
ካሳ
##ቶቻችን
በስተቀር
መስራት
##ጋቢት
##ሊን
ጀርመን
መፅ
መግባ
ይታወቃል
ፌዴ
##50
የአምላክ
ነውና
ኃላፊነት
አንፃ
ከግ
እነርሱ
የፊ
እስራ
##ካሂ
ማህበር
##ews
አታ
ቡድኖች
##ኖራቸው
የሚያደርጉ
##ሴን
ጳጳ
##ጠዋል
ፈጣሪ
በጀት
የይሖዋ
አጀንዳ
ፕሮጀክ
##ቻሉ
##ታችሁ
ቅዱ
ያሉትን
የያዘ
29
ሰም
ማረ
ድምጽ
##ሊና
##ብርሃ
ሊያስ
##ቶችና
እንደሚያስ
##በኞች
##re
##ለዉ
የጸ
##ዳዳሪ
##ላችንም
ለአንድ
ማህበረሰብ
ለመስጠት
እግ
##በትና
ጠባ
##ታሉ
##ጠቁ
##ላቸውም
ፕሮጀክት
ማህበራዊ
አንድም
ከዚህም
##ጠኝነት
##ከሩ
አሸናፊ
##ከተል
በመጠቀም
##ሪት
##ጥን
##ዲያው
ለሰ
ለራ
ብን
##ሆኑም
ሙስሊ
እንደሚገባ
እኛም
2017
አዛ
##ግባቡ
##ጥቶ
##ርሶ
##ማማ
ገደ
##ጫወት
##ባር
##ay
ሰኔ
የዲ
##ጓዝ
dw
##ሮቹ
##ለስ
##ኖረ
##ቅርብ
አይቀርም
ስህተት
መገናኛ
50
ethiopia
##ክቶ
በሁለ
የምግብ
##ፋል
በትግራይ
ግለሰብ
##ጠናከር
ጓደ
ቤተሰብ
##ድም
##ጠመ
##ፈለግ
በ201
በሁለት
መፍትሔ
ጀግና
በቤተ
ስለመ
##ብሮ
2009
መጠቀም
ለፍ
ማንነት
አቡነ
##ያኑ
አስታውቋል
##ዋሳ
ኃይሎች
አስቸ
##ነታቸውን
መሐ
የኤርትራ
##ኑት
##ሕአዴግ
##ድያ
ዮሐንስ
ይቅርታ
በአሜሪካ
አድርጓል
ለማወቅ
ገልፀዋል
##ላትን
ለሀ
ተፅ
ቀይ
ያሰ
የዛሬ
አስረድተዋል
##at
ቆይታ
##ራኒ
ተን
የሌለው
ጎንደር
##ቂዎች
በኦሮሚያ
ስልጠና
##ገሪቱን
አማካኝነት
##ፕሎ
##ሉትን
##ራንስፖርት
##ጅቱ
አርሶ
##ዛው
የሚቆጠሩ
እርግ
ያገኘ
ሚንስት
አመልክ
##ትነት
ጥፋ
የቀረበ
##ሰቦ
በቁጥጥር
ለመሆን
##በሳ
እድገት
##ምስት
##le
##ሊያን
ተወካዮች
##ብብር
የእር
የቤት
የአገር
የሚሆን
ይሁንና
ባሻገር
##ጋንዳ
ታሪካዊ
በአፍሪካ
ያደርጋል
ጠቃሚ
##ኒክ
ተጨ
መጠየ
##ሳችን
የቦ
ጥቅምት
የኦሮሚያ
##ድዮ
##ጀንሲ
##ዷል
ዘመናዊ
##ካይ
አሻ
ታውቋል
##ቢሲ
በሁሉም
ችግሩ
ተዘ
በዛሬው
ዳይሬክተር
አይገባ
ደመ
በትክ
የሚከተ
##ርፍ
ተሳትፎ
ያደረገው
እቅድ
ብዛት
አንፃር
መራ
##ረኞች
አምባሳ
##ኖችን
የሕግ
ለዚህም
በጋ
ግርማ
ነህ
የሚገኝ
ፕሮፌሰር
ነገሮችን
የእኛ
በመስጠት
ታሪ
ቁጥጥር
##ችላለን
##ስራኤል
##ከናወን
ለጥ
##ንፃ
አልቻ
እየታ
ጉዳዩ
##ጀመርያ
##ድሮስ
ገዳ
##ቀመጥ
ትልቁ
ወታደራዊ
##ነቅ
ከሁለት
##ጠውን
አስተያየ
##ስቶች
##ፋቸው
እንችላለን
##ou
ማክ
##ድቅ
ራሳቸውን
መሞ
አብዮ
የመን
ከጎ
##ይረሱ
##ዶቹ
ስለሆነም
ቅሬ
##ወሰን
የወደ
እጥረት
አትሌ
ጉባዔ
##ሀት
አማርኛ
ግጭ
##ንቶ
##ማግሌ
የመሳሰ
##ቢት
ፈጽ
##ታወቁ
##ጣሉ
##ነሰ
ቀጥሎ
አስመልክቶ
የሸ
አይደሉም
መጨ
##ታወቀው
ሊቀመን
ይታወሳል
ጫና
##ነበሩ
##ሰቢያ
ብሄር
ዜጋ
##በስ
ቤተክርስቲያን
##ፈታ
የተከ
##ፊው
ሃይማኖ
በውጭ
የማህ
##ፖሊስ
##በራት
መዘ
##ባበር
##ሳተፉ
##ደስ
ይወ
ጊዮርጊስ
ትች
##ፍቶ
##መለከተው
##ብል
##ed
##ማረ
አለብን
##ረፈ
የን
##ሙር
በእው
ብቃት
##ላቸዋል
ሁል
##ገባት
##ርቶዶክስ
ሃገራት
ኮር
ከዛ
መንግስታት
th
##ገልግ
ቃለ
ጓደኛ
በከተማ
ሁሌ
ሁኔታዎች
ሰራዊት
##ሪው
ሆስፒታል
ከሀ
በምት
##ደቱ
አዝ
##ጥረው
##የሩ
የሠ
ባደረ
##ጥሩ
ምት
አስቸጋሪ
ጥቃ
ቃላት
##ደርሱ
ደህንነት
##ህዴ
##ግለጽ
ስራዎች
ኃይለ
ወሬ
ማቅረብ
ዕቅድ
ካልሆነ
ቀጣ
ቦርድ
በአግባቡ
##ዘጋጁ
አገዛዝ
##ብቅ
##ሦስት
ስፖርት
ማግ
ዐቢይ
ወረርሽ
##ማሊያ
##ምጣት
##ጀምር
የህግ
ዳን
ከደ
##ስተው
ድንበር
መረጃዎች
በሐ
##ነታችን
##ሃብ
አጠና
ቡድኑ
##ሯቸው
40
በሥ
መረ
##ቻችንን
##ቅናቄ
ክብ
ገባ
ሥራዎች
##ዝቃ
የላ
ከሕ
ማራ
ሃይማኖት
##ቀቅ
እሳት
##ሳተፍ
##ሰጠ
በማሰብ
##በታ
በእጅ
አግባብ
##መጣል
ጨዋታዎች
የሚመራ
ርዕሰ
እንደመ
by
ውጤታማ
com
በላ
በቀለ
ጽሑፍ
ያም
የካቲት
የታሪክ
ኢንዱስትሪ
##ጣቱ
##ከም
የሚያው
ህል
ንጉሥ
አስተዋጽ
የሀገር
አንቀጽ
ውኃ
##ደንት
ስቴትስ
ጌታቸው
ነጋዴ
የሚባለው
##ርና
##ካተ
##ስፋት
ቀጠ
የፌዴራል
አይቻልም
ይሰማ
ክስተ
በበኩላቸው
በን
የአውሮፓ
##ሲያ
ልምድ
ኃጢአ
##ደርጋ
ካላ
ፍር
ተያይ
##ዳደሩ
ሙዚቃ
ጎል
ማስታወቂያ
ሲሆኑ
##ጥረ
አስኪያ
በፍጥነት
በተቃ
##ርን
##ገውን
##ነገረ
##ነገር
##ገለፀ
በቀጣይ
መምህ
##ለዋ
ተሳታ
የተከሰ
##ፈዋል
አስቀ
አሠራ
##ክሮች
ብለህ
##ንቲባ
ይታያል
ስላል
ተይ
አነስተኛ
ለኢ
##ሏቸው
ብርሃን
##ፎር
2016
የሚሆነው
በሳ
አንጻ
ሆና
ይኼ
##ክተ
ገዢ
አንዲት
እንደምት
እባ
እርስዎ
የተወ
##ዳጊ
ቀርቶ
ሕዝቦች
##ማቸውን
እንስ
##ቪዥን
##ኩን
የአገሪቱ
የእኔ
ቅን
ብዙም
ትላ
መጥፎ
##ነሣ
ቀውስ
ህክምና
##ማሩ
##መቻ
##ፕሎማ
በአገሪቱ
ማው
news
ተብለው
ውስ
##ዩም
ወርቅ
##ጠናቀቅ
እያስ
ሙያ
ጠላት
በድር
ይባላል
ግንዛቤ
ሲኖ
መና
##ፈጠሩ
ቢኖር
##ጣጥ
የአን
##ለኝም
##ጠየቅ
##ምራት
##ሻው
መናገር
ኤል
የተሳ
##ሀብ
ትክክል
##ገስ
ሙስና
##ራፊ
ስርዓ
መሆናቸው
##ቻለው
##ድሜ
የረ
##ማሪዎች
እንዳለበት
መጋቢት
ይመል
ጥፋት
የሚመጣ
##ረዳው
ቻይና
ተደራ
##ሔራዊ
##ነውን
100
ከ3
በደንብ
##ሸን
አንደኛ
ስለሚያ
አስታውቀዋል
በማይ
##ናገረ
የጣ
አያው
ተስማ
##ገራሚ
##ጎችን
የተባበሩት
ተሰማ
##ካኤል
በማን
##ፈተ
መገለ
##ኳር
##ኮኖሚያ
መኮንን
ግዴታ
የቱ
##ርባ
ጥቁር
አጠ
ሽማግሌ
ባለፈ
##ለድ
##ራምፕ
ደሙን
##ያለሁ
##ግሩ
ማብራ
##ጌታ
ከድ
##ኩር
60
##ናገረው
የሳ
ትእ
##ያችን
ሥጋ
የተመሰ
##ፈልግም
ኋላ
ሊቀመንበር
##ቱና
ዕር
##ሰጣቸው
እስክ
##ናቸውን
##ከሉ
##ንጀል
##ተኮ
ተፈጥሮ
ቅዳሜ
አደባባይ
ምክንያቶች
##በራቸው
##ባጭ
ስደተኞች
##ናሽ
ቅድመ
እንደሆኑ
ፈር
መዳ
ከእነዚህ
##ለናል
ገልጿል
እንዳያ
ዋስትና
የዶ
የሚቀ
ማሰብ
##በርካታ
ዘንድሮ
ስምንት
ግድያ
አዎ
##ወሰነ
##ነን
ወታደሮች
አዘጋጅ
##ዶችን
##ውሰድ
ለሚያ
ይጠበ
ብሔረ
ምንድነው
የግድ
በቦ
ስንት
ሚሊየን
ዙር
ሊቃ
እለት
አለን
ባለቤ
ካለው
በካ
##ወራ
ሰዓ
የመከላከያ
##ብናል
ምኒ
##ዮችን
ሠራተኞች
ምግባር
መቼም
ማጣ
በድን
ሁለተኛው
##ቆች
ጠየ
ተቀም
የበላይነት
የሚገ
ለመግ
በክልሉ
##ለመደ
ወንጌ
##ባባሪ
በጭ
ባለስልጣናት
ተር
በተግባር
##ፈጸመ
የጀርመን
አይሆንም
መኖሪያ
##ቪድ
##ፃነት
ተባለ
የኛ
##ችበት
##ኬሽን
ከ2
##ልጠና
##ልኮ
ሆቴል
ታዋቂ
የወሰ
በ2
##ኩም
አይደል
##ስተዳደር
በረከት
ሲያስ
##ሥራት
ርዕስ
ቤተሰቦችዎ
በቆ
##ልካም
መንግስቱ
##ዕራብ
##ፈስ
##ውንም
##ዘጋጀት
ክርስቲያኖች
##ቀረበ
ዕቃ
ትዕዛዝ
በሞ
ስልጣ
##ችኋል
ወንዶች
ያደረጉት
የየ
##ሳችሁ
##ግግር
ፕሪ
##ጠብቅ
ሃሳ
ንቅናቄ
በሚገባ
ቅጣት
እያደረገ
on
##ጠላ
ይመ
ጉብኝ
ወቅታዊ
##ህሳስ
በዋና
ዝግጁ
አድርገዋል
ተገልጿል
##ቃለን
ሀይል
##ዜማ
የገባ
##በነ
##ቂቅ
ዳዊት
##ቲክ
ደጋፊ
አስገራሚ
##ለሽ
ስጦ
##ችውን
የተፈጥሮ
ጥላቻ
##ቶን
በፓ
##ዎችም
ይቆ
##ገኘት
##ማሉ
የሚያስተ
##ምም
##ጪው
##ግዳ
እቃ
አስራ
ውል
በአብዛ
##ዘጋጀው
የአለም
የተጠቀ
አደረገ
አሳል
እንዳስ
የባለ
መጋ
መደበኛ
የፌደራል
##ma
ጀመረ
##ሠረተ
ሰል
ንብረ
##ትርያ
##ዴፓ
ፍትህ
2008
አስተዋጽኦ
ተስፋዬ
የከ
ያለፈ
##ላቱ
በዩ
አዘ
የውሃ
##ንቱ
##ኮኖሚያዊ
ያፈሳሉ
ከንቲባ
አንጻር
##ችም
ሌሎችም
የሚገል
በትክክል
##ናትን
##ቨስትመንት
##ዋርያ
##ገለግ
ያወ
##ስም
ጋዜጠኞች
ሁለቱም
መሬ
##ፃሚ
ዩኒቨርስቲ
ፍቃ
ደሳ
ድርድር
##ጻጸ
እያንዳንዱ
በፕ
መልእክት
##አን
መንግሥቱ
ዋነኛ
##har
ፀሐ
ይጠበቃል
##ሬዳ
በዛ
ሐምሌ
እውቀት
##ራቢ
ብድር
##ቦና
አላህ
እንዲያውም
ደብረ
ይደረ
ዕድገት
ፈል
መዛ
ገብቶ
ሽልማት
በአካባቢው
ጉዳዩን
የመጽሐፍ
ምርምር
##ስተዋል
እስቲ
የኢህአዴግ
##ዋቸው
ዝና
##ሥራቅ
ሰነድ
ለማየት
የሚመስ
የማን
ማመን
ታማኝ
##st
##ንዳንድ
##ፈነ
##ዎቻችን
የሰብዓዊ
ሁሉን
##ላህ
ተመስ
ሽብር
እረ
##ዘረ
መሠረታዊ
የለበትም
ከአዲስ
##ዳድር
##ረጋጋት
ለነ
ኬንያ
##ሆኗ
##ቻለሁ
2014
መልሶ
ከራ
##ስኮ
ከፋ
የምስ
በኦ
የፍት
##ጨመረ
ለምንድን
ምንጮች
በጽ
##ሪን
ህዝባዊ
ሰአት
ቁልፍ
##ላስ
##ቃወም
መቃ
ያድር
ባሕር
ሆኑ
አበበ
ተነስ
መጻሕ
ማጥ
ፊልም
##ሐሴ
09
የእግር
መሰል
##ስቡክ
እንደሚሉት
##ያሉ
##ይናንስ
በማሳ
ይጠይ
ሁላችንም
ለመጀመሪያ
##ፈለጉ
ለመፍታት
##ለብ
እኔን
ለረ
##ኬንያ
ግምት
ጠላ
ፀረ
##ለኛ
##ከተለው
ከመንግ
መብቶች
ርቀት
አንስቶ
አየ
ያንን
ሲኖዶ
ቴዎ
መስሪያ
መድኃ
##በውን
##ጠንቀ
##ህፈት
##ፁም
##ዳዩ
የተቀመ
01
የሩ
ኩባንያዎች
vo
##ግን
ነች
##ቤን
የፓርቲ
##ዲን
ማብራሪያ
##ዲና
##ቃሽ
##ንሰ
ዘው
ደሳለኝ
##ዝን
ከሃ
አምባሳደር
ህጋዊ
ህወሓት
ስና
የሚችለው
እየሰራ
አርቲ
ምእ
መጽሐ
##ገልግሎት
ብዙዎች
አስፈጻሚ
ጥንቃቄ
ዘረ
ኤጀንሲ
ወንድም
የተሰማ
ባደረካቸው
##ዋሪ
ጥራት
ተደ
##ያም
እነሆ
##ስበው
##ገደሉ
in
አሰልጣኝ
ምስክር
ያልሆነ
ድንጋ
##ጥፍ
##ኖስ
##ለማችን
ያነሳ
የተመረ
##ጫው
ዜናዊ
##ቡቲ
ምሽት
##ራቴ
እየተደረገ
##ቋረጥ
ለማሻሻል
am
እንዳሉ
ዓመቱ
በየት
በዘር
ከሁሉም
ሚዛ
የቢ
ላለፉት
ካሉ
ብርሃኑ
የፀጥታ
##ዋለን
የመሬት
እንዳልሆነ
ብቸኛው
ለሙ
ቪዲዮ
##ቤል
አባቶች
##ወስድ
ጠቁመዋል
##ቸውም
በውስ
የኢትዮ
የተገኘ
ለቀ
##ጋጥ
##መለከቱ
##ፈናቀ
ህወ
ሳይንስ
ከውጭ
ስጋ
ማታ
የሚደረግ
##ረጋገጠ
መጠበቅ
##ገዝ
re
ደራሲ
ሰላምን
##ቀሰ
በአገር
ኢሳ
ሰራተኞች
##ፈፀም
ስርአት
ያኔ
##አዴን
ባሉ
##ያቸውን
ሀላፊ
ወሰ
ደርሶ
ያደረጉ
የኑ
##ion
ጊዜያት
ችሎታ
##ስክ
##ግዚአብሄር
ያደረ
##ዎቻቸው
##ጠራው
አለቃ
ጥን
ወረርሽኝ
ተጫዋቾች
አጭር
ገዥ
ስለነበር
ኪዳን
አቤቱ
ያለመ
##ዊነት
##በዛ
##ዘም
##ሞችን
በሚገኘው
ሰባ
ቀለም
ጥም
##ተኞችን
ስሙ
##ዟል
በመፍ
##ገዳ
በምድር
ቋሚ
አካሄድ
##ራማ
ይሻ
ግልፅ
##ድድር
የሰማ
##ጉር
ወይዘ
በጠ
ስልክ
የፕሮ
##ረክ
05
አውሮፕላን
##ገናኝ
##ካች
ተው
##ባኤ
አደገኛ
አውሮፓ
##et
##ቅን
በመንግስት
ቁጥ
##ሬዳዋ
ክለብ
##ናግ
##በለ
##ደቀ
ወልደ
በነበረው
ይቀጥ
አሰፋ
የቀድሞው
መፍጠር
ምሁራን
ቀዳሚ
በፊ
እዚያ
31
##ችሉም
ማእ
ስለም
እንዳሉት
##ብህ
ግር
በሰጡት
##ሙና
ወንዝ
የተባሉ
ጸሐ
ወዳጅ
ከኤ
ዝግጅ
ይተ
##ስተኛው
##ልት
##ራች
ብሎም
ከሆኑ
ዴሞክራሲ
##ፃፀ
##ነዋል
መወ
ሥልጣ
##ጃቸው
ልና
የቁ
##ብቻ
ልብስ
ክቡር
ቅሬታ
ኦርቶዶክስ
አጣ
አስቀድሞ
##ደገፍ
##ለማርያም
ዘላቂ
ግጥ
##ጣኝ
እል
አደራ
መምህር
ላይም
##ኒኬሽን
አዲ
##ረጋጋ
ግብፅ
ያመለክ
##ነካ
##ጆቹ
##ፍረት
ሀሳ
##ንድር
ምዕራፍ
አሰራር
ክህ
በቴ
ሐሳ
ባላ
በተለያየ
የለውጥ
##ምረው
##ታወስ
ለታ
##ንቀሳቀሱ
የጽ
አጠቃ
ምኞ
ተፅዕኖ
ሺሕ
##ዳሉ
በኮሮና
##ማለን
የሚያሳይ
ድንቅ
በሰሜን
ታህሳስ
አብርሃ
የሚሰጥ
ትዝ
ብሩ
አሕ
የሚሸ
አኳ
ድርጅቱ
እሱን
##ሀል
ተመር
ክለቦች
በፖለቲካ
የሚፈልጉ
በመን
ሁሌም
##ሻሻያ
ትራምፕ
ኦነግ
የሁለ
ወገኖ
ያሳያል
##ደባባይ
መሰረታዊ
ትብብር
##ባችሁ
የባህር
##ረከ
ግዙ
##ሰራው
አሳስ
ቀጠሮ
ሳን
በዳ
##ፈሩ
##60
##ዛቸው
አባይ
ኢትዮጵያዊያን
የህክምና
መገ
በመንፈ
##ኒቨርሲቲ
ወዲያው
ለመፍጠር
በስፋት
ድሮ
የተጋ
##ዮቹ
አይመስለኝም
ለማን
##ሄደ
##ቃን
##ፋው
የሥነ
ችሎት
ተች
ለህዝብ
ተያይዞ
03
ሁልጊዜ
ያስረዳ
##ኑም
##ሪስ
##ኔራል
ተደርጓል
ከዘ
##ምባሲ
ይናገ
የሚያደርግ
##ዥም
ለሌሎች
ቅዱሳን
የራሱን
##ፈጽ
ኮርፖ
##ቆት
በቅርብ
አደረ
##ጋሉ
እሷ
##ስራቅ
በመላው
ተክ
##ber
ዳንኤል
ለመሆኑ
##መሰግና
ደንብ
በእነዚህ
ገፅ
##ዞች
በአብዛኛው
ዳግም
##ረጡ
##ኖርም
ይናገራል
ተግባራት
በኢን
ቀና
ውነ
##ደዋል
##ባን
ምልክ
በመካ
ይረዳ
በርስ
##ዴት
የድን
##ጋው
##ወረ
ከክ
ደካ
##ራጭ
##ቀበል
##ገነዘ
ግብረ
ድንጋይ
ኢኮኖሚያዊ
መፈ
##ብስ
ምስጋና
##መልስ
##መዝ
ሪፖርተር
##ዝቃዜ
##ላለህ
##ጥቅ
ኮሌ
ሰብሳቢ
##ኖሪያ
##ካሄዱ
ማኅበር
##ፍል
ለሁሉም
##ሪዝም
ቀረ
በሀገሪቱ
አታው
##ቀና
እመ
##ሬሽኑ
##ትንና
የአካባቢ
በመሆናቸው
በየጊዜው
ሳምን
##ለታል
##un
ከመስ
እሁድ
ረቂቅ
ቶሎ
##ሰና
የሃይማኖት
##ቃቂ
ማረጋገ
ሠራዊት
##በያ
የፍቅር
አንደኛው
ለል
እርግጥ
አዳራሽ
##ነብ
##ነርሱ
##ሟላ
ከየት
በቡ
እንደምን
##ግነት
##ናቱ
እንደሚሆን
የሚያደር
ወጥቶ
##ከታተል
አረጋግ
##ገቡት
አፋ
ምጣ
##መናን
የአፍሪቃ
##ቆይ
##ሳቁ
አብዛኞቹ
ስርጭት
የሙዚቃ
አቀፉ
##ከሰት
በከ
##ad
ሚስት
አብረው
ሚንስትር
ማዳ
ይኸው
ሳለ
##ዎስ
ፍልስ
ሰዉ
የአቶ
ይሉ
ፖለቲከኞች
ነግ
ጠባቂ
##ዘዋ
ታደሰ
ጀመር
##ሁዳ
##ጨረታ
ችግሩን
በሥራ
አስር
ወድ
ተከላ
##ንቀሳቀስ
እንዲሆኑ
አስኪያጅ
##ቃለሁ
በደል
መጠየቅ
ማይ
ከተለያዩ
አለመሆኑ
ስጦታ
vote
199
እየሆነ
##ገኙበት
ስኬ
ተከታታይ
##ቲቪ
ከ19
አምላ
አጋማሽ
##ብሩ
በማህ
08
ፍጹም
##ክሩ
##ጃም
አሳይ
በየአ
ገንዘ
ግፍ
ቅዝቃዜ
በምርጫ
ይፈል
##ያጭ
የጨ
መሄድ
##40
ፋይ
የደም
##ወሩ
ይሰጣል
##ግሪ
##ድል
##ሺህ
ቀስ
##ፋሪ
##ቆስ
እኛን
##ጦርነት
በሚለው
የሊ
ተቋማ
##ገባቸው
መከላከል
##ርኩ
ሰጥቶ
አከ
ወይዘሮ
ውድድ
##ዊው
##ያሜ
ከቤተ
ጣልቃ
##ድስት
ነጻነት
ጎዳና
ሳቢያ
##ፓን
እንግሊዝ
##ረናል
ጥልቅ
ተወላጆች
የብዙ
##በረሰቡ
ለግ
የሀገሪቱ
በነበረ
##ቫይረስ
ተናግሯል
##ፍር
ኦሮሚያ
በ3
##ታለች
በእግዚአብሔር
የሚች
ከሶ
አያሌ
##ፈጸሙ
##ረጠ
ለዘላለም
ጠቅላላ
##ገላ
ቁጭ
##ቀኑ
ነገሩ
ተመልክ
በኃላ
አቅርቦት
ተገን
በኋላም
##ናችን
ደረሰ
##ካሪዎች
አላው
##ዚያው
##ፈለገው
አንቺ
##የሩሳሌ
02
አረጋ
መሥራት
ቴዎድሮስ
##ፈቱ
##ሬው
በቀር
##ol
የች
ርእ
የንስ
##ሚዎች
መረዳት
##ምፒዮ
ተሞክ
##ታና
##ጋዮች
ባለበት
07
ግቢ
##ገለፁ
መስፍን
ሃብት
መወሰ
ጥበ
ሕጋዊ
##ልምና
##በሪያ
ካም
ክን
አይገባም
እንደነበረ
##ንሰር
ፈጽሞ
የጠቅላይ
##ምቤ
መውሰድ
##በን
በእጅጉ
እያሳ
በሆኑ
##ድዋ
##ሰረ
ባልተ
በመንግሥት
##ቻይና
ፊል
እንዳት
ህወሃት
##ቀጥለው
ስለማይ
ተሽከር
አንዱን
አነጋ
##ገዱ
##ፌዴ
አእምሮ
የስፖርት
ለቅ
ከበደ
ይኖራል
##ጻናት
##ድሶ
በሰማ
እሳ
##ቲን
##ሶችን
ሥላሴ
ሰጪ
2015
ሚካኤል
አገሪቱ
ምናምን
የከፋ
##ባቸውም
##ብጥ
06
##ዛል
ክርክር
##ገልገል
መንደር
##ውንት
የቆየ
ተጽዕኖ
##ዕምሮ
ለመስራት
ወደሚ
የተጣ
##ተህ
##ሪታ
##ሞክራ
##ፁዕ
በመጨረሻም
##ሳችንን
ነሐሴ
##ንግተን
መስቀል
የአባ
##ገሉ
##ነገሩ
የፈጠ
##ወዳ
የሚገኙት
##il
ይሆና
##ላቁ
ይገልጻ
ፓትርያ
ተወስ
ማጥፋት
ረጅም
በራስ
2007
##ማመን
##ቫይረሱ
##ራቴጂ
ህዝብን
##ገመ
##ቋንቋ
መሐመድ
ይጨ
ht
##ሰለ
መገለጫ
የተዋ
የሚሰጠው
በትምህርት
ለሁለት
የፕሬ
የባህል
መግባት
ለ1
##ደራጀ
እየጨመረ
ኧረ
ልታ
አሠራር
የሰጡት
ጴጥሮ
ዲሞክራሲ
##በጥ
በማንኛውም
##ደይ
##ለወጥ
ሳይቀር
እሱም
በቀን
ባለስልጣን
##ዴሞክራሲ
ይፈልጋል
መግቢያ
##ኮት
##ምፒክ
##ደባ
በአለም
##ፅግና
ሃያ
##ኩስ
ውይይ
##ማው
የሚገር
ይጠብ
እውቅና
አምባገነ
##መናዊ
##ወቀ
2006
በሕግ
##አቸው
ኤም
ደጋፊዎች
ይመልከቱ
የግን
የጭ
ምዕ
##ሬድ
ብቻውን
ህዳር
ገደማ
ያጋ
ያለም
ማዕከላዊ
በፍቅር
ባስ
የሴቶች
የቻይና
ፈጣን
ዝቅተኛ
##ወግ
ይዘት
አብዱ
መደረጉ
እውን
##ክህ
##ሪያው
አደረጃ
##ነራል
ኅብረት
##ቶቹን
##ውጣ
##ለትን
ጉብኝት
አባባል
በሀገር
##ቆጣጠ
ሰሜን
በብዛት
ባህሪ
የጊዜ
##ገበያ
መለያ
04
ዩናይትድ
##ጾች
##ate
##ሻንጉ
ሰብዓዊ
##ገኘውን
##ፎካ
የሆ
በድጋሚ
##ሜት
##ጓዴ
ማሻሻያ
ያደ
##ጎዳ
የንስሐ
##ርጎ
##ታደር
##ሰሙ
የሚገባው
ችሏል
##ኖቹ
በአል
ያለን
##ያስፖ
##ሕፈት
ምቹ
የመጡ
መስክ
ሆን
##ርጋቸው
በቅድ
##ዛኝ
##ኮል
ይኖርበታል
##ክታር
መሆኑንም
አንዴ
##ገለጸው
ከጊዜ
በመጥ
በፀ
ስምም
##በዝ
##ራቱ
የሴ
##ሙስ
ችግሮችን
##ent
ፓርላማ
ፍለጋ
አንብ
ባህላዊ
አዋጁ
እስራኤል
በግብ
የራሱ
ምድ
ዳኛ
እንግዳ
እውነታ
##ch
ብርቱ
ንጹ
መመለስ
##ላለን
##ቪል
##ሰብሰብ
የተወለ
የተናገሩት
የክልል
##ምሳ
ለካ
##ላቻ
##ce
እርሱም
##ዉም
ተፈና
##ቆሙ
##ደዱ
የተወሰነ
##ጠሉ
##ኔል
ከዋ
##ረንጓዴ
ከገ
##ሜዳ
##ክን
##ጻፈ
ታጣ
ለማስተ
##ኝት
you
መንስ
የኤሌክትሪክ
ባደረጉት
ከፊ
እየተካሄደ
የተሰኘ
ለእኔ
ተሳታፊ
መረጃዎችን
ነጥቦች
##ለላ
የህወሓት
ሳት
ታላቁ
ሴራ
መንግስታዊ
ክትትል
ሰማይ
##መናት
##ሴፍ
በሲ
ቆይቷል
##ሮን
በ199
ሰኞ
ኢሕአዴግ
##ስታን
##ተርኔት
ሆነዋል
##ያዎች
ad
በሊ
ማሰ
##ደደ
##ሎን
በአጭር
የኪ
ፍራን
ሸዋ
በርግጥ
ሕዝባዊ
ይደረጋል
##ሸጥ
ለብዙ
አርባ
##ቲክስ
የመረጃ
የስነ
##ከፋፈል
የአስቸኳይ
ለማረጋገጥ
ተም
ይሆናሉ
ተነሳ
##ደርጉት
መስጠ
##ሰማው
የተፈጠረ
በህዝብ
መድሃ
ታማ
##ሞቱ
ኮሚሽ
ሲኖዶስ
አሳሳቢ
አስፈፃሚ
የኃይል
ሲታ
##ጥል
ምህረት
የመጣው
የእስ
አደሮች
ብሄረ
##በተ
ከወጣ
በባህር
##ዘዝ
አገኘ
አምና
ይጠበቅ
##ቆር
##ድኑ
ካስ
የግብርና
##ፍረስ
##ሕር
##ገበው
##ዓመቱ
ምኒልክ
ለሰው
##መኝ
##ጽና
መጻሕፍት
የ2
##ደቅ
##ላይታ
##ሜሽን
ብራ
እየተባለ
##ዋይ
ለመያዝ
ተካ
##ፋስ
የማኅ
ፋሲ
መመር
##ገጥ
##ሸጋ
##ራትን
መያዝ
ባልደረ
ደካማ
ክልላዊ
ባሉት
የተደረገው
##ላለሁ
ማረጋገጫ
ሲነ
ሌሎችን
ይስ
##ታወቂያ
ሀገሮች
ብቅ
##ከበረ
የሚኖር
መቀመ
ልዑ
ሰበር
ሽን
st
ነጭ
የሚታይ
##ዳቸውን
መብራት
በዲ
ሕክምና
በጸ
ወላጆች
ተነግ
ብቸኛ
##ክቱ
አልበ
##ኒስት
500
ኢንጂ
##ዴን
እየቀ
የተወሰኑ
ናይ
አብዛኛው
ሰን
##ናትና
##ጠናቀቀ
በህግ
በመጠ
አዎን
##ክብ
ያወጣ
ከሰው
ቤተሰቦ
##ጻሜ
##ደመ
ለመመለስ
አገራዊ
በሚያስ
ለመናገር
##ዊያን
ቢሊ
የአካባቢው
##ንባታ
አንዳንዴ
##ተረ
##መጣው
ተራራ
በህገ
በቀዳሚ
##ለውም
ይል
ትስ
አላውቅም
አልቻለም
በዋናነት
እንደሚችሉ
##እኖ
እንድታ
በራሳቸው
##ዛሪ
##ገዙ
ዘይት
##ክኒክ
35
##ጠፉ
ካድ
##ቆጠ
ለቤተ
የተጀመረው
##ሊዝም
##ub
##ሰባሰብ
##ርተው
የተሰጠ
የቴሌ
##ፈፀመ
ይህንኑ
##ጠንቀቂያ
##ኳን
አሉት
##ዳንቱ
የሻ
ከኮ
ድረ
በአገራችን
አታውቅም
##ወትር
የተለያየ
አድርገን
##ጢር
##ገናኙ
##ፍጨ
##ጅነት
በእኛ
የሚያደርገው
ምሥክሮች
ገደብ
አንዷ
ተሻ
ለመረዳት
ሰጥተዋል
##ኪም
ሰበብ
እንደገለጹት
##ሉና
የአካል
በሕይወት
##ዑዲ
ግዛ
ፈጥ
ይመጣል
ስላለ
ለገ
እርግጠኛ
ድብ
##ብሊክ
ጳጳሳት
የገቢ
ይቀጥላል
##ስተካከል
##ዕል
##ብቶ
አደር
የሰብአዊ
በዝ
ባለሥልጣናት
ፈንታ
ኦባ
እንዲያስ
##ጎት
ደርሷል
ከሳ
የዞ
ቀርቦ
ተሟ
ስብስብ
ያቀ
ለጋ
##ንደቅ
ማብ
ማቆ
##ሪፖር
ተጨዋ
##ረቡ
##ጨምር
##ባው
አቻ
ኤር
ተከሳ
##ያተ
##ሌን
##ጠየቁ
ስለማ
##ይዝ
##ድግ
አማካይነት
ቆር
እንደሚገኝ
ማቴ
##ላጭ
##ዶነት
ግዙፍ
##የቱ
ተሞክሮ
##ምድ
##ወቁ
የበረ
##ጓዙ
ጊዜም
##ግራቸው
ተገለጸ
##ደለ
በተቃራኒ
ቆሻሻ
በሁለቱ
እግዚአብሔርን
ስያሜ
ለፍርድ
ጀግ
ይአ
ተሰም
አለች
ትርፍ
ፕሮጀክቶች
##ርጋ
ዘርፎች
በየዓመቱ
ቅርንጫ
አድና
ሽፋን
መዋቅር
##በሻ
የተለመደ
##ቸት
ጆሮ
##የሩሳሌም
##us
##መስል
በእን
##ፈርት
የተዘጋጀ
32
እንድና
ቁም
ተችሏል
የውስጥ
##ባበል
ሰውን
አሸን
ወንጌል
##ላለች
##ከናወኑ
የሱ
በመር
##ኾን
##ጨው
ዝርያ
##ክክር
##ባሉት
ይልቁ
መስተዳድር
በታሪክ
##ደናቂ
ባለሀብ
በትን
በአንዳንድ
##ምቤላ
ለጎ
የዐ
##ሟላት
ያመ
##ወች
ቤቱን
##ኝን
ክስተት
##80
##መለከታቸው
##tp
የእው
##ሻንጉል
ጃዋር
ስለዚህም
ታዳጊ
ስትራቴጂ
##ስፋፋ
መያ
##ምብ
##ጽግና
##ጣሪዎች
##መኔ
እስክንድር
መገደ
በሚገኙ
ምርቶች
##ኳስ
##ቆጠር
ጅማ
##ረደ
ተናገሩ
##ደሩ
ህብረተሰቡ
ድራማ
votes
##ፎርሜሽን
ለማቅረብ
ተበ
ማረፊያ
ምነው
##ለታ
##ረሳ
ግማሽ
ሰውዬ
አስደ
##ዝገባ
ንቅ
##ህዴድ
መውጣት
ትእዛዝ
##ታች
ተጫዋች
ያልሆኑ
የወንጀል
ንፁ
##ያዘው
የላቀ
##ንዱ
የእስራኤል
ያመለክታል
ከምን
የቅዱስ
ፍቅ
##ጻነት
ለሕዝብ
እንዲሰ
ቁሳቁ
##ላለፉ
##ማም
ሥፍራ
የሚደረገው
በጀርመን
ሳል
##ጋዬ
ዛፍ
##ጲያ
የያዙ
ጊዜው
በሕገ
ለበ
እያንዳን
##ከብር
ይሄንን
ሲመጣ
##ኛውንም
ሆነን
##ወል
በቀጣ
ማሳያ
ዲፕሎማ
##ማች
በእኔ
ፍጥነት
##ዉያን
ኢትዮጵያዊነት
ክፍት
ወንድሞ
የአር
የራስ
መንግሥታዊ
##ቿን
አስቀም
የተመሰረተ
በሕዝብ
ሰፈር
ቀል
ተለይ
ይጀም
ጭንቅ
##ሬም
##ነቃ
##ረና
መሥሪያ
በየቀኑ
አኳያ
##ልልስ
##ቅቋል
##ሰበው
ኃላፊዎች
ኢሳት
ይደ
##ቶቻቸው
ይመስል
የሌላቸው
##ሰኞ
ጠቀ
የቤተሰብ
##ጨዋታ
##ለሙ
የተያዙ
##ቆና
የተሰጠው
ወረቀት
##ብነት
ሰብአዊ
እፈልጋ
በሀገራችን
##ረቤት
ቆን
ርበነ
##ከለኛ
##ድሎ
ራስን
ጀርባ
ዘይ
ትውል
የማዕ
ዘግቧል
##ላለፈ
መቀበል
##ላውያን
በአስ
##ማችን
እናው
##ሀን
አሳዛኝ
##ፎችን
የተቋቋ
ፕላ
##ቡና
የተቃውሞ
ይጠቀ
የስልጣን
እንዲቀ
##ተዉ
ጴጥሮስ
##ምየር
##ራችሁ
##ራፊክ
##ደራጀት
ኢሳያስ
ብዙሃን
ተዘጋጅ
##ቀውን
መምሪያ
በሩ
መሆኗ
ኤምባሲ
መሀል
##ቢው
##ዕኮ
ቦር
ያገ
ምናልባትም
መቁ
የላቸውም
ፈረንሳይ
##ግሬ
##ገናል
##id
##ወሰድ
እነርሱም
##ig
##ንዶች
##ዝነስ
##ኔን
ጠበቃ
ጋራ
ስትል
ቀጣይ
##ኩኝ
ሰይጣን
ናቸዉ
##ኩበት
በሆ
##ተም
##ሲብ
በተደረገው
ደጋግ
የእርስዎ
##ቢያው
የኩ
አንዳንዶቹ
ሰላምና
አመልክተዋል
ነዳጅ
ውብ
ኮሮና
ስልት
ጠዋት
ተሰጥ
መሃ
የትም
33
##ንዴ
##ዝግብ
ከየ
ትግሬ
##ጠባ
##ጀራ
##ያዝያ
##ሄራዊ
##ከናው
ተልእ
በእስር
ውጤቶች
ተጨባጭ
##ለር
ወኪ
እንዳለባቸው
##ጋች
ከፈ
በአንድነት
የሚወስ
##ሷን
መዝሙር
ሐዋርያ
##ወሰደ
በስራ
የሚሰራ
አቅርበዋል
በጊዜ
አላስ
እስረኞች
2005
ኃጢአተኛ
የብር
##ሳይንስ
##ዋላ
መቅረ
ሚያ
ከመቶ
70
##ድስ
##ቨር
አያውቅም
የተለ
##ቀርበውን
የቅርብ
የእንግሊዝ
ለመቆጣጠር
በመም
the
ስብከት
የሚበ
ጨዋታው
ፈቃደኛ
ያዘ
ህልውና
##ro
በኤርትራ
ሰለሞን
ተሾ
የማያው
ምሕ
መቻ
ከር
ያለባቸው
የሱዳን
በማቅረብ
ካህ
ውስጥም
##ደተኞች
##ወት
##ንግል
አስቆ
በኩ
ሊኖር
በግልፅ
አንዳንዶች
ልቦና
መስዋዕ
##70
የማድረግ
ትራንስፖርት
##ንጎ
ራዕ
##ቆብ
##ኮር
አይችሉም
http
##ታቸዉ
ባሳ
##ge
በባለ
መርህ
##ክም
ለባ
መጽሔ
ይጠይቃል
ትላንት
ዲሞክራሲያዊ
ሩጫ
አንዳርጋቸው
##ክበር
የሠራ
##ለለ
##የውን
##ቅል
በአውሮፓ
አስቸኳይ
##as
የና
ወግ
ተዘግ
አገራችን
ዜጎችን
po
በሉ
##ጠበቁ
የፍርድ
##ጣሬ
ህዝቡን
በምዕራብ
አሊ
##ራፍ
በማስተ
ያለምንም
##ላፊነት
##ኖሩት
በሚመለከት
ታዛ
መቀመጫ
ቅድስት
ደህና
##መልከ
በመግለ
በጣ
ቅርብ
##ቶችህ
ለማንኛውም
##ኅንነት
መዝገብ
##ቀበሉ
ሲታይ
አቆጣጠር
##ልተኛ
የነዳጅ
##ct
የሚዘ
እንደሌለ
##ረቃ
ሰማያዊ
በመግ
##ነሳት
ሃይሎች
የሚሆኑት
የመገናኛ
ካፒ
ማኅበራዊ
በሞት
##ጄሪያ
ነፍስህ
##ፍስ
አሕመድ
እንዳላቸው
ሀገራዊ
ጥንካ
##ንተን
ባለሥልጣን
1ኛ
ሂደ
ደስተኛ
የቤ
አቅራቢ
ጽሁፍ
ማኅበረሰብ
ሄደ
ቤታቸው
ሙሴ
ተነስቶ
ብፁዕ
ጫማ
##ዉሮ
የተሸ
የባዶነት
##ካዊ
አንድን
የዋጋ
መንገዱ
መስሎ
##ናገድ
ንድ
##ሞኑ
##ውደ
##ፎቶ
አቤቱታ
ሰጥቷል
##ለመደው
ባለስልጣ
ለጊዜው
##ጻፍ
##ላሳ
##ሽነት
ፌዴሬሽን
እራሱ
ያድርጉ
በቢ
##ፍታ
የተቃዋሚ
እይታ
##ማማኝ
##ፈጸመው
ከነዚህ
ባዶ
እሰ
ግጥም
##ዲራ
ለን
ሥልጠና
##ልበ
ህፃ
##ቡዕ
ኢንስ
ዓለማ
##ዝቡን
መቀጠል
##ሃዊ
##ውንና
ጨረታ
ሊሆኑ
ማሕ
##ነቀ
ተልእኮ
አፈጻጸ
በተካሄደው
##ኃን
እንዲኖር
አማካሪ
ዲግሪ
##ገኝም
ጄኔራል
እፈልጋለሁ
##ምንቱ
አስተዳዳሪ
ገዝ
በልዩ
ጠቀሜ
ተልዕኮ
ማረጋገጥ
አስተባባሪ
ጽሕፈት
አውቶ
##ልአ
ተሰብ
ሄዶ
እቅ
የሽብር
ለእኛ
የተሞላ
በሆነው
ከቆ
እነሱም
ምስራቅ
በተለየ
በእርሱ
ኩኪ
እንጠቀ
##መች
ተፈጥ
ከጠ
እነሱን
##ግባባት
ገብተው
##ናዳ
ዲያ
ለመቀነስ
የመንግሥ
ኃጢአት
በመሰ
የኢየሱስ
via
ከግብ
##ልቶ
##ከሰቱ
##ወጣት
ለመገንባት
በአማርኛ
ሰጠ
ኮሎ
##በጣ
##ይም
##መታ
ኮሪያ
አስተዋፅ
የገለጹት
አውሮፕላ
መርሃ
የተሻ
በእንግሊዝ
እንደተናገሩት
##ጦት
የጀመረው
ይጠቅ
##ነሱት
##ረምት
ይገኙ
ከሞ
አብዮት
ሲቀ
##ወርቅ
እንጠቀማለን
ተወል
##መለሰ
##ገራችንን
##ፊቱ
##ጠቀስ
እሳቸው
የኅ
ከእኛ
ፍልስፍና
##ሊያም
##el
ምስል
##ይቅ
##ቻችሁ
የሕይወት
የውድድር
ለመንግ
ሃብ
ያላት
ኤሌክትሪክ
ምድብ
አቅርቦ
ዳግ
##ጠም
ከዓለም
##ዘኛ
የሰጠው
ሌላውን
በመታ
ታግ
ተአ
ጨር
ተከታዮች
የኑሮ
በቤ
##ላትና
ስለሌ
ትስስር
##ራረብ
አብረን
ምንዛሪ
##ልናል
የእን
##ቐለ
አድርጋ
ምዕራብ
##ቆየት
ተቆጣ
በተሰ
አልቀረ
ወጣቱ
ኣይ
80
##ጎብ
ውሎ
##ጭበር
ዝናብ
አስደናቂ
ኃይሉ
ጀመሩ
ከዓ
34
##ምቦ
ሚስ
በዝር
ድንጋጌ
##ብሰባ
ለማምጣት
##ከናወነ
መምጣ
##ሰናል
በነገራችን
##ማስ
##ዲየም
ሼር
##ራዊቱ
ሌሎቹ
##ነኛው
ዲሲ
ይህንንም
ለአዲስ
መልእክ
የሚደርስ
ሳምንታት
የአይ
አልጋ
##ናሽናል
##ክረው
መገኘ
የገበያ
##ምራ
ተክለ
ከቅርብ
ለማሳደግ
##መስረት
ለሙሉ
ethiopian
##ገለፁት
መጥቶ
በአስቸኳይ
ሰለባ
ራሳቸው
ቀሪ
ዕርምጃ
ያግ
ህፃናት
ለክ
መጀመ
ጉልበት
##ሕዶ
በተደረገ
ማክሰኞ
በሰላማዊ
##ሪያም
##ዋንዳ
አትሌት
45
ለማጥፋት
እስራኤ
መምህራን
ፍጻሜ
በመግለጽ
የሁለቱ
አስተዳደ
የተመዘ
አፈር
መግባባት
##መኛ
በእርግ
##ልታ
የምርመራ
ተጠርጣሪ
የትግል
##ኦል
##ዊተር
ኮሌጅ
አቃ
ቅዱስን
በዚያው
አፄ
##ክፈል
ለፊት
የሁሉም
አለመሆኑን
##ምኛ
##ገግ
የሚያሰ
መሃል
ባወጣው
##ርጅ
ለረጅም
##ካቤ
ከባለ
ለመጠበቅ
ከመን
ከጥቂት
ተደረገ
ጥቂ
መማር
ማስጠንቀቂያ
የ201
##ተኩ
ክፍተት
##ገኙም
##ወሰዱ
##ከለኛው
ተጠናቅቋል
ይሞ
ሀገራችን
ለጉ
የደህንነት
የአንድነት
##ከታተሉ
##ጥና
##ሽንግተን
ተፋ
የሰጠ
ሚያዝያ
##ናልድ
ያነ
የሰሜን
ይወስ
##ውውር
ዘጠና
ባንኮች
##ing
ሽልማ
እግዚአብሄር
የሰራ
##ገናኘ
ጠበ
አጥብ
##ጋጭ
መኖሩን
ንጉስ
አውጥ
በሜ
ካርታ
##ደቡ
##ነቴ
እራሱን
##ፈራው
ለዓለም
##ያስፖራ
የሚለ
አገልግሎታችንን
##ምስ
##ዲሁ
##ንጻ
የዩናይትድ
ከረ
##ራትና
amhar
ለሃ
አዳማ
##ቦታው
##ቀርባል
##ፋዊ
##ባለሁ
ታላላቅ
ወታደር
##ዳችን
ከሥ
የሚገኘውን
እናቶች
በች
ውሸት
ነበረች
##ዳይ
##ረጋግጥ
##ኮም
ሀገሪቱ
##ትሮ
የህዳሴ
ይው
##ነተኛ
ብታ
የሮ
##ጭሩ
##ባበሩት
ሙስሊም
አስመ
##ታደግ
ለዓ
ጸሎት
የለኝም
##ራስ
ወረዳዎች
ስላለው
የመሳሰሉ
እያደረጉ
ባንድ
ጭማሪ
ጽህፈት
##ዕና
በጅ
ይጠ
በህይወት
መልዕክ
በአማ
እርሻ
በሂ
ፈጠራ
##ድርሻ
በገንዘብ
##ሙም
##ተውን
##ነቁ
##ኤአ
ቴሌቪዥን
ለርስዎ
##ልቀት
##18
##ዕቆብ
መልካ
ጥንታዊ
ቢል
የራሳቸውን
የተላ
የጋዜ
የምክር
ኩኪዎችን
ሻምፒዮ
ኮከብ
##ጣቸውን
ከመሆኑም
2ኛ
ጠይቀዋል
ሀያ
ገበሬ
ግብጽ
ያውቃል
ይነገ
መንስኤ
የተሰራ
የፋይናንስ
ስኬት
የድም
##ራቾች
##30
ትም
በአደባባይ
ልጃ
##ክርስቲያ
የሚመራው
የግብፅ
ተቃዋሚዎች
##ወዝ
ከ4
##ቾችን
##ንስትራክ
ለየት
##ገለግል
ደቀ
ለማሳየት
##ውልት
ለመቀበል
ተገቢውን
መባ
የህይወት
አጠቃቀም
ወሎ
በነፃ
##ግሮ
የምናቀርበውን
##ጫወቱ
ቀኝ
በማኅ
አብያተ
ተሰጥቶ
##ችሁት
ፍል
##ሳራ
ከነበረው
እንዲታ
የሌላ
ክብረ
በተሻለ
ለመር
ማነው
ሊቃነ
ከቅ
አይኖርም
በመደ
##ጣዊ
ፈረን
ፈታ
ተወዳዳሪ
በጎንደር
የቅድ
##ካር
ያደርጋሉ
ጉዳዮችን
##ቷቸው
##ፈልገውን
##ሶን
ጊዜያዊ
ድንገት
##ዎታል
የሚሰሩ
አብዲ
ኮሚቴው
በበኩሉ
መመልከት
ይደር
##ቀመጡ
መሥዋዕ
##ለጠነ
##ችና
ማስተካ
አብዛኛ
ካርድ
ብዙዎቹ
ትንታ
የሚታየው
##ኳቸው
አብርሃም
እየተሰራ
ማግኘ
##በሉ
##ነሳው
ልጁ
##ዓን
ከ200
##ረጉ
አሸባሪ
##ዮኖች
ተስማም
እብ
የሞት
ሌሊት
ይበልጣ
የጨረታ
የተዘ
አለማየሁ
ሠራተኛ
እንዳልተ
አትሌቶች
##ጀርባ
ለመኖር
##ያያ
አርቲስት
ግፊት
በጉዳዩ
የሚኖረው
ለመተ
አሜን
ተጎ
##ገሬ
በፍጹም
ሳሙ
##ታለሁ
##ዳምጡ
ጓደኞ
##ነሽ
የፖሊስ
##ንቀት
መቀሌ
##ጠቀሙበት
ሥራው
##ልቃይት
##ጓጓ
የነገ
በሸ
የዘንድ
ሕብረት
##ወሰኑ
ነጋዴዎች
ከ5
የተገደ
የቀረበው
በየትኛውም
##ንዛ
የአት
##ሠራው
ስህተ
ህብረተሰብ
##ጋለ
##21
ዘመኑ
ማሽ
ስኬታማ
ብረት
የድርጅቱ
##ዘጋጃ
amharic
ተረ
##ጠጥ
##ኤስ
ወረራ
ሲደርስ
ጣቢያዎች
de
ብዙውን
ይሸ
የሚሰማ
አሠ
የአል
ገልጸው
ከማንኛውም
##ሰውን
ልጄ
ለማስወገድ
##ve
በጥሩ
በምር
የመልካም
በመላ
እጃ
ባደረገው
እንቅስቃሴዎች
##ነዉ
መጨረሻው
ጎሳ
ብአዴን
የሚባሉ
የመኖሪያ
##በበ
የዛ
##ጻፈው
ቁስ
##ደረሰው
በሠ
አረብ
##ነበበ
ሕንፃ
ከሰማ
##ፈቀደ
ሰንደቅ
ቤቶችን
ውሰ
##ንስትራክሽን
የአውሮ
በሬ
##ከስ
ማሳየት
ሠር
የህወሃት
ማህበራት
##ለፈ
##ፈጥር
ደመቀ
##ቅለ
ሚስጥ
ቀጣዩ
ሽማግሌዎች
የባቡር
ዘወትር
መንጋ
አያያዝ
ጭፍጨ
አዋቂ
##ለየት
##አይ
##ጠይቁ
ይነገራል
##ዙት
##ጠቀሰው
##ብንም
አባቴ
an
ፍፁም
##ቼን
ማስተማር
##ባይል
በደስታ
ሰዓታት
ባላቸው
ሉቃ
የአስተዳደር
##ጠብቁ
መቆጣጠር
ያጣ
##ብረቱ
ቀጥሏል
መደብ
በተፈጥሮ
##ቀኝ
በወያኔ
ርምጃ
##ቋሚ
ገለጹ
ማምጣት
ኤክስ
##ማቅ
ይኖርባቸዋል
እንዲያገኙ
##ቀጠል
##ኒየም
አንዳች
##29
እርምጃዎች
የሁለት
በዙ
##ርብ
አጋር
አብራር
በዶ
##ፋሉ
ተመስገን
ለሶ
ስፖር
of
በእርስ
##ውሉ
የሚጠበቅ
የሚደ
##ፕላን
የፌዴ
ለዘመናት
ማድ
ተገድ
ተፈራ
የተመሠረተ
ጥንካሬ
በመተባበር
የተባለውን
##ግበር
##ከትል
የእምነት
39
የልብ
##ካው
##ሪነት
አድርጌ
##ከታታይ
##ደረሱ
የጀ
##ሪንግ
ምርጫው
የተገኘው
አንተም
##ገፍ
##ፋፋት
##መራር
ተተ
##በባ
እስከመ
አረቢያ
የታወቀ
የብሔር
አውራ
ሆኜ
##ቀርበው
ብልፅግና
##ካችሁ
36
ሥራውን
ይሻላል
የፀረ
አያሌው
##ገትና
ወሰን
##ባለን
ይወጣ
የመተ
በፋ
ብሔረሰቦች
በጥንቃቄ
ጨለማ
የሚያደርጉት
ተስ
ጎራ
##ተኞቹ
##ስማማ
የትራንስፖርት
##ስትራ
ይገባዋል
ያተኮ
##ሣኤ
የአገልግሎት
በመጽሐፍ
መስማት
የጸጥታ
##መላለ
##ኪን
ስራው
ዘመናት
ከብዙ
##ግለሰብ
##ክተሩ
##ቱንና
##op
##ታወቁት
##ራራ
በመያዝ
በመግባት
##ሰቃ
በዝርዝር
መቀነስ
ስዩም
ከጉ
ዘፈን
መሞከር
ከቤት
ከዕ
በርካ
ያደርገዋል
##ፃፍ
ከእስር
##መንግስት
ቅስ
እኤአ
##ገለጽ
##ሳቱ
ጠር
##am
ቅርጽ
##ፈናቀል
በመቀጠል
ሲገባ
##ጓቸው
##ስትያን
ኢንቨስትመንት
##ዋስ
በስልክ
##ቀሳቀስ
ማንኛውንም
ምክንያቱ
ሕዝብን
አብዛኛውን
##ሳች
ይኖርብናል
ተወላጅ
##ነኝ
የሚገቡ
##ወደ
አክብሮ
ፓርክ
ላል
በመፍጠር
##ቀረቡ
##ጨበ
ኢት
እናስ
ትችላለህ
አደረጉ
አስተማሪ
ይላ
በሺ
የር
አድማስ
የተሳሳተ
##ሰቦችን
ይዞታ
ምልክቶች
ሞክ
በመጀመሪያው
##ul
##ጨዋታው
በኦሮሞ
ግብርና
##ur
የውኃ
የእርሻ
ከእናንተ
የሕክምና
ቱርክ
የኢንዱስትሪ
##ፈርስ
ሚዲያዎች
በመሄድ
##mber
እንዲሰጥ
ከእኔ
የፍትህ
##በኙ
##ቀብ
ምዝገባ
##ላቀል
ኦባማ
##ባቸዉ
##ነጥ
የሙያ
ሚል
##ምረት
##ፆች
ብላችሁ
ወንበር
የመጀመሪያውን
ጥላሁን
አስተማማኝ
ሁኔታው
እንዳይሆን
##ረፍት
##ሚን
አረንጓዴ
##ሮድ
የነበሩትን
ባንዲራ
የወጣው
##ስያ
ውር
የምርምር
##ደላ
እንቅልፍ
የብሔራዊ
ይዛ
##ፈቻ
ናችሁ
ጤናማ
ሞተ
##ረዱት
አቃቤ
##ጠመው
##ላች
እንደቀ
ፖሊሶች
ሰፋ
ሌላኛው
አይታ
ለመግባት
ህዳሴ
ተወካይ
እገዛ
መግዛት
##መጣም
ፕሬዚደንት
##ለደ
የመብት
ጥገና
ማስከበር
ሃላፊነት
ኢንተርናሽናል
ውሀ
##መረጡ
የሆኑትን
እኩ
በእውነት
ምልልስ
በደረሰ
##ናጋ
##ላልቅ
##ሃፍ
የኮሚ
##ter
የባንክ
##ገነቡ
ነገሥ
##ጅምላ
##ዓላዊ
ህንፃ
ያሬድ
ኤርት
አመሰግና
ዜማ
እንዲያደርጉ
አስተዳደሩ
##በቱ
ሲገል
ደርግ
ለይቶ
##ድገት
##ኝና
##ችት
የወርቅ
##ናቸውም
የፈጠራ
ፈለ
##ቀትና
ከእርሱ
##ሊቲ
##ten
አልቀረም
##ካኔ
አሳስበዋል
ያስታው
##ube
##ፈናቀሉ
##ነቶችን
ድክ
##ሚየር
ተባ
መሀመድ
እንባ
ግጭቶች
አምልኮ
ኃይለማርያም
ተጓ
##ነታችንን
##ገናኘት
ሲወ
እንስሳት
ማለፍ
##ፎካካሪ
የበኩ
የመነ
##ሰተኛ
ሃይማኖታዊ
ርዝ
ምግ
ባቡር
የመስመር
አያይ
##ህዶ
የመንገድ
ላለው
ያህ
ዓይነቱ
በጀ
ባሪያ
ይጠቁ
አካባቢው
##ረሰ
ስዊ
##እየ
##ኸው
ተረጋግ
ወንድሞች
##ment
የብል
ውድቅ
መኪ
##ቦር
አሊያም
የአስተ
##ከበ
##ምት
##ምያ
##ጠቀምበት
##ከባበር
ቀድ
##ታለን
##ትመት
##58
ፋይዳ
ውዝግብ
አስከፊ
በሰፊው
##ታቸውም
##ምራል
##ጠቀሱት
##ot
መፅሐ
##መራው
ፍትሕ
ከ20
የጀመረ
ለኔ
ሽግግር
ውድድሮች
ትዕግ
ይልቁንም
##ሪታንያ
ጣሊያን
ፕሪምየር
ትንታኔ
ጫፍ
ሕዝቡን
እማ
ጸሐፊ
##ገለግሉ
በአቶ
ዓመታዊ
ተመራማሪ
እንቁ
ለሌላ
በሁለተኛው
ፊደል
##ሪፖርተር
አይቀ
##ደራጁ
እህት
ዘገባው
ስንል
ለች
##ምኑ
በአምላክ
ለመታ
##ኮራ
የመጀመርያ
አስፈላጊውን
ሠላም
ከእንግ
ጭፍጨፋ
##ገቱ
##ኾነ
ቆንጆ
ከእግዚአብሔር
መላው
ከሙ
የገቡ
ተማሪዎችን
ተወዳጅ
##ዌይ
ፍቃድ
##ከፈል
ዕውቀት
በዚያን
ለደ
አሉታዊ
በጦር
የጌ
ማንበብ
መት
ያየ
##ዙን
ድምፃ
ገጽታ
ቅኝ
##day
ተጠናክሮ
ያገኙ
##ለያይ
##ላሚ
ዕጣ
##ስቲክ
ማሞ
##ዋርያው
##ፍሮ
37
ሕጉ
እጣ
##ፕሬ
ጥረ
##ይቱ
##ልኩ
##ትናን
በመጣ
አስተላል
##ኝታ
##ሏት
እንቅፋት
የክል
ማለቱ
##ap
በጤና
የጠቆ
የተፈጠረው
አበባን
የተያያዘ
ገብር
ተረት
የግንባታ
አክራሪ
ይገኙበታል
መገር
የማስተ
አመልክቷል
##ፌዴሪ
ሦስተኛ
አንበሳ
በእርግጥም
ገዳም
##ላቸዉ
##ራቢያ
አቀባይ
የቆየው
ትርጉ
##ሯዊ
በአካል
በቫይረሱ
መንበር
ማደ
ገድ
ለነገሩ
ደቂቃዎች
የፖሊ
300
ስቃይ
ከማስ
ያዳምጡ
ያክል
##ማሪያ
##ፈጥ
ባለሞ
ነበርኩ
የወጡ
##ጫን
እንደነበሩ
ከኦሮ
##ስቦ
እየሞ
ሰውነት
የጃ
##ሎምፒክ
እንደሚቻል
ማድረጉ
ድህ
##ፋይ
ልውው
##ለችው
አድራጊ
ቁጣ
ተንቀሳ
##ጎል
ከልብ
##ጠበቀው
በምንም
ካሉት
##go
የመኖር
ኤስ
አደረጃጀት
38
ያበ
##ዳድ
በደም
##ታወቅም
መሰለኝ
ታክሲ
##ትናንት
ጉድጓ
ያስች
##ልፉ
አላት
ቱሪዝም
ካላቸው
ውህ
በሚገኝ
##ሽም
ወዳድ
አስተዋፅኦ
ከሞት
##ባልም
ሽያጭ
##ታትን
በለው
መገንባት
በክፉ
##ሑፍ
እንደሚገኙ
##tube
##ዎቻቸውን
መምጣት
የዜና
ኤልያስ
እየታየ
አንተን
ላለመ
ከሐ
መጥተው
ለወደ
##ዱም
ትችላ
በዜ
##ሽታ
ዶር
ሰራተኛ
ረዳት
##ሽቱ
ኮሙ
ውበት
አስታወቁ
ሊታ
ተመልሶ
##ረሻ
##ከተሉ
ስርአ
##ኒው
ተካሂ
##ፈፀሙ
ለሀገር
ኮርፖሬሽን
በጨ
ረቡዕ
##ዳማዊ
ቢስ
##ቀሩ
በሚቀጥለው
ብቃ
ውጊያ
##ቀቁ
ራዕይ
በ4
ዶናልድ
ሬዲዮ
የዉ
የሥልጣን
##ለትም
በአዲሱ
##ሽታው
##ፈላጊ
የሚመጡ
##ወለድ
ቴዲ
ነበረው
የነፃነት
ብና
የጎንደር
በከተማዋ
##ቢኔ
ደግሞም
ስኳር
##ራሹ
ዓይን
አድራሻ
##ተራ
እንደሆነም
##ጫኑ
ልጆችን
ሳሙኤል
እዛ
ይግባ
ማቅረ
##ደጓ
የከፈ
##ገተኛ
የተን
##ነቷ
##ንዲ
ዘረኝነት
##ለቃ
ለመሥራት
በውስጡ
##መዝገብ
##ገነባው
##ጨመር
##ሪፍ
የቀን
እንጀራ
እሺ
##ፋቸውን
በእግር
##ደለው
##ቀቱ
##ጆቻቸው
የሜ
በአካባቢ
ከሚገኙ
ፕሬስ
ቅርስ
ኪራይ
ሌባ
የተባሉት
አንጋ
ሰውየው
##ኒቱ
90
የመንፈ
##ገኛለን
##ኖርበት
##ቸዋለሁ
በየነ
ጠን
##ኗኗ
መጨመር
የመኪና
የድንበር
##ጀመሩት
##መናል
ትራንስ
ዮሴፍ
ar
##ርጦ
እንደውም
##ሳነ
##ቷቸዋል
##ነገረው
መታሰቢያ
ካሜ
የወን
የጅ
ድንግል
የተገኙ
##ሐት
በጋዜ
##ዮስ
ነባ
ከይ
አንባቢ
የህዝ
##ሃሃ
ወንድሜ
##ኙን
##ጠናቀቁ
##ለችም
ተቀብሎ
አውቃለሁ
##mal
በጠቅላይ
ሶማሌ
የመጨረሻው
አጥቂ
ሕፃ
##ዘዘ
ወዳጄ
አደርጋ
በመንፈስ
አሽ
ማጋ
የሽግግር
##ዋና
##ጣራ
ባለሀብቶች
ከድር
ሙስሊሞች
##ለቁ
##ፊል
ችለዋል
##ባቱ
##ቆመ
##ረቅ
ፍጡ
እንዲተ
##eb
ከመንግስት
ድልድ
ተሾመ
የአምላክን
የኬንያ
##ውያንን
ዳቦ
ጨርሶ
##የስ
ይሖዋን
ኃይሌ
እምቢ
##ክሎ
ገለጸ
ኪዳ
ተነግሯል
ንም
የዴሞክራሲ
እንዳን
ይሄው
የተሰኘው
አቀባበል
በዐ
እንክብ
ሒደት
ال
የተነ
##ዚያን
አጽ
የማንነት
ጥሰት
##ሃለሁ
##ንስሳት
አገልግሎቶች
##ማጭ
##ፐር
ፀሐይ
ይነሳ
ባለማ
ነሽ
ጠንቅ
ነብ
የሀገራችን
ቫይረሱ
ሄክታር
የህብረተሰብ
##ወያየት
ከዛሬ
ግሩም
ስራውን
በሙስና
ቆሞ
የኦነግ
##ፈቅ
##ፋቱ
መሰና
የስደተኞች
ምኞት
##ራጌ
ክሊ
የዱ
##ክልት
ንጉሡ
ገለልተኛ
ጽሑፎች
ምሥራቅ
##ጥሎ
##ብና
##ክልና
ባለሥልጣ
ገነት
ከሁሉ
ፈን
##ቶሪ
ቅርንጫፍ
ተረድ
ወዴት
ቋንቋዎች
##ለፉ
ጥያቄው
##ጋፍ
ከአሜሪካ
ህሊና
##ፍያ
ከአገር
አዳም
የጥላቻ
ቀርበው
ማስታወሻ
ብክ
##ቀጣ
ቦታው
ምጣኔ
##ቦቹ
አልቻል
አርበኞች
##ርሃ
##ፈሰ
እንደሆን
በግድ
ተናጋሪ
##ናፍ
##ሶቹ
ዮና
ከዚሁ
ለመጠቀም
##ቂኝ
አፍሮ
ለመግዛት
አሮ
##ink
ያገኛ
ፅሁፍ
ጠቀሜታ
እጥፍ
ለመድረስ
ጥናቶች
በመውሰድ
የትኛው
##ሰልጣ
በፍርድ
እንደዚሁ
##ርስቶስን
##ይተ
ስታዲየም
ሲናገሩ
የመቀ
44
##ቻው
አካላዊ
youtube
##ቢዎች
ይኖራሉ
##ቲያ
ዋነኛው
በቀል
አይመስልም
##ልያ
ይኸውም
ለማጠናከር
ይኖረዋል
##ራለች
##ክርስትና
ተገለፀ
በአዋ
አይን
ተዋሕዶ
የዘረ
የመፍት
##እክት
##ቋር
##ታሙ
##ክለው
አፈፃፀ
##ht
አሥር
ሰሚ
##ቢዩ
አቁ
ጌታችን
የሚቻል
ሙዚ
ጩኸ
ታይቶ
የሙስና
##መለከቱት
ካህናት
ደህን
ማውጣት
ዐብይ
##ዘነጋ
ከታች
ጠፍ
##ኞቹን
ለሁለ
አመሰግናለሁ
##ሮት
##ሁም
##ጤት
በሴቶች
የእግዚአብሔርን
እስኪያ
አሳልፎ
ለማዳ
በመባል
##በልጡ
ውጤቱ
ይዘን
በምስራቅ
##ቹህ
ከሌላው
መዋቅ
አልቻሉም
መጽሔት
##ሩትን
የሌሎች
##rit
የአገሪቱን
በቤት
ያስረዳሉ
##መላ
##ጀው
ሚዛን
ima
##ሮችና
አነ
ጀነራል
##ሣይ
ዘረኛ
የከፍተኛ
እንደሚከተለው
##ፈልጋቸው
se
##ሮድካ
##ልልቅ
##ሩና
የተነሣ
መልአ
##ትናው
##ሌክትሮ
ብዙኃን
የተረ
በማዕ
የእነ
አዛዥ
ፕሬዝደንት
ከንቱ
##ገፋ
ቀጥታ
ተናገረ
ሲሉም
ወጣቶችን
በማህበራዊ
ተንታ
##ባችንን
የወንድ
የጠየ
##ፍለ
የሚያስች
##ዓቱ
ሲተ
ያለዉ
##ከተለ
ጸጋ
አመጣ
ይጀምራል
ዘዴዎች
ጥብቅ
አብረ
መርሐ
ፖለቲከኛ
##ሙዝ
##ስተን
43
የምለው
ገለጻ
##ህአ
እያደገ
##ሐይ
መጠለያ
ማኅበረ
አበራ
##im
##ግርኛ
##ስብስብ
ከተባለ
ቢሆኑ
እጩ
ጠብቆ
በገዛ
የመድ
ከወዲሁ
በነፃነት
በቅድሚያ
ገብተዋል
##ናና
ጋዜጣዊ
ሲሰ
የጥፋት
አዝማ
ሕፃናት
##ሀፍ
ለመቅረ
ካለፈው
ወራ
ሳይሆኑ
መላኩ
##ፈቅድ
ወዲያ
##ፃሜ
ወዲያውኑ
እንስሳ
##ዴይ
የማት
ይፈልጋ
##ጎም
ዲዛ
የውጪ
##ቆማ
##ለቀቁ
##ታየው
ምሁር
የኖረ
ድህነት
አፈጻጸም
መጠጥ
ነክ
አቦ
ፈፅ
ጋብቻ
##ary
ዓቃቤ
ስራዎችን
ወስዶ
የመር
##ረተው
##ሞቹ
ቅስቀሳ
##ግስ
በመጥቀስ
2004
ህወሀት
ግጥሚያ
##ኖረን
ቢራ
##ዚል
መረብ
ኪሳራ
አጠገብ
##ቸግ
እንዲወጡ
##ላችሁም
የደረሰው
##ጋቸውን
ግንብ
ሉዓላዊ
የተጀመረ
##ጉል
አንገ
የሚናገሩት
መታየት
በተቃራኒው
ማሸነፍ
##ኑኤል
ያረ
በአይ
##og
የውይይት
መድኃኒት
##ሾቹ
የአማርኛ
##ቀረቡት
##ምበር
ወደብ
##ሪና
##ሳይያስ
ግዥ
የዝ
ወጥተው
በነበሩ
መቆየ
##ንንት
አብዮታዊ
አሰጣጥ
መቆም
ጋዜጠ
##ቀፉ
የሰውን
##ኾኑ
##ለኞች
ሪፐ
የፈረ
ኮም
##ክለቡ
በ5
##ከና
198
ሴቶችን
ተጣ
##ቴር
ታከለ
ትዳር
ኒው
ለማሳካት
##ጎዱ
ማቆም
ጎጃም
ጉባኤው
ቢሊየን
ሀዋሳ
##ደውን
በመመ
በነበረበት
##ቆዩ
##ቃቸውን
ሰሞን
##ውያኑ
ለመም
##ቃጠል
የለንም
ለዶ
##ቴክ
በይሖዋ
42
አትሌቲክስ
##ያያዙ
በኢኮኖሚ
ከ10
ሥጋት
ለመጥ
በሰጠው
ጥሎ
አርብ
ተለ
እረፍት
የሰጡ
##ንሳዊ
##ሯን
ፓርቲው
ጥርጣሬ
##ሞክር
የጎሳ
አምናለሁ
በኔ
##ጨፈ
per
ሐዋርያው
ኩን
##ውቀው
ተጠቅሞ
##ገርም
በዓመት
የህወ
በተባለው
በመል
በመነሳት
ካንሰር
ቄሮ
አድርገ
##ቸር
አስቀድ
ኮሚሽነር
የአስ
ቀጥተኛ
li
##ፍራት
ጸረ
ወፍ
ተቀና
መደረግ
##ለተ
በዝግ
የተቀበ
እንዲደረግ
##ልባ
በአየር
##ረቤ
እናውቃለን
የማይችል
ተመዝግ
##ገሪቷ
##ክሉ
የተቋ
የሚዲያ
ማረሚያ
ለኮ
##ዳችሁ
ድሬዳዋ
ምላ
ሲያደርጉ
ከትግራይ
መስፈር
ወደኋላ
##ጧቸው
ይም
##ቆሮ
##ነጋገ
ይፈልጋሉ
ቅጥ
ተጽእኖ
የ3
የንጉ
##ምነው
የቃ
##ቫል
ይገባኛል
##ፓጋንዳ
##ብሔር
ከመሆኑ
የሚታዩ
በእርግጠኝነት
##ደቢት
በመጪው
##ቺን
ልደቱ
ብልጽግና
የደን
ይነ
በስልጣን
አስታ
##ex
የአም
በተገኙበት
##ድሞው
ተከሳሽ
አመለካከ
በድም
ዳርቻ
ባር
የገባው
##ድድሩ
##ፈንቅለ
##ችኋለሁ
ሶስተኛ
በሱ
ተባብ
የወደፊት
ፋሲል
##ሊድ
ሁሴን
##ድርግ
##11
የስር
##በሰ
ዘመነ
ትናን
##እይ
የዩኒቨርሲቲ
ብስ
ጠባብ
##ዚዳንት
በመቃወም
ትግሉ
መፍታት
ትው
የሚታወቅ
እስከሚ
##ከበሩ
##ቆጠሩ
ሻምፒዮና
የሚውል
ከነማ
በቻይና
መካከለኛ
የአብ
ስለሆኑ
ወያኔን
የአገራችን
##ጥራል
##ራብ
አባላትን
የሚቆጠር
##ቀትን
ውጥረት
ለመውሰድ
ማስገባት
ሞገስ
ልማትና
የደርግ
##ኖሩም
ልደት
ኮንት
##ንዶ
ተግዳ
እናቴ
ኢንጂነር
##ልውና
##ረቻ
ሄደው
አሃ
በፕሮ
ከአማራ
መረጋጋት
እየሠራ
ስደት
ከገባ
ረድ
ተደራጅ
##por
ድንአ
##ይይቱ
እናደርጋ
እንክብካቤ
ቢቢሲ
ለማድረስ
ሶማሊያ
ይህች
ጳጳስ
ተገናኝ
ከአምስት
ቶን
የሚቻለው
ቆይተዋል
የቴክኖሎጂ
ከኤርትራ
ለመርዳት
##ግኘ
ፍትሃዊ
ከእንግዲህ
ስፔ
በሁለቱም
ሲደረግ
እንዲቀጥል
ገጥ
የአሁኑ
ከሌላ
##ከላቸው
ከድነት
ፈላጊ
እየሰ
አዳነ
##ation
##ካፈል
የጨዋታ
##በረታታ
ሳያስ
##አያ
በወጣ
##ሪቱ
##ጢአት
የሚነ
ሞዴ
ድብደባ
እችላ
እዚያው
ሥራዎችን
48
ተጠርጣሪዎች
ማስተዋል
አደርጋለሁ
በመዝ
##ቶቻቸውን
##ron
ክሪ
የኣ
##ያያዥ
መጀመር
##ውያ
##ጎና
የዚህን
መቀየር
አዕምሮ
##ምምነት
በቀስ
ህመምንም
ለሚገኙ
##በላሸ
በሻ
##ኖረውም
ጥያቄዎችን
##ፈሉ
የእርስ
##ካችን
ቢባል
ልማድ
ለኤ
የብሄር
የመሆን
ተዋህዶ
የሚጠይቅ
የሌለ
ቀለ
ኩንታል
ተገኘ
##ሙበት
##ሊስ
ተወያይ
ዘመድ
ያመጣ
ታውቃ
ምሕረት
የተጠረ
አድርጎታል
##ብቃ
##ሲስ
ትኩረ
##ነትም
##መበት
አብዛኛዎቹ
ንማ
##ብኛል
መጥቷል
ሲናገር
ዳኞች
##ደሮች
አራተኛ
ተጀመረ
ለመሸ
ውሻ
55
እሴት
##ሊስት
እያየ
በረራ
መገንዘብ
የሚታወቀው
አምራች
የተደ
መድኃኒ
መጠቀ
አተ
ይገልጻል
ይሠ
##ውር
በማያ
ዜጎ
ታች
እንደማያ
ተግ
መረራ
ፌደራ
እሸ
ጥፋቶችህ
ተጠቃሚዎች
መገርሳ
##ዋለች
##የረ
ማቀ
ሸገር
በአጋ
ለአገር
ባት
##ዋም
የፎቶ
ውስብስብ
ያቀረቡት
ስማቸው
በሱዳን
ከማድረግ
##ስፋፋት
በግፍ
##ቶችም
የፓርላማ
ጆን
##ኩትን
##መረጥ
የሚደር
ቁጥራቸው
አስደሳች
##ጣችሁ
##ted
ለበርካታ
##ቡም
##ሪል
ያዕቆብ
ያገለ
እሚ
በቃል
##ሰቡን
በአስተ
##ገራት
መገን
ሊባል
እንዳላ
##ሃድሶ
በእሳት
የምርት
የቡና
በኣ
ወደተ
ሲያደርግ
አደረሳችሁ
ለባለ
ቢያስ
መንግስትን
የምንችለው
ወገኖቻችን
የሰዎች
ኮሎኔል
##ኑር
##ክንያ
##ኮችን
ሰጥተው
የመሳሰሉት
##መጣጣኝ
አገልጋይ
ውስጣዊ
ሐሙስ
ይካሄ
##ነታ
ቪድዮ
ኢዮ
##ያዩ
እንደው
ተሽከርካሪ
##ለሁም
የታየ
የሳይንስ
##ጡበት
ኢትዮጵያና
##ጣጣ
ራሳችንን
ደኅንነት
ተገኝተው
##ይሮ
አንቀፅ
የእጅ
ፋንታ
##ከያ
ከአራት
ልጆቹ
የከተማዋ
ሁኔታዎችን
##ሰሩት
ጉር
የመግ
እርሳቸው
ከቶ
ባለድርሻ
##ፉትን
የወቅ
በኢትዮ
መሳሪያዎች
ሐገር
ታጣቂዎች
##ረኝ
##ርዶ
##ኩረት
አገልጋዮች
ሲዳማ
የመረ
##ሽከርካሪ
መጀመርያ
አከባቢ
##ዉሮጳ
አክቲቪ
ዜናዎች
በቅዱስ
በሽታዎች
ብቁ
##ያለን
በኪ
ሳንቲ
አንችልም
ብየ
##ያኛ
የጠበቀ
ሁላ
ዝውውር
የጥበብ
መምራት
አፍቃ
ጽጌ
##ሰሱ
##ድረው
ተከታይ
እኩልነት
እነዚያ
የኢንተርኔት
ማወ
ለመውጣት
በእነ
እውነትን
አምላክን
የማህበራዊ
##ዛብ
በከፊል
##አድ
በመስራት
ህገወጥ
ቀንድ
የሚያስችሉ
ጥይት
ለእናንተ
ታጋ
ነበረበት
ለቢ
እየሰሩ
ከኦ
በፖሊስ
መለወጥ
የፓርቲው
##ዩኒኬሽን
##ንጮ
41
ከጋ
ኮሚሽኑ
##ዮት
ባለሙ
መሻሻል
በተባለ
ተፎካካሪ
ስለነበረ
##ዘርላንድ
ሥርዓቱ
ዕቅ
ራድዮ
##ጠቅላላ
የምድር
ስቴት
እንደነ
ገዳይ
መቃብር
##90
ተሽከርካሪዎች
##ከሰተው
እስራኤላውያን
##ዳዊ
ሹመት
ተጠሪ
ገዱ
የዛሬው
ጀምሯል
መሪነት
##ማችሁ
እንዲሰጡ
ማት
የሄ
አልፏል
የነበራቸው
የማይታ
መድረስ
##ፍቱ
እጁን
የፈረን
ለራሱ
##ቃችሁ
ጥሬ
ሩሲያ
##ቃጠ
የእነዚህ
አብራርተዋል
ድርቅ
አደሩ
##ካተተ
##ቀረት
ለ2
ትንቢት
##ሰጥም
የሚችሉት
እህል
ተሳታፊዎች
ንግግ
አሰቃቂ
የሶማሌ
shar
##ለቆ
በለ
አውጥቶ
እናደርጋለን
የኢፌዴሪ
አገላለ
እስራት
መቻል
እችላለሁ
እስከዛሬ
ሀገረ
ፍጥ
ዕዳ
##um
ስለአ
##ፍሎ
ከአፍሪካ
በንግድ
ይለያ
##ቡል
##ጋን
የስኳር
ማስወገድ
የመሰለ
ሁኔታውን
##ለንተ
ሚያዚያ
ትቶ
በተከታታይ
##ጆታ
##ቀመጠው
ከመንግሥት
ከህዝብ
##ከሪያ
መሆኗን
ወሬዎች
##ጠበቂያ
##ከፈት
ቆይቶ
##ጓደ
##ኤን
የአክ
የአው
ያስረዳል
##ጋብ
ለዛ
ታጋይ
##ሸራ
ንቁ
ሊጉ
አሞ
ከነበረ
መኖሩ
##ዳኝ
ነባር
ያደረግ
##ራና
በክብር
አያስፈል
ገላ
##ኖክ
ጠየቀ
ብሔረሰብ
##ቶሊክ
ጠቅሰው
ሲሳይ
መለኪያ
##ሻውን
መስመ
ትኩስ
ተያያዥ
ከ6
##ራለን
እንደመሆኑ
ዘለ
##ፕሮ
ፀጥታ
ይገልፃ
##ቀቀ
ለእግዚአብሔር
ማለቴ
ከሀገር
በተገ
የክብር
47
##ባትን
አግኝቶ
በማድረ
እውነቱን
ለማጥ
ገብርኤል
ተለዋ
መች
ትችት
ቀልድ
ያውቃሉ
##ጐች
መክፈል
no
የሴት
ኤች
##ገዘ
በ20
ህጻናት
##መሰል
መሰረተ
ለማስከበር
ፊደ
የብድር
ያለፈው
ለመግለጽ
በእኩል
አይቶ
##ላትም
ፓትርያርክ
ለሆኑ
##ፋትና
share
አውጪ
እዉ
##ጠይቀው
በሕይወ
ባሕርይ
ተጠቃሚነት
ሲን
ከፓ
##ቅዶ
##ታደራዊ
እያልን
##ፈቀድ
ክርስቲያናት
እየደረሰ
##ቀሉ
ያለብን
የጠፋ
የእሳት
ባለሃብ
##ሸነፈ
የሚሆነ
መታወቂያ
##ተዋ
መገኘት
##ight
አመል
##ይዙ
ዴን
የፅ
##ሚያስ
##ፈራረ
የሚደረገ
##ዎችንና
መርከ
ባይሆን
ተኮር
ተደጋጋሚ
አልገባ
አልያም
እንደምታ
##ንቦት
ማጣት
የአመራር
##ሙትን
##ግራም
ባሉበት
ለመሄድ
በሰማይ
ዓለምን
ቤን
ዝንባ
የሂ
##ደራደር
##ገናኛሉ
የተካሄደው
ማርቆስ
ከጀመረ
##ካተቱ
ይከፈ
##ነበራቸው
ነቅ
ይመራ
የሰውነት
ረዳ
የገጠር
ከፖለቲካ
በብር
##ራችንን
መነሳ
ገመ
የሚሉትን
##ከመ
##በሩን
##ከናወነው
##ከማ
##በናል
ተቋማትን
##ኖቻችን
መኖራቸውን
##ጠናከረ
አገና
ስለመሆኑ
##ss
የሚፈልገው
አነጋገር
ይገናኛሉ
##ቆቃ
ማክበር
##ፈቀ
መርማሪ
ተቋቁ
ግብዣ
ተመልካች
አነሳ
ተጉ
##ፍም
##ያውቅ
የሚያስከት
writ
##ለንተናዊ
##ርግ
መስዋዕትነት
መንቀሳቀስ
ቅጽ
ዝርዝ
##ብያ
የበለ
ተባባሪ
ያድ
##ቀሱ
##ዶም
##ጀመርያው
የሆነችው
ከትናንት
የለሽ
እንደሚያሳ
ለድር
ኤፍሬም
ሽመልስ
በንግ
ይዟል
##oc
ፉክክር
ከደቡብ
##ያውቁ
ታክስ
የሚያን
ይገልጻሉ
##ጦችን
##ጫሉ
እንደዘ
##ርቱ
የሚያግ
መጫወት
ትላልቅ
አማራን
ስፋት
ዩሮ
የስልክ
ማኅበራት
መቸ
##ኪሞች
au
ባይሆንም
ያዳ
##ፋና
##ኚህ
በአም
ተላ
ኮንግ
##ዳዳሪዎች
##ዋቱ
ፈቃደ
ፀጋዬ
##pr
ለመመ
መሥዋዕት
ሙቀት
##ግምት
በዱ
ቆዳ
የኢሕአዴግ
በዘርፉ
ይለኛል
ከኃ
ዜግነት
##ፈኑ
የቀረቡ
##ሞክሩ
መድሃኒት
ታማኝነት
##ፍራው
##ፃሩ
##ላቀሉ
##ኖም
በየቦታው
ተገንዝ
##ጋባ
ቲቪ
ወደዚህ
ለማካሄድ
ገቡ
መድረሱን
ፌዴራ
ይኖሩ
ጉድለት
በጊዜው
ይሰራ
የፈረንሳይ
ወለጋ
የያዘው
written
ፍላጐ
##ሮቹን
ከሁለ
ጭንቀት
በሁዋላ
ሀይሎች
ጽሁ
የበጀት
ማመንጫ
ችላ
እላለሁ
በ10
ለሽ
ለአፍሪካ
አይነቱ
የከተ
##በረከ
ሣይ
##ዕዝ
የሚከተለውን
ዙርያ
##ቴል
ያለች
ማህበረ
የሚደርሱ
መቅደስ
ከሩ
##ሎና
ቀርቧል
የሲዳማ
ለማዳን
ማዕረግ
ጥናቱ
##ሰባቸው
ይመጣ
##ረዝ
##malink
permalink
የተቆ
አብቅ
ጃን
##ጫዋ
አንበ
ሁለቱን
##ፈፀመው
የቻለ
ፌስቡክ
ይጥ
የተስፋ
##ቀጥሉ
ሲሄድ
ክፍተ
በማስገባት
አባቱ
##ዕድ
##ሰሳ
ልውውጥ
ሌላም
እያስተ
ከወጣበት
##ቤታችን
##ጠጣ
ቢዝነስ
የመጡት
##ቃለች
##ድረክ
የሚመጣው
የፈለገ
##ሲን
##ያውያን
ክርስትና
እንመልከት
##ደፍ
##ከሰተ
ኢንስቲት
የሚታወስ
በ198
ትልልቅ
በተወሰነ
##ጠፍ
ሆድ
እንዲወጣ
መለየት
መገመት
ታስቦ
የግብር
አቅርቧል
ያለበትን
መቋቋም
##ጀምሩ
ተመልከት
እቃዎች
አድርጐ
##ላለፈው
በክልል
በሰዎች
የተዛ
ጠፋ
በኢየሱስ
##አለሁ
ላሉ
አስደን
##ላላው
ዝንባሌ
46
በሦስት
ትላለች
በፅ
መደረጉን
##uary
##ኖና
##ቾቹ
ከወያኔ
##ሽና
ይችል
##ሮም
##ጣኔ
ይመለከ
እንደራ
##ባበቅ
ለኛ
##ሳለሁ
አዙ
ወለድ
##ዝናል
የዲሞክራሲ
##ኤም
በአራት
በረዶ
ማድረጉን
አትችልም
##rong
##ርሃት
49
በቦታው
##ፈኛ
ሲዘ
ከሦስት
ይሰጣ
ሊኖረው
##ዛቸውን
ማዕከ
ይነግ
ይን
ማራቶን
የቪ
##ገደለ
እልቂት
##ሙላት
ቴክ
ከፌ
##ይድ
ማሳደግ
##ገለፀው
##ማውያን
የሩሲያ
መስፈርት
ተጋድሎ
ሐሳቦች
ተይዞ
ከመጀመሪያ
ፕላን
ኖር
##ከነ
ሕመም
ነበርና
በቴሌ
የድጋፍ
ለየ
##ካሚ
ተጠናቋል
የኬ
የከተማው
ንጥረ
አልሆነ
ከነበሩት
የተሰማሩ
##አላ
##ቀረበው
##ome
የግንቦት
strong
የሚደረጉ
የመታ
ከመሆን
አምባገነን
የተጠ
##ረካ
የህዝቡን
እንደሌለው
ግቦች
ጥራ
ዕውቅና
##ጅን
ከተማዋ
መሣሪያዎች
##በዙ
ለውጦች
ህልም
መከበር
የጀመሩት
ታድያ
ያቀረበው
##ማማት
ነገሩን
ያልተነበበ
ያለማ
በግንባ
በአንጻ
ago
##ያና
##ሐዊ
እወዳ
የትራፊክ
ቢሆኑም
ውስን
##ኒሻንጉል
##ሪያት
የጥናት
የአእምሮ
የሙስሊ
##ላይት
በጥቂት
ይሰራል
እንደማይችል
ከምት
pr
ጠያቂ
የሚፈልግ
ብሶ
##ርታ
የተያዘ
ፕሮግራሞች
##ተሮች
ሊያደርግ
##ሪያቸው
ሲመ
ዞሮ
##ምፒው
ኢሳይያስ
ለሪፖርተር
ገለፁ
ክትባት
እንዲኖረው
##ተኝ
አስተምህ
የተቀና
ጀምረዋል
ለፍት
##ማርያም
##ውነት
ጠቁመው
እርሱን
ጥርጥር
ማኔ
ደጀ
ከአን
ስትሆን
##ልቆ
በሴ
አቢይ
እንደታ
##ገራቸውን
የእና
የቡድን
ከቦ
3ኛ
የበጎ
መዛሙር
የተናገረው
ኦዲ
##ፅም
የወልቃይት
##መሰረተ
ለማውጣት
በቁጥር
ክፉኛ
##ሞከር
##ሟሉ
እንግሊዝኛ
ይካሄዳል
##ቀኛ
##ክሬን
ከማን
##ጠሎ
ለመላው
በመደገፍ
ተቋሙ
በጃ
##ዘዋል
##ጸው
እራስ
##ፕራይ
አይደለሁም
በተቀ
ሹም
የመከላከል
##ባኤው
እንዳይወ
##ብዛም
##ቻላቸው
##ek
እንዲገቡ
የንግ
##ውድ
##ክፈት
ማዶ
##ዞር
እንዲሉ
##ደርግም
ጥምረት
መዲና
የተራ
በሰብ
ትህ
##ይጣን
##መከ
አስከባሪ
በኃይል
አስተያየቶችን
ተሠ
ሙሉጌታ
##ቱንም
ይር
##ጠቅም
##ከፍል
ምእመናን
54
ታሪክን
ደጃ
ፈገግ
##ab
አገሪቱን
##ማኒ
መልዕክትአን
ያነሳሳ
##ዛን
አሳፋሪ
##መውን
##ዎቹም
መግለጫው
##ለንም
የጉዞ
ውድቀት
የተከለ
mar
ይጨምራል
ንዑ
በበርካታ
በመልካም
የሚሠራ
##ሳዩ
##ቢያን
ዞኖች
ሂሳብ
ዶሮ
የማሳ
##መዘገበ
አወጣ
400
ጠረ
ተዋጊ
አዎንታዊ
ጉሙዝ
##pl
ማለዳ
የሚን
##ጅና
በስብሰባ
ህጻ
በቶ
በድንገት
ይከብ
ጠቅሶ
ኦህዴድ
ፋና
በአጭሩ
እንደሚለው
ኤን
ዋዜማ
እንዲደርስ
##ኒቨርስቲ
##የሙ
ወላይታ
በክርስቶስ
ፕሬዚዳን
ከአሁን
ድንገተኛ
በፌዴራል
##የትና
##መደ
የሬ
##ውቀት
በሁለተኛ
ሪፐብሊክ
በኬንያ
ኔእ
##ነም
##ቋቸው
##ስቱን
በየመን
ኢንቨስት
ትንሣኤ
ከሰሞኑ
ካድሬ
ለአማራ
ፊርማ
በምና
በኩር
##ጆችን
ሂደቱ
ከመጣ
ለመቅረፍ
ከቁ
ውጣ
##ስተናግ
##ገራችሁ
ገልጾ
ይለ
አልችልም
##ጋር
##ወስዱ
ስርጭ
##መህ
የሀገሪቱን
##ማሊ
የቆዩ
ልቦ
መቅረብ
የተካሄደ
##ቀመጠ
##አትር
##ag
##ላለማዊ
ከምንም
ቦሌ
##ጀሪያ
የቴክኒክ
ፓር
##ቀለ
ሰዎችም
በተራ
ንስ
አዲሱን
የታላቁ
ተሸክ
ማላ
##ሬቻ
##በርት
##ሻሽ
ሊሰ
አጎ
ተከሳሾች
አስተሳ
መለሰ
አመቱ
##ይስ
##ጊዜም
አቅራቢያ
ግድቡ
##ሰባዊ
ለቤት
በሚደረገው
በነዚህ
##ገነዘብ
##ቃወሙ
ተገኝተዋል
##ንኩ
መግደል
##ሠረቱ
##ጋቸዋል
##ሆች
##ስተም
አዉ
ይመረ
ደሞዝ
ተፈናቃ
መዝሙ
ምንዛሬ
##ዮተ
ከዩ
ክም
##ሂም
##ወጠ
ወንጀሎች
ከስልጣን
ብሄረሰቦች
ልደ
በ18
ማማ
የሚረዳ
የተሟላ
አልታ
ጫካ
ስብሰባዎች
አሌ
እዛው
##ምቢያ
ከሆኑት
ዕቃዎች
በተባበሩት
ይገር
ጭራሽ
አላገኘ
ሰላሳ
ጨርቅ
##ወደው
##ፍጠር
ሲጀምር
አስገብ
ሲኖር
51
የኢንቨስትመንት
ክልሉ
##ጸል
በቋንቋ
ማለታቸው
ሊደረግ
እጦት
##ጤን
ተመልክቷል
አማራጮች
##ሰሰ
የጫ
53
ለውጭ
አቤት
ባህርዳር
ስርዓቱ
የቋንቋ
##75
ድምጻ
መድረኮች
ያብራ
##ራባ
አደረሰ
የቻለው
ኬሚ
በፍት
https
ጉልህ
አስመስ
##ጨር
##ውሎ
ሲጀመር
ፍርሃት
ሰበ
ፍጥረት
##ገኝበት
ባንዳ
ምሁራ
አሻራ
ለጎን
##ሮንቶ
ልምምድ
##ለፈው
##ሟቸው
የመል
የኢትዮጵያውያን
##ዖን
##መንጃ
ብሮድካ
ፎቅ
የክርስቶስ
በቀጣዩ
ገብቷል
##ገዴ
በጥልቀት
ተመራማሪዎች
##ስተላል
ለውጡ
ካፒታል
አገራቸው
##በረው
የተከፈ
ሚዛናዊ
ለአን
መዳረሻ
ርዝመት
ለቆ
ፈታኝ
##ማረው
ፋብሪካዎች
##ካዮች
መተማመን
##ከባድ
##ሞና
##ወድቅ
ጠይቋል
የአሜሪካን
ብጥ
የደረሱ
##ከረው
በጥይት
መደም
አስተያየቶች
በምስ
ጠቅሰዋል
የተከሰተው
##ይሳ
ማግስት
በእምነት
ዘይቤ
##ልቻ
የተተ
ውቸ
የለብንም
ይደረግ
##ore
አቤ
ላይክ
##tic
##ገሰ
እንፈልጋ
ተጠቅመው
##ረጋገጡ
እባካችሁ
##ደይአ
ያለነው
##ኛለሁ
##ከብሩ
የፖ
የክስ
##ገደል
መሥራ
በወር
የሕዝ
በፈቃ
##መለክት
##ጣሊያ
መጠይቅ
##ባትና
ያሳየ
##ጨብ
##ናኛ
##ይነ
##ቀጥሉት
##ሎሞን
ከግምት
መቐለ
##ሊበላ
##ነጋገሩ
ታሪኩ
በርካቶች
##ንግሊ
##ባቸውና
##መዱ
የመለ
##ቃብር
የመንፈስ
ተፈጥሯዊ
ባለመሆኑ
ዘጋቢ
የታሰሩ
በቅን
##ሳለች
##ንቨ
አካዳሚ
##ሸጋገር
##ሽግ
##ቅያ
ተጀም
ለመን
ከፍታ
የምንለው
ተደብ
አስመራ
##ሰቡት
##ማጅ
##ሔድ
አደጋዎች
በፕሬ
ህው
##ስተዋወቅ
ኢብራ
ለፓ
እዳ
አሥ
የሚደግ
በቱ
##ነቷን
ለምንድነው
##ሆይ
##ቧን
የልጅ
or
መፃ
##ኒን
የሃገር
መስኮች
የተወሰደ
ይሄዳል
##bc
ክፍፍል
##ልፎ
በእንዲህ
ያገኛሉ
ኩባንያው
ሲወጣ
ጭቆና
ኢንተርኔት
##ስትራሊያ
ያለህ
የተደረጉ
ያተኮረ
ጉልበ
ከምሽቱ
የተፈጸመ
የሚችለውን
##ጓሜ
and
የአባይ
##ነፍ
የሚካሄደው
##ቅምት
##ዲግ
ጥግ
##ላችንን
የሚጠቅ
ባንኩ
የኖ
##ዛሉ
ገርባ
##ፈጽም
የወረ
ትዎ
በጦርነት
በባህ
##ሚንቶ
##ነዘ
##ያችሁ
##ቦን
##ቴና
##ጣጠ
የሚያሳየው
ዕርዳታ
አስገ
##በለዚያ
##ረንስ
##ራለሁ
##ory
እንፈልጋለን
እንደምና
ሕገወጥ
##ቲቭ
ኔት
ወርቁ
ምክንያታዊ
##ሸንፍ
ተዳ
የ200
ይረዳል
ስመ
##ሃድ
ቤትና
ከሚለው
##ጮህ
##ጮችን
##ሐመድ
የመካ
##dis
የሚገርመው
የኮሮናቫይረስ
ልሂ
ኩር
##ጠማቸው
##ናውቀው
በምትኩ
ቅኔ
##ጦስ
ያደርጉ
ለመቆየት
##ጠቀሱ
ተቀብለው
ገጾች
ከእነርሱ
##ቶት
ንች
ፈጥሮ
እንዲገባ
ምጣበ
ማስፈራ
##ጋለጥ
አፈፃፀም
እንዲያደርግ
ፌደ
##ንፈኛ
ማነስ
ስማ
ደሴ
ተነገረ
ጣል
ተመልሰው
የአሸ
በነጻ
##ወርድ
የራሳቸው
አጋጣሚዎች
አዝና
##ራዘም
በማውጣት
ረዥም
##ኮታዊ
##ቧቸው
ሁከት
በዘንድ
ቅርፅ
ሱእ
ቡክ
አካሂ
##በርግ
##ካሄዱት
##ገኛለች
##ርያት
ወደፊትም
ጎበዝ
ይኽ
በአብ
አርአያ
የሞራል
በሃይማኖት
ቀው
የፈጠረ
የሚሠሩ
ተቆር
##ብብ
ፈንድ
የገዛ
ጀግኖች
ሲሰራ
ማዘ
እሳቤ
##መሙ
ዲፕሎማሲ
##ኸኝ
አህጉ
የተረጋገጠ
##በርክ
የድርጅ
ተመድ
ይቬ
##ፉም
##ሪያችን
ከስራ
ይጫኑ
እንግሊ
ተሰምቷል
ተዛ
ይቬርሃ
##የሁት
ወጭ
ፖስት
ሲቲ
##ሥላሴ
አጥር
##ኦት
ቀኑ
ያምና
##ረበነ
አስባለሁ
ምረበነ
##ባታል
ምረበነልአ
##ታይም
አለመግባባት
ሥቃይ
መጡ
##ካተት
ኮንጎ
የትን
ገም
un
##ንያኛ
አስፈላጊነት
አመስ
የሞቱ
አክሲ
ደመወዝ
##ዷቸው
ብላለች
##ቻለም
##ፈስያ
ጉድጓድ
ተጠይ
ትሆና
አልፈው
##ቅርታ
ግንባታው
ልጁን
ከሥራ
ስደተኞችን
##ላፕ
ያቀርባል
##ጋችሁ
ያንተ
##19
ምስጢር
##ባሪዎች
##ሞክራቲክ
ምግባ
ለዉ
ፍፃሜ
በብሔራዊ
##ሻለሁ
ዘገባዎች
ሊቃውንት
ቅጥር
አጫ
##ግሞ
በ6
በስደት
የተውጣ
መነጋገር
በሚባል
ከእነሱ
ይለናል
##ሃትን
##መቻቸት
ግሪክ
ጠፍቶ
##ህጉ
##ተስ
እገ
##ወርቂ
የወጣቶች
ወንድሙ
በአባ
ቢጫ
ኃላፊው
እስካል
ጨም
##ሚየ
##ኅን
ሐይ
የተማረ
ሳም
አክብሮት
ለይሖዋ
ክብደት
በሶስት
##ክሬ
##ለፍነው
ክርስቶስን
ጦርነቱ
##ፉበት
ጅቡቲ
በተጨ
አለብ
አስደንጋጭ
ራእይ
ይመር
##ሌር
ብልጫ
በዞ
##ቀርባሉ
ገዢው
እንደዛ
በአክ
ተቀምጦ
አረጋግጠዋል
ተጨዋቾች
ወሮ
ተዓ
##መዘገቡ
ከምርጫ
ርገነ
##ፃፈ
በሽብር
##ላና
##ፍሉ
አለፈ
ኅዳር
አጠራ
በሌለበት
የባሕር
ህይወታቸው
በጌ
የ19
የፈጠረው
ያገኘው
የእርሱ
ትግሉን
ምሥራ
የተፈረ
ተሟጋች
ድልድይ
በእስራኤል
ተጠቁ
##ቶቻችንን
ኢየሱስን
አስገድ
ተቃራኒ
ሩቅ
##ሳኤ
በተና
እምብዛም
##ደረግን
ቀለል
ጨዋታውን
አድርጉ
##ኗኗር
ፍጡር
ፓስ
በሌላው
ማካሄድ
52
መጓዝ
##ጠናል
ለአብነት
ለተለያዩ
አባባ
ንድፍ
መከተል
ሐኪም
ይሰጣሉ
ጽፏል
በህዝ
##ደረጃው
ለገበያ
ንፁህ
የተቋቋመው
መንገደ
አጠናክሮ
pos
##ነድ
ክለቡ
ያገኘነው
ሃሳቦች
መበ
ዩኒቨርሲቲዎች
##ማማች
ተንቀሳቃሽ
ይጎ
##ጠሩት
##ፋጭ
ያላትን
ኢዜማ
የተፈጠረውን
ከሱ
ፍጆታ
ባለሙያው
ሰነዶች
የሚወጣ
ክህነት
ተስማሚ
መሠረተ
ከፊት
የሚንቀሳቀሱ
##ሥረት
ለመጨረሻ
ከሚል
##ጠብቀው
##ሽው
ምስጢ
ጥፋተኛ
ጽኑ
##ወን
##ዱና
በደብረ
በአምስት
የሚያሳዩ
##ዩብ
እነማን
መፅሐፍ
ለዜ
##ቸዋለን
##ኮን
##ሁበት
ከአቶ
ከሶስት
ናፍ
65
ወስደው
ወንጀለኛ
##ጸባረ
እንደዚያ
##ቀርቡት
መጥፋት
አማካይ
ርእሰ
መንገዱን
##ችንም
ጓደኛዬ
ከከተማ
ፈተናዎች
ሕወሓት
##ፍሩ
ሚልዮን
የሚባ
##ያዝነው
የተገኙት
##አቀፍ
የዘንድሮ
##ሎችና
##ሹን
እስረ
75
ከካ
ልጆቻቸው
ድርጅቶችን
ተጋላጭ
አዝማሚያ
በእስ
ፈት
##ውቅ
ከሚያስ
የተደበ
ዘፍ
this
ይይ
በኢህአዴግ
ትፊ
##000
መጠሪያ
መብትና
##ጭበርበር
ለድ
ዘለቀ
የቫ
##ከውን
##ir
ያቀረቡ
##ማንድ
##ዳሪ
##ሎቱ
ከተማን
አብዱል
ገዛ
##ለንደን
ድረገ
የሟ
ኢያ
ለዓመታት
ህጉ
ማበረታ
##ቅሉ
የነበራ
አንብብ
ሳህ
##ሰባቸውን
ለማስጠበቅ
ከ15
ቀጠና
በኅ
የሁለተኛ
ይበልጣል
##ከባከብ
ያምናሉ
ትፊበ
አባቶቻችን
##ብራት
የሚመለከት
ልጆቻቸውን
እንደሆነና
አስቆጥ
በፍፁም
##ዲዮውን
##ፕሎማሲ
##ላችይ
ያውም
ያለንን
የተሰበ
በዓሉ
##ስራኤ
2729
##ላቸውና
ጃፓን
ዘውዴ
ባልደረባ
home
##ሪዮ
አሳይቷል
ነባራዊ
##ታቸውና
ባህልና
የዜጎች
አያስፈልግም
ነበራቸው
ማዘጋጀት
ለማስተካከል
##ላቀቅ
2658
ተነስተው
##ሮስ
##ጡም
በጅምላ
##ይር
##ዳድሩ
##ዋእ
እንዲያገኝ
ያሳዝናል
ባያ
ልዕ
እግዚ
በዩናይትድ
መጀመሩን
በሃገሪቱ
pre
አቀረበ
##ርጂ
የዘላለም
##ነስር
##ገራዊ
##ፋፋ
ማንሳት
##ጓጓዣ
ውሸ
##መድን
ካምፕ
ልዑል
##ext
በትናን
##ስትያ
##ላለፉት
ሳተ
ስለጀመሩ
##ደጉ
97
አዘጋ
ዝግጅቶች
##ባለች
ምርታማ
##ካኝ
##ust
ጩኸት
##ኦኤ
የሚያስፈልገው
በኛ
ግዛቶች
በክል
ግሩ
የጦርነት
ለኦሮ
##ገኝነት
##መርመር
##ፓር
##ገልገ
ይገመ
በመንፈሳዊ
መኮን
##ቴዎስ
##ሳለን
comment
እኔና
የግብጽ
ሳይንሳዊ
ዳይሬክተሩ
ሳንቲም
መሆኑንና
አድራጎት
##ሩንዲ
ሲካሄድ
ያልታ
ደረጃዎች
አሳው
ተገኝቶ
##ብም
ደንበኞች
ለትግራይ
##ዬም
አመፅ
በሺዎች
የኋላ
##ኒስ
##ራመድ
የጐ
##የል
ተመጣጣኝ
በመገኘት
እንደሚያስፈልግ
መምረጥ
##ሚው
##ah
እንዲችሉ
አውዲዮውን
በስቲያ
##ዓዛ
በእያንዳንዱ
ለዲ
እወዳለሁ
ባለቤትነት
አበረታ
ያመጣል
አድዋ
ትንቢ
ተከታት
ገለፃ
ከቀኑ
##ኒስትሮች
##ንፊ
##ደሰት
አብን
ቀበሌዎች
በያ
በደርግ
##ሸሽ
በፌደራል
የተነሳው
መምጣቱን
ሳጥን
ተጠያቂነት
ያላችሁ
በአፍሪቃ
መስራች
ይፈጥራል
የተጻፈ
አገዛ
በዘመናዊ
ተላል
##ሰም
##ሱና
ማጣሪያ
posted
ዘላለም
##ወዳደር
ህይወታቸውን
may
ሊተ
ገለፀ
##ሳውዲ
ታይቷል
ለማከናወን
ተካሄደ
ለመጀመር
የኤኮኖሚ
እንጨት
በተገቢው
ገደል
##ሬሽ
##ጂዎች
ቀርቷል
##ጴዛ
የሆነች
ሲሰጥ
እራሳቸውን
ላስ
##ማንት
##ጭን
ለሁለተኛ
ራሴን
አገርን
እናንተም
56
##ለምዶ
ኢብ
የያ
ክስተቶች
በመንገድ
ታጥ
##ke
አባታችን
መነሳት
ካህና
ከአባ
##ሯት
የማያስ
ራዲዮ
ኢየሩሳሌም
መንግሥትን
ከ30
እንላለን
ተፈጽ
እንደአ
የአማ
ካድሬዎች
image
ማሽን
የተሳተፉ
የሚገልጽ
ስደተኛ
መመለ
እንዲፈጠር
jan
##ቲካን
የተሠራ
##ዘና
እንዲመለሱ
ሰርቶ
አድን
ወተት
ከዛም
##ጢአ
አይሁዳ
addis
የሚደረገውን
##ሀይ
ጥቃቶች
ከቻይና
መጽሐፉ
አፈወርቂ
ካሬ
ተቃው
ስሙን
አስተምህሮ
##ቆጠረ
አስገን
ተማ
አቅሙ
##ልጥ
##ፍኖ
ኮንስትራክሽን
##ለሉ
##ራጅ
እባክ
ማቴዎስ
##ገመት
የምስራቅ
መቆጣጠ
በረሃ
መያዙ
ማመልከ
የሚባሉት
##ሰብኩ
ድቻ
ለአምላክ
##ሰማቸው
ትርጓሜ
ፕሬዚዳንቱ
ባለቤቶች
አገባ
ንዑስ
##ሮቻቸው
ለማክበር
አማራው
ማሳሰቢያ
##ረከብ
##እና
ንጽ
##ያትር
አውታ
##ጥበት
##ድራ
##ዐት
196
የሶማሊያ
##ኒክስ
##ቭዥን
##ቀደው
##ግድ
በግራ
እርቅ
አስራት
በቅጡ
ለቢቢሲ
ጨምረው
እንግል
##ሰማሩ
ኢትዮጵያውያንን
##ደገፈ
አመጽ
የቡድኑ
በግብፅ
ጋዝ
##ቃኝ
እጃቸውን
ከሽ
ያለችው
##ወያዩ
የፊልም
##ሎም
የሚነሱ
##ምፒዮን
ምንጊዜም
##ገልጽ
ታጣቂ
ይሰጣቸዋል
መዘጋጀ
የተያያዙ
ተጭ
##ሊምፒክ
ከቤ
ጥለው
የተደራጀ
##ዳፊ
አልማ
የፕሮጀ
##ተሻ
በማጣ
##ious
##ሳድ
##ክና
የሚቀርብ
በማጥ
ጥሰ
ኦፍ
ጥርስ
##ነባ
የሚካሄድ
ቴሌኮም
ምስክርነት
##በሬ
##ጆቼ
እናመሰግና
ኢስ
በተዘዋ
የማግኘት
አወቃ
ጭንቅላት
##ግቡ
ስላሴ
ሉቃስ
##ሰራም
##ቀበለው
##ሃንስ
የውሸት
አቀራረብ
ጀዋር
ፋይናንስ
እንግዶች
ወላጅ
ab
ያሉበት
##ፃፀር
ለማቋቋም
##ቭል
አልፈልግም
##ጨርስ
የተበ
ጥቅሞች
ከች
##ሚል
ጋዜጣው
ምድረ
ለመቀየር
የሚያደርጉትን
ብዝ
በሁአላ
ለሚለው
##ድራል
##ወጡት
መላእክት
ንቅሳት
##ኖተ
በበለጠ
ውሳኔዎች
የሚጠጉ
##መተ
ከኛ
ጥቆማ
በቡድን
በሂደት
እንዲኖራቸው
የእስልምና
ተላላ
የሕገ
ሰቆቃ
ዘርፉ
ባልሆነ
አይነ
ሊሰጥ
ያጠፋ
##ፈተሽ
በሽታው
##ዋወ
የወቅቱ
አሥራ
##ሙማን
ትምህርታቸውን
የችግ
ለመግታት
የበረራ
ከአምላክ
የድምፅ
ከን
##ቃቱ
ሳይንቲ
የማይችሉ
በሦ
ተሰባ
##ዳለን
artic
en
ፈሪ
የኮቪድ
የአውሮጳ
##ሰሉ
ለዕ
በፓርቲ
ሀሳቦች
መሄ
##ቆን
ለሥራ
ፎር
##ክሳ
##ረባ
ለጠቅላይ
በሶማሌ
##ልጣኑ
ያነሰ
ባህርይ
የገለፁት
ለምት
በምሳሌ
በጥር
ለጋዜ
##ሞራ
##ጃል
##ተሪ
ማምረት
በከተማው
##ነሪንግ
ማዋ
ከማንም
##ሮቢ
##ዘረዘ
ይደርሳል
ነቢዩ
ሲነሳ
ዋሽንግተን
ዞር
##ይንኛ
##ዉሞ
ሆስፒታ
ባላባ
ፊልሞች
at
ድፍረት
##ሻቸው
##ሪያል
እንደሚያደርግ
አንደበት
የሚወጡ
አስጨ
ከስድስት
ያጠ
በአር
ያሳስ
የሃገሪቱ
በዚያም
መስፋፋት
የነጻነት
ተቃውሞውን
##ወለዱ
ፍራፍ
ታኅ
##ፈረው
የማጥ
አግኝቷል
ምስክሮች
በወቅታዊ
more
አህያ
መሆኑም
ሽንፈት
ርእስ
##ማና
##መጠ
##ጸን
ሚስጥር
ፍንዳ
##ነርጂ
አያውቁም
4ኛ
##ፓርት
ገበሬዎች
##ከኝ
ዩንቨ
ጸሎ
ዓይነቶች
ታስረው
ሌሊ
የተነገረ
ኢንስቲትዩት
##ደሉ
ታሪኮች
ስታድ
ይስጥ
##ዝነው
የብሄራዊ
ስለምን
ማነ
ልማታዊ
ባለፈዉ
ዩኒ
##ፀን
በሚሊ
ስድብ
ቦይ
ታጋዮች
አግኝተዋል
ከራሱ
ፍቅረ
በአማካይ
ይገባናል
ሰራዊ
እሴቶች
ያካ
የመደ
ለራሳቸው
በተቻለ
ትዝታ
58
ጎረቤት
ለመደገፍ
##ድረኩ
##ክርስትያን
##ዕም
መውደ
ዝርያዎች
ከሚገኘው
አለብኝ
እንደደረሰ
##ሏን
እያልኩ
መስጊ
የበዛ
ይበል
የድሮ
የቅድመ
መብቱ
##ይንት
##ተወ
##ዬው
ከመቼ
የሞተ
ከነገ
##ፈጸሙት
##ስማሙ
ቆጠራ
አፕ
ደንበ
##ዦች
##ግት
የ5
##97
ይገኝ
##ዋሲ
የቴሌቪዥን
##ካሽ
##ፖርቱ
አረመኔ
የሚከተሉትን
ለአሜሪካ
አይታወቅም
ይከፍ
##ዘርጋት
##ቲካ
በጭራሽ
ከማለት
መጸ
ድሃ
##ሎቻቸው
የህዝብን
##ባራ
ክርስቲያንን
##ረሙ
ማቆያ
##ዳደሪያ
የአማራን
ቀዳማዊ
##ጅመንት
ከማይ
የፖሊሲ
የምዕራብ
ብርሀ
##ሰኛ
##ሎቹን
የሚናገሩ
ካቢኔ
በማሸነፍ
ትተው
ከእነ
##ካቲት
##oo
ጥቅስ
##ስትን
ማውራት
##ሪኩ
ያስደ
ተመራጭ
57
ያወጣው
ከፀ
##ብርብ
የአድዋ
ከነበሩ
ተጫራቾች
የሚገባውን
አፅ
##ጋታ
መሃመድ
መድሀ
ሆናለች
ኮሜ
##ቀረው
ቀረበ
አልነበሩ
በኢንተርኔት
ከ8
ቁርጥ
ተጀምሯል
ሲመጡ
ዘላለማዊ
ገጣሚ
ብሉ
##ቋቋሙ
##10
##ቶታል
##መዉ
ዮሐ
በና
##ታቸዉን
የሚመስለው
##ደረስ
የድል
##ችልበት
ኢንጅ
##ማመጥ
ሚስተር
ከ50
በአፍ
ደረቅ
ፀሃ
ዝምድና
እጁ
ከዳ
መንግስትና
ቀጣይነት
ቬለ
##ቻቸዉ
እናመሰግናለን
በተፈጠረው
ከሆነው
ቡድኑን
ሕጎች
ይጠፋ
##ቀዉ
አመቺ
ኩራት
##ጥለው
##sun
አበባው
##ግለሰቦች
##ቀበሉት
ታምራት
##ዳጃ
ተጠቁሟል
ሞል
##ሪም
የፍትሕ
ከሰማይ
ለዚሁ
ሲደ
ትገኛለች
መመዘኛ
አሪፍ
መፈለግ
##ሣት
ተጫው
የተጠረጠሩ
ዋለ
##መሠ
##ዋለ
##ራሚ
ኦሮምኛ
በማኅበራዊ
ቃጠሎ
##ውረድ
##መናችን
ከትምህርት
ባለመብት
ግራም
ለማንም
##ላቹ
ብዙዎችን
እንዲቆም
ያለኝ
የማህበረሰብ
ተምሳሌ
##ቀበልም
ለትምህርት
የሆን
ያህሉ
የሺ
ሊደርስ
##ቪስ
የጀመር
በየደረጃው
ስብሰባው
ተቆጥ
አቢ
ፀጋ
የሌለበት
ይነሳል
አጼ
እያየን
ከአንተ
በአንፃሩ
የተሳካ
በወን
ለስራ
ያረጋግ
ሁለንተናዊ
የውሳኔ
ነጠላ
ስላሉ
ማስረጃዎች
##ርዱ
ከተደረገ
##ክሲኮ
የትግራይን
ለረዥም
ጠላቶች
የእሱ
##ልጋ
በትዕ
አቋር
የፈለ
##ልሽ
##ኢአድ
ሰማዕ
የ10
##ጣና
##ጀምረው
mon
prev
ሪፖርቱ
##ታቱ
የአፍ
አመተ
የስብ
በተዘዋዋሪ
ዐይ
##ስቱም
ከሊ
በየዕ
አስተዳደራዊ
ሀገራቸው
ህፃን
##ጎብኘት
##ገሙ
##ድማ
ይታይ
ዘግይ
የተካ
የምጣኔ
ንግሥት
እግርኳስ
ልቡ
##ዎቿ
የሚከተሉት
አንዲ
##ሰማራት
ወቅዱስ
ተደም
ግለሰቡ
ለመታደግ
ያስችላል
ሞላ
ቅርሶች
ለሞት
ሲቪል
##በኝ
ለሰላም
##ሳና
##ችሁም
ቀነ
በስር
ይዩ
መድሃኒ
መስጫ
በ8
##አለም
ሰሌ
ሲገቡ
ሳው
article
##ኪዎች
ለቀው
##ረዳን
ለመዋ
ፎቶግራ
ሰምተናል
##ፍነው
ተጠቃሽ
ያካተተ
ከሌለ
##ጽፍ
##ከተሉት
##ገራቱ
የሚፈጽ
ንጹሕ
በተለምዶ
ፍን
በተዘጋጀው
##ሪስት
ተደራሽ
##ሚር
ምስኪን
የሚያደርገውን
##ንቁ
መውጣ
##ateg
##ዌር
የልዩ
##ዓሉ
እርሶ
የተቀመጠ
ተፈናቅ
ሽፈራው
እየሰጠ
አደረጃጀ
##ስታዊ
ወሲብ
ተመን
##ቤትነት
ሦስተኛው
መውጫ
ማእከል
በንጉ
ጎብኝ
ፓለቲካ
የወረዳ
አስች
##ማራው
##ግለፅ
ethiosun
ይቅርና
##ጨነቁ
የተቀናጀ
ማጠናከር
ተሸላሚ
##ሩክ
##ዽያ
##ጠናቀቀው
የክርስቲ
ተደርገው
##ቴው
የማይወ
##ሰብን
##ከንቱ
ሰንበት
በፌስቡክ
በሥነ
የጠቆሙት
##ምቢ
ለመፈጸም
ወንበ
##ጻፉ
aug
ህገመንግ
##ዱሳን
የከረ
ያነጋ
ወቅትም
ፀሐፊ
ማንን
ተኩስ
ርዳታ
በመሳሰ
አፍንጫ
##ክላ
የምስል
ዐቃቤ
ዓብይ
##ኤታ
የክርስትና
ይታያሉ
ፕሪሚየር
በጐ
የዜጎችን
ይወጣል
በታላቅ
ያደረገውን
በአሸ
ጋብ
##ገለጠ
previous
ድክመት
የንብረት
##ሰዉ
የገቡት
የሚሠ
ክፍሉ
ሰጭ
ተዘር
አሉኝ
የገና
150
##ዓተ
በጉጉት
የሲቪል
በድፍረት
ማሰል
ወራሪ
ግባ
አቀረቡ
ቁርጠኝነት
ያለአ
##ቻች
##ሪሁን
አለመረጋጋት
አፍሪካን
በአፋር
የጎደለው
ትጥቅ
ጤንነት
ዓርብ
መንግስትም
ነቢያ
ከሲ
##ዘዙ
መናገራ
እንዲል
ለፖለቲካ
ሊመጣ
ተኝ
የተሰጠውን
አድናቆት
##ሰኝ
አክሊ
የተነሱ
አገልግሎቱን
የፊት
ወያኔዎች
አውሮጳ
ሞቱ
##በክ
በረከ
መምህራ
አፋር
ከዶ
##ዋለህ
##ቄት
በአቅ
ደደቢት
በጥብቅ
ውሳኔው
የ4
የቆዳ
አሜሪካን
መፈጸም
እሴ
የአረብ
ማዕቀፍ
የምስክር
##ንፊኔ
ተጫዋቾችን
ኤርትራውያን
መመርያ
ባስተ
ታዳሚ
ጾም
አውጭ
በፊትም
##ሰጡት
የሚቀርቡ
ፕሮጀክቱ
እየዘ
መፈንቅለ
እናያለን
እንደራሴ
##ግሉ
በአንጻሩ
to
##ከፍት
ገብነት
የሚጠራ
ቃሉ
##ዜአ
አርማ
ተመልካ
next
በተካሄደ
አባላቱ
አነጋጋሪ
የባሰ
እዚሁ
##ለዩ
የአላህ
ከኔ
##ክትል
አልሰማ
ከጨ
ብሩህ
ለ3
የበር
የተዳ
ተፈላጊ
የታየው
##ዕቢያ
የሚሄድ
በወንጀል
##ድገትና
በዕለቱ
##ግቦ
##ሾም
መግለጽ
ውስጥና
አፈና
አሮጌ
በአው
መብትን
ከመጠን
##aper
ይመሰ
##ኒስቴ
በእሱ
ድርጊቱ
ሞዴል
መቋ
ለማም
##ቀች
##ህያ
ሞትን
ቸል
##ያንን
ገጠመ
ፅሁ
##ቻችሁን
##ኞቻችን
የተዘጋጁ
ታዬ
መታገል
መዝናኛ
##ዝማች
##ፕላ
##ess
አስፍ
2003
ጭም
##አቸውን
ያገኛል
##ዢው
በሶማሊያ
##ብኚ
የትግሬ
##ጀንሲው
የጨረ
##ዳድሮ
##ላለፊያ
##ጌል
##ይረ
በመውጣት
እንደሚደረግ
ሊያሳ
##ሪድ
ንጉሱ
ምዕመናን
##ሸማ
ወዳጅነት
ቢኖሩም
##ፍጥ
##ህኒ
የበላይነትን
##ሳትን
ፕሮፓጋንዳ
የሚያረጋግጥ
መምጣቱ
ብጥብጥ
ማዳበሪያ
ዕጩ
አቀንቃ
##ላዊነት
##እም
የተናገረ
እየተቀ
ጣፋጭ
የማጣ
ገልፀው
ወርዶ
##ገረው
##ብሊ
እያወ
ለውጡን
ጓደኞቼ
ሐረር
የሚነገር
ተለያይ
##ገበር
##ልክት
እነዚህም
መሰብሰብ
ውክልና
##ዘነጋም
##ers
የኢት
ትውልደ
ቤቴ
##ከሙ
ይግባኝ
በየዕለቱ
ሱስ
##ቸገሩ
በ15
የቀጠ
##ኖሩበት
የዕድሜ
##ሳትና
##ገሩን
##iv
ማንንም
##ስቲንግ
##ከናውን
59
ፌደራል
##ዋጋ
##ፈጽሙ
ሞተር
##ጂታል
ማህበሩ
ሚንስትሩ
##ኮስ
እየተን
ተከላካይ
##ስቲክስ
##ሰባችን
በቅርበት
ምትክ
እውነቱ
ተጠርጥረው
##ምፒውተር
##ራጥ
73
feb
ፀጉር
መጠበቂያ
##ጣለሁ
##ቦራ
አይደለችም
ሜይ
ቀዶ
ቤትም
jun
ተለይቶ
አስከት
##ሰማን
አግኝተው
ግድግዳ
ጠቁሟል
የዚያ
##ጎልበት
##ሚካኤል
የትዳር
በውስጥ
ወኪል
ቀጠለ
በውሃ
ትራንስፎርሜሽን
ችግራ
መሰረ
የይሖዋን
አላም
ኦሎምፒክ
ይድረስ
##ደበት
##ስኮስ
ጭካኔ
##ዋው
በሌሎችም
ለመወጣት
ጽዮን
##paper
ተጠም
እንድትሆን
እንደማን
የተጠበቀ
አባተ
በሕዝ
ህዝባችን
##ድረሱ
##ጋዴ
መልሱ
የብአዴን
ህንጻ
##ግቶ
##ቅቅ
በምግብ
ያደረጉትን
ፈላ
##በረከተ
ትክክለኛውን
newspaper
##ቸውና
ሰይጣ
መሻ
ከልክ
##ረዉ
ዳይሬክቶ
##ፋለች
በኢትዮጵያና
##ታችሁን
በመከላከያ
##ልኛል
##ደያ
የደብረ
ከዚ
##ጣለን
##ጡና
መረጃው
ለእነዚህ
ተግዳሮ
ዉሳኔ
የአደጋ
በከተ
የሰማያዊ
##ልጣኔ
ለወጣ
ፎረም
ለማሟላት
የተመለከተ
መብታቸው
##ህዴን
ይገባቸዋል
ሕይወታቸውን
አልነበሩም
##ጠቅላላው
ማዘጋጃ
በአራ
የሚመሩት
##መለክተው
ትግርኛ
##ቢነት
ያቆ
##መስገን
ለህዝቡ
መንግሥትና
ከ7
##ረሚያ
የፊታችን
ክፋት
በማንሳት
##ረቢያ
##ሜናዊ
በተፈጠረ
የመጣውን
ያስፈልገዋል
መብላት
ከተማው
ያንብ
ዱላ
ማስቀመጥ
አማረ
የክልሉን
ታሳቢ
##ወጣም
ነገረ
ጠየቁ
በእናንተ
የመለስ
የቦርድ
is
አፀ
አባላትና
አድርግ
ዳግማዊ
##ገንም
##ቡባዊ
ከግማሽ
የዓለማችን
በተስፋ
ሥም
ግማ
የሚሰጡት
በነጻነት
መቆየት
ተሃድሶ
ቸር
ቻይንኛ
ማራኪ
እንቆ
የዕለት
##ዘዋወር
##ጭቱ
በዚህች
ምክክር
ልያ
እደ
በትንሹ
ነገሥታት
ለመምራት
ቄስ
##ኑና
ላለማ
እንዲፈቱ
በአት
የወር
የሚገኙትን
መኖራቸው
ተቆርቋ
##ርእ
ባጠቃላይ
ታወቀ
##ርቷል
##ተመ
የሚጎ
ትምህርቶች
እናገኛለን
አካባቢውን
በአንዱ
መቆጣጠሪያ
በ7
ወያ
በሚሊዮን
አበባና
አስገንዝ
ተጠየ
ፈፅሞ
የሚመረ
የልጅነት
በውል
ኡማ
ኮፒ
##ሮኮ
##ዮሽ
ለማገልገል
እኒ
##ደስት
ከእሱ
ባሳለፍነው
##ሹራንስ
አጋጥ
መንግሥቱን
ማርች
በቪ
በአመ
ማከናወን
እንደገለፁት
##ሱትን
ቁማር
ያዋ
አብዝ
አደጋው
##ፈሻ
ለመቋቋም
ተከራ
ተግባራትን
for
ቆም
##ጅጋ
ከለ
አንድነትን
መለኮታዊ
ሰጡ
የፕሬስ
ተሟጋ
የአፋር
ቴክኒ
##ናድ
የናይ
ለመለየት
ለመጠየቅ
ሥራቸውን
አለመኖር
ከሱዳን
መደገፍ
አይዞ
##ይማኖታዊ
##ባትም
##ሺያ
እገዳ
አላስፈላጊ
ማል
አንገት
መልቀ
##ቨርፑ
ይገለ
##ነቱም
##ንተና
ህብረ
መሳይ
ይጋ
አድርጓ
እንዲመጣ
ከሕዝብ
##ስታው
##ለውጥ
ቢታ
አይቀሬ
##ዱትን
##ያሌ
ናይጄሪያ
ኤርትራዊ
ድካም
የነፃ
ድርጊቱን
em
##ጅቶ
የሚጋ
##ዝናብ
ቁሳቁሶች
ሕያው
የግራ
የተሞ
የቆመ
ከይሖዋ
እያን
ጥናትና
አሉን
በውይይቱ
##ሯቸውን
ስፍራዎች
##ቁና
ወይን
ያፍ
##የኝ
ምግቦች
ሚድያ
ብለሽ
ይሰጥ
ልጇ
ለማጣ
##ሣሥ
oct
ኤኮኖሚ
ከሆን
ይሞታል
ተኩል
ፍትሐዊ
ቤተክርስቲያ
መርከብ
##ተኮር
ወቀሳ
ህዝብና
##ቸን
የተሠ
ቦምብ
ሆነህ
ሚኒስትሮች
ዘርፈ
ግርግር
የትኛውም
በትኩረት
ማገልገል
ካገኘ
##ሽር
መስዋእ
##ጋቱ
##ሰራጨት
መናፍ
ከጠቅላይ
##eg
ተፅእኖ
ሳዑዲ
አለሙ
##ከፋፈ
ለሰዎች
ቃሉን
አከራ
##ኖት
ከመካ
ክምችት
ካሣ
##ከፈለ
##ዳጅነት
ሀላፊነት
መፈክር
መጓ
ከደረሰ
ፍሰት
የሚረዱ
ተዘጋጅቶ
ቁጥሩ
##ሟን
##ቃይት
##ድባ
ማስተር
አየለ
ላሉት
##ፈሩት
ብርቱካን
ገበያው
##ድንም
ተቀላቅ
ክብርና
ዲዛይን
ህጎች
##ጠፋም
አውሮፕላኑ
የዮ
##ዲያን
##ሷቸው
መወጣት
እያለች
##ሸነፉ
ፈጥሯል
##ጠሙ
የፌስቡክ
ባለሃብቶች
ያቃ
የሚመለከታቸው
##ዖት
በምሥራቅ
##ስክሌት
ለራስ
##ሮንቶስ
##ሳዊው
እንዲሰሩ
ፌስቲ
ማስተካከያ
##ከባቢ
##ግረው
ምድራዊ
በዘላቂ
##ዘርፉ
ተነጋ
ኢብራሂም
የነበረችው
##ክተሮች
ሊቢያ
መደመር
ቦርዱ
##ሽከርካሪዎች
እንጠይ
ጊዜውን
የጂ
ጉዲና
አንስተዋል
ደረጀ
ለግል
የሉ
##ዴሞክራሲያዊ
የረጅም
ይመለ
የተዘጋጀው
መመርመር
ፌዴሬሽኑ
ተገደ
የዚ
2021
የገደ
ከአውሮፓ
pm
##ባኖስ
##ኦን
አዋጁን
##ሰባሰቡ
ለፈ
መወሰን
ኢራን
በፈረንሳይ
##ሄደው
በ196
ስልጣኔ
ያሻ
ፓትርያርኩ
መሞት
ግለሰቦችን
በማየት
መጥቀስ
ለመንግስት
jul
እዝ
##ፍተው
##ኳት
ካለፉት
ጡት
ራስህን
ባደረገ
እስልምና
በዩኒቨርሲቲ
##ፋሽ
ለመለወጥ
አመላ
አስቂኝ
##int
ለጠ
ቁል
ጊዜና
ማድረጋቸውን
አውሬ
##ቀናል
የደስታ
መላክ
66
በልማት
የዜግነት
የሉም
##ነፈ
በግብርና
ቀዳዳ
እንዲቀርቡ
ኢንተርፕራይ
የኖር
ማተ
##ስው
read
##ሳእ
##ጎስ
ነገሥት
የተሰጣቸው
በታላቁ
##ነበብ
ሦስቱ
አገልጋ
##ዋርያት
ይገመታል
##ከበረው
apr
ዘግና
##ደኝነት
የሚነግ
##መሰረት
##ነጋገሪያ
የግንዛቤ
##ቶቼ
ምርቶችን
##ንቀቅ
##ካሂድ
የተቀመጡ
በትናንትናው
##ሌክትሮኒክስ
ተሞ
ክረምት
የየራ
እንበል
ከቡ
የመሠ
አምኖ
##ፈልጉት
##ያየ
##በቁ
ተይዟል
አልሆነም
##ሸመኔ
##ወስደው
ማድረጋቸው
ነግረው
ባልና
ከሜ
ካናዳ
ገንዘቡን
ማሻሻል
የእንስሳት
የሚያውቅ
የፎቶው
ክህደት
ወልቃይት
85
##ሳም
ያስከት
##ብረተሰቡን
##ዘበ
በማዘጋጀት
##ዘት
መርዳት
ፍቅርና
ጥምቀት
ጥቂቶች
ፈጣ
##ሮጥ
ውድድሩ
ይዤ
መርሆ
ያገኙት
ነዎት
እርሷ
ያቀረበ
ሰዶ
መመዝ
##ገጃ
እንደየ
##ጠልም
##ቀዱ
በወንድ
እንደሚሰጥ
ትግራይን
አወቃቀር
የሞባይል
አከባበር
##ልፈው
የእስር
የቀበሌ
##ባብዌ
ከ100
ለመቀጠል
ዘፈ
##ሩበት
እንዳሳ
##ጠቃለያ
##ጻቸው
የሚናገረው
የመከራ
እንደሚታወቀው
ሰንሰ
በዉ
የለባቸውም
እኩይ
ሐገራት
##ርካ
የሥር
የአመ
ፍቅርን
ግሩፕ
##ዴታ
ሰሎሞን
ጆርጅ
መልአክ
ኅብረተሰብ
ኢትዮጲ
በተጨባጭ
አሳድ
አስተያየታቸውን
##ማሬ
##ጻፉት
የተፋ
##ለክ
##ፈጥሩ
የተቀረ
አይዘነጋም
በጋምቤላ
ካምፓ
በዝም
ስራቸውን
በመስቀል
##በቅ
አንጋፋ
##ጫወቻ
ነውን
ባካሄደው
አብር
ስነስር
እየመጣ
ከስር
ሀገርን
የመፍትሄ
##ፋችሁ
ለማጋ
ለመሳተፍ
ችግኝ
ዋን
ጽድቅ
##ሽከረ
ችለናል
##ንታዊ
አስጠን
ለማስቆም
##ence
##ገጣ
##yr
ሲሰጡ
ጨረ
መንግሥትም
ጄኔ
በፈረን
##ረረ
##ራህ
አለበለዚያ
ይስማ
##ለትና
con
##ኗን
የምትለው
##ለቀቅ
የማኅበራዊ
ባሰ
የሰጠውን
##መሰግ
##ቀሰው
ስለሆን
አንዳችም
ጥያቄውን
ሊያደርጉ
በልጅ
ጅብ
##ባርቅ
ኢህአ
በህዝቡ
ነጋሽ
አደረሰን
ብለዉ
የመማር
ተጠቅሷል
ሲሄዱ
አክለዋል
##ኖራት
አላችሁ
ተዋናይ
##ችዉ
##ደርጋቸው
አካላትን
ፍላጐት
ሽጉ
የልማ
መድረኩ
የራስን
ህወሓ
ተወያዩ
መስኮት
ሥርዓተ
##ሽናል
##ቀዝ
እንደኔ
ጥናታዊ
ለምርጫ
##ደዋ
ይሰማኛል
ሀገሪቱን
##ሚኒየም
ፅጌ
##ቃዋሚ
የሚኖሩት
ማንዴ
##መቅ
ጌትነት
ታም
እንዲካሄድ
ሀዘን
ለማሸነፍ
ያስፈልገናል
ይከተ
##ስል
አይነቶች
ከመሬት
##ሸር
አረጋዊ
ኤርሚያስ
የማታ
##ow
ሆነች
ዋሻ
ጠጅ
##ቴጌ
የመጀመርያው
ለመል
ተይዘው
በማሳየት
##ጠረው
##ዮርክ
##ዘመ
አይተው
ይቀበ
##ታሪ
ለመቅ
##ቬይ
##ክሌር
በጎርጎ
##ac
##ገንጠል
ካን
የሚያወ
##ሊንጦ
##ይሉ
የመም
አቀፋዊ
##ዛጋቢ
መንግስቱን
ቀበ
ብሮድካስቲንግ
##ቆረ
ውህደት
ብይን
ዩኒቨርሲቲው
##ፁን
ኮንፈ
ዳይሬክቶሬት
ቀኑን
##ክራል
በማለ
አልኩ
በቤተሰብ
##ፍረው
##ህተት
##ከፍሉ
አክሱም
መኪኖች
##ቶሊ
በአውሮ
መቁረጥ
##ሳችሁን
##ገቢያ
##ቋርጥ
የሚሆነውን
##ግዜ
ለፌ
ቴአትር
ለጥቂት
ለሴቶች
##መረቀ
ሀቅ
ያካት
ይጠበቅባቸዋል
ከኋላ
##፱፻
##ነውም
ደረጃውን
በመቀበል
እንደቀጠለ
##ዲድ
##ደንቅ
አዴፓ
ፈረስ
##ላሊት
እንዲከበር
ዝምታ
ትችላላችሁ
ዓለሙ
ሐዋርያት
##ውኑ
##ኋቸው
##ገባኝ
ሳላ
ስምዎ
ተረጋግጧል
የአስተሳሰብ
ተኩ
##ሣብ
##ግልና
ሹመ
በመሬት
አስተናጋ
ተነሳሽነት
##ይስጥ
##ዜብ
አጥንት
##ጋቤ
በቋሚ
ሀብታም
##ጥብ
##ምንጭ
##ምባገነ
ማመልከቻ
ቴክኒክ
ይወድ
ይዴይ
አባልነት
ይዴይሜ
የአብይ
የልደት
##25
ይጠቁማሉ
የሚመስል
ተዘግቧል
##ውለው
##ዩተር
እናቱ
የሚመነ
##ሙላ
ባለሙያዎችን
ለሕዝቡ
ይጠቅማል
የሰበ
እርካታ
##ገምገም
ምሥክር
ከጅ
##ፌሰር
የጎላ
##ባና
ስንዴ
በየአመቱ
እባክህ
##ቅሶ
ትሪ
##ዳለሁ
በበጎ
##ያችንን
##ሪያቸውን
በቀጣይም
##ምቀት
ኢንዱስት
##ኖን
##ቀውም
የሕዝቡን
##በታለሁ
በባህርዳር
##ዓል
ውለታ
##ለማሪያም
ሜዳሊያ
አይቼ
የሚጠራው
ሊያስከትል
በሕዝቡ
##ዕለት
በቁር
በድርጅቱ
በዛሬ
##ጮቹ
##ዬት
##ሙርት
በመው
2000
##ጠቱ
የበቃ
##ist
##ቂያው
በማግኘት
በርከት
የወያኔን
##ክራሲ
ቅዱስነታቸው
መርዝ
መከል
እንዲወ
በአፋ
ከተሰ
##ለስላሴ
ኮቪድ
##ባዔ
##ሏቸዋል
አፍሪካውያን
ለማሰ
##ሏቸውን
##መልሱ
ለመንግሥት
ጎረቤ
ማስተካከል
##ታላችሁ
##ኖሩን
ለማስቀጠል
በመቶዎች
እመቤት
ደርሰዋል
##ቂቱ
##ጫት
እንደመጣ
ያስታወ
ተመልከቱ
ዮናስ
የተውጣጡ
categ
600
##ራጮች
ጋዜጦች
##ረህ
በመምጣት
##በሱ
ሀገሬ
ክርክ
አካሄ
ዛቻ
##ቦላ
መዛሙርቱ
የሚሰራው
ማዕቀብ
አንድነትና
##ዝያ
ባሕል
ሙከራዎች
ሳታ
እንሰ
ያመላክ
ጽንሰ
ስብከቱ
ወዳጆች
cop
በእንግሊዝኛ
ለሥ
ይቀን
##ብሎስ
ኢትዮጵያዊው
የሚባለውን
በመረጃ
##ኒሽ
የመጠጥ
ፕሬዘ
##ዳለች
የቀረው
##ታትና
##ሪያን
እውነትም
የመሳሰሉትን
የሚገልጹ
ቢደረግ
##ንጅ
##ላኩ
ለመስማት
##ገነዘቡ
እግዚአብሔርም
ክርስቲያኒቱ
መኾ
ሰዎቹ
መልሰው
ማዕከላት
ከጠዋቱ
al
በድል
ይሉታል
ማኅበሩ
ኢትዮጲያ
የህዝቡ
ጭራ
በመቅረ
ይሁኑ
##ሸሸ
ለመጠ
በነበሩት
የተሾ
ጋርም
አክሲዮን
##ብራይስጥ
##ቱአል
የሙቀት
መራራ
በድርጊ
የሚመለከተው
ተማሪዎቹ
መቃወ
ብሄረሰብ
ቴድሮስ
አሰባ
ወሰነ
የአርበኞች
ሀይማኖት
##ልዎ
##ሕአ
ያስቀም
በስነ
አስተዳደርና
አቅርበው
ገብሩ
##መዳን
የተማሪ
የሚሰጠውን
ይቀርባል
የአቋም
ይወስዳል
የሚጨ
እያንዳንዳቸው
##ላችኋል
ሀብታሙ
ኣስ
ጉራጌ
መፈጸ
ማፍ
ቻር
እናምና
##ደሙ
አስብ
በጉልበት
የቱርክ
ቆመው
የተገነባ
በጥቅሉ
አስፈሪ
##ቆቹ
ልኡ
##ዋሽ
##ቆጠረው
አማኑኤል
ፍቃዱ
sep
ሃሃሃ
ሲወጡ
በጥናት
የታዘዘ
ለሐ
ስብሃት
በእውነቱ
ቅኝት
ለህዝ
የተከበሩ
ch
ሙላቱ
መቀመጥ
ሮም
##በቡ
ባለመቻሉ
ጎልቶ
ካሳሁን
ቢኖርም
ደማቅ
አድሮ
ለሌላው
ይባል
##ሪዎቹ
በመወ
ዋጋው
የሚበልጡ
ጣቢያው
አባላ
ይዠ
በሥልጣን
አየሁ
##ራኔ
አብራ
##ንቅስቃሴ
ረሃብ
እዚ
##ርዳ
##ጠራጠር
ደሴት
ጠገዴ
መውሰ
ፓቭል
የተመድ
##ገኘዉ
ይደግ
##ናችሁ
በአካ
በአዳማ
በመጠበቅ
መጻሕፍ
ላንተ
ቢን
##ስትሮ
ፈልጎ
አልተቻለም
ከብት
የዘመን
መፈናቀል
አገላለጽ
ሁን
የተጠየ
ጠባይ
##ችኝ
##ዝናኛ
ሕይወታቸው
ቀልብ
እንደነበረው
የግሪክ
ህግን
ተከተል
ዜጐች
ያበቃ
##ከመው
እንጠይቃለን
የጣሊያን
በጨለማ
በደረ
ገመድ
እየነ
##ስታዝ
##ፔን
##ተክ
##ዱበት
ፓው
ደረጃን
አውቶቡ
ኮንግረስ
በግለሰብ
##ናውቅም
ተሰና
##ንሶ
##ናም
##ጩን
ነፍጠኛ
ሚኒስቴሩ
ባራክ
ርብርብ
ካንተ
ፈሳሽ
##ወሰደው
ጸጥታ
አጥፊ
ለንደን
ናትና
በተመ
ባለመኖሩ
##ብርሃን
የፍልስ
የዞኑ
ተጠናቀቀ
እናምናለን
##ሻሻለ
የተደራጁ
ምሳ
##1ኛው
የወሲብ
ቀደምት
##ደሱ
ሙያዊ
##ብቆ
##ገድል
ስንመለከት
አጠቃቀ
ትዊተር
እንደዚሁም
ፐር
መንገዶችን
##ሾፍቱ
በመቀሌ
##ዝቃዛ
ሸለቆ
ያጠና
በቀረ
ምርጫውን
##ኛዉ
##ግባባ
መጻፍ
የነበረበት
##ብዳቤ
የቀረበውን
ያንብቡ
ለጤና
ወንድሞቻችን
##ነዝ
ስለእ
መጠነኛ
ሆቴሎች
##ባውያን
##ሄት
የሚሳተፉ
እንደሚባለው
የማይቻል
##ታገ
##ወርክ
##ኃት
ሳይቆይ
የትውልድ
##ሃም
የሚጥ
የእኛን
አብይን
##ቡነ
የተማሪዎች
ለማይ
ትምህርቱን
የሚያውቀው
##ባረር
መጣል
ግብይት
በበረ
##ድቡ
አነጋግ
የመነጨ
ዳግመኛ
በመኪና
ስምምነቱ
ቆስ
ባልን
ተሐ
##if
##ጫቸው
ትክክለኛው
ጀመርኩ
የሰዎችን
ከሸ
የዱር
##ኩሪ
##ንናእ
ማስተላለፍ
ከሰዓት
##ባበሪያ
ፍቺ
##ዋወቅ
ልዟ
ልዟይተ
የሚሻ
ትልቁን
የሚያጋጥ
##ድጉ
ለግብ
ተንናእ
##ፃፉ
##ጩት
ሃላፊዎች
ተገኝቷል
##ትሞ
በአሁን
ለአምስት
ቤትን
ክህሎት
##የታቸው
ከተቀ
የማይቀር
እልባት
ከግብፅ
ሶፍት
ላላቸው
የሚጠቀሙ
ባለን
ያሳያሉ
ቀድመው
ምለ
95
የቤተክርስቲያን
ለዚያ
##ርምያስ
##ክራሉ
የሚነሳ
በከንቱ
የኢትዮጵያና
ለመው
ነበርን
እንደሚኖር
እንደሚቀጥል
የሐሰት
##14
##ዘረጋ
##ቃቅ
አይተ
የቱሪዝም
የስብሰባ
የተቀላቀ
ከኦሮሚያ
##ፎርም
በስም
##ጠጡ
በሚደረግ
ሰሌዳ
ቁልቁ
ያዩ
ጨረቃ
##ቁበት
የአምስት
የኦሮሞን
ድርጅታዊ
ኢህአዴግን
##ምባብዌ
ሃገሮች
##ሌቲክስ
አምጥ
የጎዳና
በባሕር
category
መነኮ
መፋ
ከለላ
ባለአ
ምንነት
ሊወ
አበይት
##ጠፋው
ይታመናል
##ሥቱ
##ጽሐፉ
እላ
##ፌኮ
የመስቀል
ሜጋ
ስሎ
ሳይኖር
ተቃር
የማዕድን
አሜሪካዊ
ይወሰ
ምድርን
መመሪያዎች
መስፈርቶች
##ግስት
ትነኝ
ያገባ
##ዋቸዋል
##ላይነት
ሁኔታን
ብልሹ
በዕድሜ
በ2008
##ርሳ
የሚበልጥ
ብርቅ
ከወንድ
የኒ
##ምግባር
##ነነ
እስረኛ
##ናውቅ
##ስተናገ
ለመማር
የወረዳው
##ድሮክ
በዘላቂነት
##ችሉት
ለተጨማሪ
ትናንሽ
በመላክ
ከመስጠት
ጎጂ
በእጁ
ፍራፍሬ
##ላጅ
የተገ
ሁለቱንም
##ጠራል
ጋሽ
ኦፊ
##ንፍ
ዓባይ
ወለ
በምርጫው
##ፋለን
የተመረጡ
ቁሳቁስ
##ዕለ
የገዳ
ጥቃቅን
ለሦስት
ከማሳ
በ2009
ጉምሩ
##ቅስ
##ሓት
ለወያኔ
ጢሞ
እስከተ
##ገደድ
ከክርስቶስ
ልጃቸው
##ጥታው
እየጎ
ደጋግሞ
##ርተዋል
ትምክህ
ናግ
የተፈፀመ
ልያታይ
##ረትን
##ጣለች
አደለም
ይቀራል
ያመለክታሉ
ነፋስ
ቦታውን
ህንድ
ንክ
በመከተል
##ግባቸው
ኮርያ
##ዝዳንት
ይከፈታል
ሄጄ
ሊሰጠው
የጀር
በአንደ
##ታውቅ
ሻይ
ፀጉ
##ውአ
ተከስቶ
አለመቻ
ሕግን
አውራጃ
ባለሞያዎች
##ጢያት
አውደ
ለከፍተኛ
##ሲባዊ
##ፀው
ተናግረው
የምናየው
##ሀፊ
##ዋሉ
ሜት
ጥስው
የሕወሓት
ተፋሰስ
እንግልት
##ዱላ
##fer
በእነሱ
የማይታወቅ
##yright
##ቲንግ
##ክቶበር
ለገሰ
ሰራሽ
ሐብ
ጄነራል
##ሜትር
በኮቪድ
ከባህር
ለመክፈል
ለመመስረት
##ደሚያ
##ረሪ
ስሌት
##ወልድ
ይሠራል
ይሰማል
ክብረት
የአለማችን
እንደሚሰራ
ከመቀ
##ጋኒ
##ኮላ
ከራስ
ምለደይአ
አቤል
ከአካባቢው
አስኪያጁ
##ፈስያአ
በድምሩ
ሞልቶ
አይሁ
##ኞደጓ
ባለቤቱ
##ገልበጥ
ይሄም
ወለል
##ፎቹ
##ከትና
አፍቃሪ
የሶስት
መከሰ
##ጋድ
ማህበረሰቡ
##ስቷል
በተሰጠው
ማገ
ፋይል
ጫት
የምዕራ
ዘግናኝ
ፍጥረ
##ቪያ
በነገው
የሪ
##ተቱ
በምታ
ሎት
እድገ
ኣንድ
ብሔርተኝነት
በጸሎት
ይሰራሉ
ገር
ውጤቱን
ያፍክ
አሰልጣኞች
ለማንበብ
መኮንኖች
በፓርላማ
ተገድለዋል
ማዳን
ከፍተኛው
አውቆ
ተከል
##ወክ
ይግ
##ዋሎ
ጁንታ
እንደሆነች
ጭብጥ
##ሆንበት
የሚገርም
ሱርእ
ዘሪሁን
ኢትዮጵያም
##ቪክ
##ደረው
የሆነበት
ናሙና
##ሃሴ
ተመስርቶ
መከፋፈል
ሲገኝ
ስሞች
እት
አይተናል
የእውነት
##ተሩ
ሙሽ
ፊደላት
በያዝነው
##ቀላ
በትክክለ
##ሉንም
##em
የመላ
ማጥቃት
ይህችን
##ታዊነት
በቶሎ
##ማኝነት
ደንበኛ
በማስረጃ
ድሮም
የዐማራ
ጎርፍ
ሩብ
##ቸገር
##ቂጤ
አክለውም
ቤቶችና
በተቃዋሚ
ላን
የጆ
##ሯሯ
##ንደዚህ
ዓላማው
ፍንዳታ
ክርስትያን
የደረሰበት
ማርያ
##ሮሮ
ከውስጥ
ንሉ
ጨው
##ዋጭ
የምፈልገው
##ሉኝ
እርምጃዎችን
ለንባብ
copyright
ክሱ
በመገንባት
##ሔረ
የተከሰተውን
ግዢ
##ንኦት
##ጣችን
እንደሚያደርጉ
ወጥቷል
ናእ
ንባብ
ይቻል
ስለሚችል
እየሞከሩ
በሚካሄደው
ገዥው
ቼክ
የሚገመት
##ረፉ
መንገሻ
የቅን
ማስታወስ
ብጹ
በአንተ
ድምዳሜ
ወልድ
##ጠጋ
##ኑሮ
##ዥው
ምቾ
ፅህፈት
##ክንያት
አብቅቷል
##ሰራቸው
ሲሸ
ከሆ
የተፈናቀሉ
ተፈናቃዮች
ጉምሩክ
ባቀረቡት
##aw
##ገደብ
ተፈጻሚ
ለቅሶ
አላገኙም
በሳምንት
አሲ
አራቱ
ይዠዋለሁ
sh
የፓለቲካ
መኩ
ሻምፒዮን
##ዉና
ለማዘጋጀት
ይቺ
##ለታዊ
የሚሄዱ
ዓለማየሁ
ቅዳሴ
ጀልባ
ለማስገባት
ሲሰሩ
ነገድ
የጾ
ለአደጋ
አሳታ
በግንቦት
ለኦሮሞ
ሽም
##ገስት
የአዕምሮ
ከእነዚህም
ንምለ
ለእርሱ
ትእዛ
##ቤንሻንጉል
ይጠቁማል
ህዝበ
የደረሰውን
ህመ
መኝታ
ከነሱ
ጨቋ
##ገኛል
##ዘገ
##ጊዮርጊስ
በራሳችን
የችግሩ
ውጤቶችን
በ2012
ሽብርተኝነት
ማዕድን
ስላልተ
##ቁትን
ከጭ
ወጡ
እንዲህም
ሐብት
ረብ
ያለባቸውን
ኤርትራን
ሽታ
ዐማራ
ምኑ
##ከራከር
የተረጋጋ
አፋጣኝ
የሚያስብ
ውድመት
ፍሰ
የጌታ
የሚፈልጉትን
##ላጫ
አስተላልፈዋል
##ጭቶ
የያዙት
##ራቸዋል
አለመስ
ገንዘቡ
ተቋማዊ
ሁላችን
ሚንስ
##ረርሽ
አናት
ኤድስ
##ፃፈው
##ባንድ
የሚወድ
##ገኑ
በፖ
##ጎማ
##ለመዱ
ይከብዳል
ዓመቱን
ከክልሉ
ካለመ
ዘና
ፋሽ
የቲ
እንዲኖሩ
በርሱ
##ያዙት
ሕሊና
በመግለጫው
##ኙት
##ጆቻችን
##ታችንም
ካሜራ
##ሳቸዉ
ከቢ
ባለሞያ
ሻለቃ
ለመዝ
##ባረክ
ተደጋ
የኖሩ
ከኮሮና
ጥልቀት
እንቁላል
ሰላምታ
ንትን
ፍኖተ
የገጠ
ሲነፃፀር
አይደለንም
ሺዎች
እይ
##ሱር
በመድ
##ጀምሮ
ቅውአ
የሚያመ
ንትንዴ
##ብረው
መቻሉን
እየቀነሰ
የ6
##ምታ
##ረጠው
መተግ
አልቻልኩም
co
የአሰልጣ
ተከትለው
ሃር
በጨዋታው
አምስተኛ
የማስከበር
ገዢዎች
ቪዲዮውን
ናግጀ
እፎ
##የተ
የሚያበቃ
መከ
ቢቀር
በአሰ
አንጀ
በህወሓት
ያስከትላል
tim
ሰውዬው
ጠንከር
ፊሊ
ህይወቱ
አስረድቷል
መሸጥ
print
##ጻጸር
ንቅሳ
ጭምብል
ሥቃ
ጸሃ
ተሸን
ስፖ
ጎርጎ
መከታተል
##ሮቻችን
##ዬጵያ
ለሆነ
የሚዳ
ውቸና
የቁር
የፈለጉ
ጣና
##23
በበቂ
ሥልጣኔ
መስመሮች
ማካ
ታቦ
ኮማን
ቦታዎችን
አርበኛ
በኢየሩሳሌም
መድህን
ልቤ
##ናውያን
##ክሲዮን
ብሩክ
ባርነት
##ጎን
ለአለም
ሮሜ
ገጹ
በብሔር
ድርጅቶችና
ሥርዓቶች
ይስተዋ
የቀብር
ርቀ
ሲልም
vi
እሄ
##ሣኔ
ስለጠፋ
ሀምሌ
##ጣፍ
##ጋዴን
በማዳ
ጠረጴዛ
ሚስቱ
ከ40
##ገዉ
በዘመኑ
##ጋገብ
##ክሽን
ይገልፃሉ
##ኩርት
##ታቸውንና
##ቸግር
ተመለሱ
##ከሻ
ፍተሻ
##ኞቻቸው
የትብብር
##ጣልያን
##ሳውያን
የህገ
አትክል
ክንድ
የደመ
ነበረብን
##ity
##አይቪ
##ድቃን
በተናጠል
አምራቾች
አቅጣጫዎች
በደረጃ
ንዋይ
ገጠር
##ገለፅ
አሸንፎ
ጉም
ከመር
##ኝነትን
ሌሎችንም
መዛሙርት
ቅጠል
ለማመን
የመስኖ
go
በድረ
##ነእ
##ዘነ
የነበር
በምዕራ
ማዕበል
ሆስፒታሎች
የሌሎችን
ማሰልጠኛ
ማሠ
የስለላ
##ከላከሉ
ወንጀለኞች
እከ
ስው
##ቆጥር
ክርስቲያናችን
ይበልጣሉ
##ስተምር
ማዕከሉ
##ተነ
ጠብቀው
እንደማት
አመታዊ
ለህግ
ማቋቋም
ብዛ
ታሳ
ያር
ኢትዮጵያዊነትን
ከመቼውም
ከእር
ተካሂዷል
ተቀማጭ
##ደራሉ
##ነቴን
ስለሚያስ
##ከለው
ያውቁ
##ፈፅ
እየተከናወነ
የሀይማኖት
ፍራ
ማደግ
ዜጊ
ፀሎት
በድብቅ
ቢሮው
የሚገባቸው
የሚያቀርቡ
ሐይቅ
ያገለግ
##ቆራ
በማጠናከር
ኢንቨ
##ከፈለው
ፌዴራል
ተከፋ
ይሞክ
ኩርበነ
ሄዱ
የመስጠት
በገጠር
##ረዳቸው
ልዩነቶች
ሠው
ሸማ
##ረቀ
በትዊተር
ገፅታ
ለማለፍ
##ቃዊ
የወል
የኦርቶዶክስ
እውነታው
##ላዎች
መሪዎችን
ትንተና
በማስመልከት
ቻይ
ጭብ
በዓሉን
##ሾችን
ከመሰ
march
የጀመሩ
አስመልክ
በእነርሱ
የእናንተ
ካለበት
አልበም
የበርካታ
##ጨረስ
ዓይነትህ
##ቻልም
በለጠ
የሚጠይ
ትችላለች
አምላካችን
ጥገኛ
ልካ
የመላው
##ሰራር
የጥራት
በናይ
##ሕዴ
##ሀሴ
እንዲነሳ
ለዘለ
ድግስ
ለማስተማር
ሜዳል
የሚያወጣ
ትዕግስት
ሊትር
የቅር
ከመጀመሪያው
ግሽ
##ረመ
ተቀምጠው
##ነሩ
##ሯቸዋል
የእርዳታ
ማድረስ
2002
63
የኖረው
የዘንድሮው
##ፉና
##ግለዋል
ርዕዮተ
የተጠቀሰው
በቀኝ
ለመሰ
እየሆኑ
ይደርስ
ድባ
##ሳተፈ
ሲጨ
ያዙ
ያለዉን
197
##ጠባበ
የአጋ
በወረ
እናድርግ
##ራዩ
ኦሮሞዎች
እንደሌላቸው
በዘንድሮው
የሚጠበቀው
##ናዊው
የስም
99
በሮ
##ቆጣጠሩ
ለልማት
ሠራዊ
ሳሉ
ወገና
አናሳ
ያምናል
##ንዛኒያ
ምሰ
##ደንእ
ተሽ
የመጠቀም
ዲስ
ለሞ
ራሷን
##ኑበት
##ታቸውንም
አዘው
##ደሪያ
ለመመልከት
ኢም
ኦክቶበር
ከጣ
##ቻልን
ኢትዮጵያዉያን
የእነሱ
ውሳኔውን
ይመጣሉ
መጀመሩ
በርሳቸው
የተና
##ዋሪዎች
##ፀባረ
ይዘዋል
ንጉሠ
ነፍሰ
የቀረቡት
የሁለቱን
ተለይተው
##ከሞ
##ራሱ
አዛውንት
በጌታ
ተዳር
አስፋው
እየሱስ
##ሰቦቻቸው
በቴክኖሎጂ
ዛፎች
ዘመዶ
እውነታዎች
##ሱበት
ኃላፊነቱን
##ጫወተ
##ንቀሳቀሰ
ሃገሪቱ
ስሕ
ቤታችን
በቀድሞ
##ክሮችን
በማው
በሃገር
ሁኖ
አርብቶ
ለማስፈን
መሰብ
እንዳለብን
ሰልፈ
በ2010
ንስሐ
ትፈልጋ
እሸቱ
ሃምሳ
ሐውልት
##up
በዞኑ
ዋት
##ለጡ
ሙስ
በመሥራት
ንጹህ
ከያ
##ሚስ
በመለ
በሳምንቱ
ለዛሬ
ርገና
እንደሚጠበቅ
ኃይለኛ
አሰም
ምልከታ
አቋቁ
በ2011
##ፈላለ
የአቅም
ሕይወትን
ምንኛ
የሚያስፈል
ተጠናቆ
ምናለ
##ብርሃም
ንሁ
##ታደል
ቤተሰቦቻቸው
ጥገኝነት
##ዩበት
ተወዳ
የመጀመሪያዎቹ
##ጫወተው
ያጡ
የመሰረተ
በምክር
##ty
ያስቀ
ማስተዳደር
ንጉሴ
አጉ
ዘፋ
##ቋረጠ
ብክለት
የአጥ
##ቶችንና
የአካባቢውን
ከአስ
በ16
አመራሩ
##መሳሰል
በአዋጅ
ለጋዜጠኞች
##ገባም
በድሬዳዋ
አስከሬን
##ገሮች
ይጫወ
የኦህዴድ
አወዛጋቢ
ሳና
የሦስት
አስቦ
ወርቅነህ
ለወደፊቱ
የሚነካ
አልቆ
##ቨርፑል
##45
እናላችሁ
የሚችልበት
ይጠበቅበታል
ኣል
ሳይታ
##ብራቶሪ
##ቋቋመው
ያግኙ
ከተጀመረ
እጅጉን
ይገባሉ
የሎ
ሃገራዊ
መጠኑ
ከወደ
በጆ
##ጦሽ
በመደበኛ
ሥርዓቱን
የኖቤል
ሞራል
##ብተው
አልቻልንም
##በና
##ጋቡ
##ነስቲ
አሸናፊነት
##os
ሰርቪስ
##28
##አችን
አስታውሰዋል
የሚፈጥር
##ለፉት
መሰላችሁ
መድረሱ
##ሜል
እንኩ
አለህ
የዋስትና
ዕይታ
ጠቢ
ትህነግ
መሽ
##ወርወር
አወዳድሮ
##ለቀው
##ስተሮች
##ዘውም
የተኩስ
##ፈልጉም
ሬድዮ
በመቅ
እየመራ
##ቀበት
ማበረታቻ
የኪነ
ሊን
የሜዳ
ጎልማ
ሲደርሱ
ቀመር
ፍራንክ
ከኦሮሞ
በተሳ
ልጆቹን
ግቡ
አያስፈልገንም
ሰአ
ዮሃንስ
##ዘቡ
እንገኛለን
ለእር
ይለዋል
አጥን
ድብቅ
ጓደኞች
##ራባች
የሚሞ
የሚውሉ
ከሚገኙት
##ወድም
ሀምሳ
##ዋች
##ነቡ
አለባት
ንሆ
የሚኒስትሮች
##ይዘው
የሚያጠና
እያልክ
መብቱን
ያስገባ
እንደል
##መበ
##ዊድን
800
በስድስት
ይሠራ
ኪንግ
የቅጣት
በተረፈ
መተው
##ውንዴ
ኤሊ
ለማዋል
ሞቅ
የማውቀው
አገሩ
በግሌ
የተጠቀሱት
ከፍቶ
እንዳይኖር
ሊቅ
ቆሮንቶስ
አለቆች
በአፋጣኝ
ህግና
##ደረጋቸው
እየጣ
##ፈጠሩት
##ብላ
##ችዋ
የሚያመጣ
##መረጠ
የፌዴሬሽን
ድህነትን
ውረድ
የቃል
ከሠ
##ጂን
በኢትዮጵያውያን
ኦገስት
አስበው
አርቲስቶች
ሂደቱን
ቱሪ
ኤግዚ
የሚቆይ
##ዘጋጁት
##port
tw
ሕንጻ
ትተን
ሊበ
የሚያስፈልጉ
ሄኖክ
አይታይም
ሰውም
ሰብስቦ
ቶማስ
ተሰጠ
በመክፈል
ሕዝበ
አበረታች
##ሰብአዊ
የጥቁር
የማያውቅ
ለማስቀረት
ትራ
የተፈጸመው
በወንዶች
ወስኗል
የክፍያ
ከምድር
በስብሰባው
comments
እንዲሰራ
ኮንዶ
በዝምታ
ለሆነው
ማጽ
መነጋገሪያ
አገልግሎቱ
ተዕለት
ዝያ
##በደ
የተገለጸ
##መርጥ
አድርገህ
ሳቅ
ከሞላ
##ራቶን
##ሻሻሉ
ክርስቲያናዊ
ራይት
ኛእ
ሚኒስትሯ
አሁኑ
በመገናኛ
አውቅ
ሰንጠረ
ይዋ
መካከልም
አፍሪካዊ
ይሁ
##ቸስተር
መርሀ
ጨዋታዎችን
ይሳ
##ንጣ
የምሥራቅ
የካቶሊክ
##ከንድ
እግዜ
##ገጽ
##ቶም
አድርገናል
ጉን
ተምሳሌት
በጠቅላላ
በ2007
የተቀመጠው
የቄ
ዳሰሳ
##ጋጥም
ለመብ
ከማህ
ወጣቶቹ
ባለቤቴ
ተርታ
ሰልፎች
በመካከለኛው
ሰማያት
አዝናኝ
ጠንክ
##ፈረሰ
ለሶስት
ጀማል
ጣጣ
##ሲል
በማካሄድ
##ቂው
መስቀ
በጥላቻ
##ሰበሰቡ
ምክንያትም
##ኖራቸውም
ወይንስ
ቤተክርስትያን
ሁኔታም
ቆይተው
በቀድሞው
አጸ
ዕብ
##ሮውአ
ኖርዌይ
ልመና
፳፻
እየሰጡ
ባሕርያት
ካደረጉ
##ላፕሮውአ
ማኔጅመንት
ባክ
የመናገር
##ደነ
የህሊና
የመክ
እስላማዊ
ሾፌ
ቅናሽ
##15
የታክሲ
ቅራኔ
ለመወሰን
##ከባከ
የተሞላበት
67
##ጠኑ
##ቲቱ
ግብዓት
የሚጠቅም
የአፈ
ለመጣል
##ናሉ
ሱቅ
አገራችንን
##ፈዉ
የመዝ
አስገንዝበዋል
መሳተፍ
ፕሬዝዳን
ማዋል
##ረከቡ
በቴሌቪዥን
ዝያመለ
##ርሱን
አስፈላጊው
ሌንጮ
ያደርግ
##ጫል
ይችሉ
##ሀም
##ዳዲስ
እንዲመለስ
እየተነገረ
የፍርሃት
መባሉ
የሚጠቀ
ለአቶ
በግማሽ
መስዋዕት
##ኒያት
##ብረን
ደርሰው
ቃሊቲ
ቤቶቹ
ተጀምሮ
ይጠብቅ
##ቶኛል
##ደለም
የሰላምና
##ሳፍ
እንተ
ብቻም
get
መጪው
ታቦት
መመገብ
የተመዘገበ
ቂም
በደረሰው
ካደረገ
ተረክ
ዕዝ
ዳኝነት
##ጠዉ
የድሬዳዋ
በማመን
2001
የአትክልት
ታጅ
ቀርበዋል
በ197
የመፍትሔ
ቅንጅት
ጤነኛ
##ኛቸው
አይኖረውም
በዓላት
በበሽታው
ዘረፋ
ውይይቶች
መመስረት
ማስፋ
ትርክት
##ማችንን
ተገደሉ
የግፍ
ለእነሱ
ተፈሪ
መተከል
ስዊድን
የሚኖረ
ታሪክና
##ጃችን
የቢሮ
ሲቀርብ
እራት
ዲያስፖራ
የተከበረ
##ርክል
##ክራ
ሸሽ
የፀሐይ
##ቀየር
##ሕርት
የተጨ
ማብቂያ
የሚቃ
በውድድሩ
አገኘሁ
መፀ
##ober
##በረታታት
##ንቻ
በሚቀጥሉት
አፍራሽ
##22
##ተኩር
ስልጣኑን
ታዛቢዎች
እንደዘገበው
ሮማ
ፕሮፖ
ምርጫዎች
bl
##ለወርቅ
እየተሠራ
##ሆናችሁ
ፍልሚያ
##ጠቢያ
ፕሮግራሙ
አውሮፕላኖች
ብርሀኑ
ነውር
ሮበርት
ሲነገር
በመጋ
ሳይቀሩ
##ለማው
ተላላኪ
እጃቸው
እያንዳንዱን
በተወ
ሓላፊ
ሹማ
በመከራ
በአባይ
የሚያነሳ
የላይ
አስተም
ተወልደ
ሻም
ታየ
አላል
አዜብ
ጳጉ
ከተገኘ
ነገርን
በዘመነ
ስምምነቶች
ያካትታል
መዓዛ
##ዷን
ስብሰባውን
የወለ
ወንጀለ
የሚፈታ
ሊኖራቸው
ሕጻናት
##ደመው
ስህተቶች
የእድሜ
ከሰሜን
ትርጉሙ
ለኦ
በጨረ
በበር
እስረኞችን
እያዩ
##ጣልያ
በከባድ
ቢሉ
በመጨረሻው
ሁልጊዜም
ባዮች
ከምር
ደበበ
የአሜሪካው
ትናገራ
ሥለ
ታቅ
እንዲደር
የመዋ
መያዛቸው
እየሄደ
##ሮባንድ
ልላችይ
መወሰኑን
አመላካች
##ያሳ
የሚናገር
ሊታይ
መዘጋ
በብቃት
አማኞች
ሲኒ
ቃላ
##ገባን
##ጥላ
##ሪያዎች
በሚባለው
##ስብም
መቻሉ
##የመ
ተቃዉሞ
የሕዝብን
ኮሙኒኬሽን
ብለ
ከፈለጉ
ዳዊ
የሚፈልጉት
ልቭ
##ቅላ
የሚከተለው
አግባብነት
##mass
ውድድሩን
##ቁርና
ልቭፓ
የዝግ
ጎሎች
##ዶኔ
##ዎትን
##ሁትን
ክንፍ
ዴኤታ
ተማር
ከሁለቱ
##ግብር
በየወሩ
ተከትሎም
የቢዝነስ
ማና
##ዘንጋት
ታውቃለህ
ሉአ
በህገወጥ
ሊከሰት
እንዳንተ
አብነት
ያልኩት
ወርቃ
ማንዴላ
ዉጤት
##ድጓ
ይውላል
ቤዛ
##ህት
ከመም
የተባለች
ተናግሮ
##ቢስ
የዓይን
month
መርጦ
የተጣለ
የእድገት
ኪዳነ
ታደለ
##ዶን
በውይይት
ኦርቶዶ
በህይወ
ተራሮች
ኃያል
ግኝ
##ልቦና
ለመሰብሰብ
ኢዮብ
ፓውንድ
88
እጄ
##ዚን
##ሆኔ
##ሸው
##ኙነት
##ጽር
የቆዩት
ለነገ
የጠራ
በአንቀ
ሒሳብ
ተገናኝተው
##አአ
ያስባሉ
ኤርምያስ
የሳይ
ለማስረዳት
አንዳንዱ
የኮሌ
ዓይነ
##ነኝነት
የተጀመረውን
ጊዜን
የደረሰባቸው
ተስተው
የሚያገኙ
ሳር
ዱቄት
ጥቁ
በመለየት
ድክመ
ፓት
##ታውን
በኢንዱስትሪ
ወደአ
ለአራት
ውሣኔ
##ጂንግ
የማል
ትል
ዓቀፍ
የሚያምን
በጠላት
ነቢይ
ንገ
እየተስፋፋ
አዳነች
ማርክ
ጤፍ
ይመለከታል
october
##ዜሽን
ተክል
ይጠቀሙ
ምስሉን
##ኩና
##በረክ
ማሟላት
ቄንደ
##16
##ዓም
ሥራቸው
ሊወጣ
ኖሯል
ይሻል
##ናቴ
##እዝ
ከድህነት
እልፍ
ከባቢ
መደምደሚያ
አበው
ድንኳን
ይሕ
##ያዊነት
መታሰር
በመካከላቸው
ዓለ
ይልቃል
ሽር
አገልግሎቶችን
ሕፃን
##ጨፈጨ
እየተባባ
ሸቀ
##ኣብሔር
ሩዋንዳ
ነጋሶ
መልቀቅ
ዴቪድ
##ሰብዓዊ
ስምን
##ጋችን
le
ቅቤ
አናውቅም
ጥያቄን
የፕሪ
##ጋግ
##በርከት
ግንኙነቶች
ፍላጎቶች
ደመና
የሚወጣው
እንደሚሆኑ
##ግልን
መረጃን
##ዟቸው
አልነበር
##ማልያ
ላሊበላ
##ከናውኑ
የተሻሉ
ሂድ
ልበል
ማምረቻ
ሐሰተኛ
በእኩልነት
##ጠፈ
አለባበ
መተግበር
ሀገራችንን
የማይባል
##ine
የተለዩ
120
ያዝ
የበሽታ
ከሥልጣን
በነበሩበት
ሊሰራ
ወሲባዊ
ይቃጠ
##ዠት
ተንታኞች
አረም
##ራቸዉ
ከ18
እንደማለት
##ባባስ
መዘዝ
ፈላስፋ
ተቋርጦ
ታዝ
የተገነባው
በቀይ
##ስፒታሉ
መስጊድ
ታን
ይጠራ
የትጥቅ
ይማር
አምዶች
ለእያንዳንዱ
##ደግፍ
ልደታ
አለብህ
በሊቢያ
ሠልፍ
##ቀኝነት
ረግ
ኦዴፓ
ለቡ
##ከሩት
##ዮቹን
ኮማንድ
የአገ
ተደርገዋል
ቆርጦ
የክለ
##ገየ
አጀንዳዎች
በዜጎች
##ጹን
ከአንዱ
የግንባ
መተግበሪያ
ሐዘን
ቅጣ
ተርፎ
##ሳነያ
በላቸው
አጉል
ካሁን
የምትባል
ይፋዊ
በመቀጠልም
##ሸገ
##ሟሟ
እንደተለመደው
ጌታሁን
ተቋቁሞ
በሚሉ
በደብዳቤ
ሥዕ
ከ9
ጊዮርጊ
##ዘመን
##ጡረታ
ዩንቨርስቲ
ኢዜአ
መሬቱን
ምሩ
ኢነርጂ
የአዉሮጳ
##ኪስታን
መዋጮ
ብራዚል
##ቅጣጫ
ያለውና
ተንኮል
ልዕልና
ተጥሎ
##ጽዋት
የሚጀምረው
ለማፍረስ
ኢንጅነር
##ላታል
##መጣጠነ
በበጀት
##ዳሴው
ማትያስ
ማቅ
ልሂቃን
ኢላማ
ውይይቱ
ስዕል
አማን
ታሪኩን
ስለሌለ
መቀጠ
ሊፈጠር
ዘል
ድጋፍና
ወኔ
##ቆጥ
የአፄ
ይሄዳሉ
ደንቦች
af
##ፋጠን
እንዲውል
##ጠቀመ
ወቅቱ
ቅርበት
ትግራ
የወንጀ
##ቋቋመ
የሠለጠነ
ተቆጣጣሪ
ከ17
admass
ዕድሜያቸው
አረጋግጧል
##ሊኮ
የዘመኑ
የኅብረተሰብ
አይበ
የድንጋይ
ዲፕሎማሲያዊ
ሰነዱ
ፈረ
##ቃለል
ማናቸውም
የገለጸው
በህክምና
##ሪታኒያ
ጠበቆች
የግሉ
መሰን
ሶሪያ
##ላከ
##ዳግ
april
በገበያ
ዳኛው
##ብርት
ተቀምጧል
##ጋለጡ
ዶክ
የሚጣ
የኤርት
ኤጀንሲው
##ቦራቶሪ
##ደቀው
ናፍቆት
ዮርክ
የማዳ
አበርክ
ላልተ
ሊኖሩ
በግር
እናንተን
##ኒሳ
ተነሥ
እዚያም
##ኝህ
የጸረ
የበኩሉን
መፈጠር
ብሪታንያ
ጅምር
የሚመለከቱ
አስወግ
ገንዘብና
##ሰቦቹ
##ህረ
የአራት
##ግራፊ
##ቶናል
##ገራትን
ለኢትዮጵያውያን
ሃይሉ
##ፈረም
የሚከለ
ለአንተ
ይገርማል
ዳሩ
የተመለ
ያለፉት
##ww
##ጽዮን
የሚገዛ
ወንዞች
የታገ
ግፍና
##ዳሽ
##ቤታቸው
አስረክ
ምክኒያት
ከውጪ
ጥረቶች
ፌስቲቫል
አልተሳ
መፍትሄው
ወድቆ
ሁነኛ
ያማ
##ፓርታይ
ምሉ
ዜሮ
##porter
የማነ
በስሜት
የተደረገውን
ሰይፉ
የሌላውን
መሲ
በተቋ
##ሰብክ
ስላልሆነ
ሐኪሞች
መረጃና
የመንግስትን
አዛውን
እሽ
አጣጥ
የጦ
በሚዲያ
የማዕከላዊ
ቻለ
##ካሉ
ምህዳ
በምርመራ
ለዴሞክራሲ
##ኒቲ
##ሊጥ
እስከአ
አልተገኘ
በሚያደርጉት
ይገደ
##ድርና
ይኼን
ምክረ
ችግርን
ተሰጥቷል
የወጪ
የሚያሳዝነው
የሚያምኑ
ዘመናቸው
የተሰሩ
ተአምር
ኢንጂነሪንግ
አመስግ
ዋል
##አበባ
##ጠናቀቁን
##ference
ራሴ
##ክብት
ሕግና
##ምንታት
##መሩት
##ጎበኙ
በመተው
ግድቡን
ከኢህአዴግ
##ባረሩ
ያቀርባሉ
የወረደ
ተቀባይ
በውጪ
አልነበረውም
ተክሌ
ተለዋጭ
ከአለም
በወታደራዊ
ሽኩ
##ተኛና
መጠነ
250
##13
አለመኖሩን
##ማቱ
ወሳ
አይሁድ
##ገኘቱ
##ልሙ
##ኗቸው
የተላለፈ
እንዲቀርብ
አመራሮችን
የባለሙያ
ፈረሰ
ንብረቶች
ኢህ
##ህፍት
በጥቁር
ግጭቱ
ጥቃቱ
##ክክ
እያሳየ
እያሰ
ቅፅ
በማሳደግ
በኮሮናቫይረስ
ከመስከረም
የቻሉት
ተደራጅተው
ስማቸውን
በጫ
ቤተሰቡ
ኮንፈረንስ
ለከተማ
ከመጡ
##ጨዋወት
የተመዘገቡ
ማጉ
##ዶቹን
አስፋ
በወረዳው
ተከፍ
ግብሩ
ዝርፊያ
ፅኑ
የሚሳ
አውጥተው
ምርኮ
ንግግሮች
የጤ
##ሀዊ
ሶስቱ
##ባንያው
የጋምቤላ
አልማዝ
በ9
ዕፅ
የብረት
ያደገ
##ሀመድ
በተያዘው
በጉባኤ
ዓመታትን
##17
የተጠቃ
በድንጋይ
አለዎት
ከሜዳ
ወደዚያ
እስከማ
ኦሊምፒክ
ጎጆ
የተማሩ
የግድያ
ማስተናገድ
የጭነት
january
ደፋር
##ዞን
##ከራከሩ
የእርስዎን
ስለጠፋባቸው
ደረስ
##ቃችን
ስብስ
በተገኘ
አባዜ
ተፈጠረ
ተቀይ
ገበየሁ
የሀብት
ርተክ
ነሃሴ
አሶ
የ8
##ጠሪያ
የክርስቲያን
ርተክዶ
አሏቸው
ለማጠናቀቅ
##ብንን
ጀርመንኛ
አጥብቆ
ውርደት
ያመላክታል
##በድ
የማስታወቂያ
አሣ
ዓይና
ጀብ
##ገፉ
ለተወሰነ
ተቋማትና
##ዳግም
በብል
ያለፈውን
የደረጃ
የመው
##ጠራቀ
ኢዴፓ
##ጠለጠ
መዝገቡ
የተቀሰ
ስርዓቱን
ሰርቢያ
ይፈጠ
ገፆች
ታዋቂው
##ቅዱ
የግጥም
ከሌሎቹ
ደራሲው
ጀግንነት
የተደገፈ
ገረ
ሲሚንቶ
ጉጉት
##ሸፍ
በማግ
በወጣው
##ምላ
በሆኑት
በስብ
ጭንቅላ
5ኛ
ሲጋራ
ኅብረተሰቡ
##ጋሪዎች
ያስተላል
የኡ
##ሂድ
የአንተን
##ደርገውን
##ሳዕና
ሚኒሊክ
ትንሳኤ
ማዕድ
የንግድና
የሚያውቁት
ፓርላማው
ይከበር
የወይን
##ፆታ
ከአስር
##ኔታው
##ንቅልፍ
የፈለገውን
##ቸውንም
በክርስቲ
ሞቶ
የዲፕሎማሲ
በማዕከላዊ
ኢንዱስትሪዎች
መዳን
ማሰባሰብ
ቪዛ
ዋሉ
##ካራ
በዘረ
ይቆጠራል
ተጠየቀ
##መካ
##ራቱን
##ሀንስ
የሚያስፈልገውን
ማሳወቅ
##ለማዊ
ከሰዎች
##ጭበረ
##24
በተወሰኑ
##መስልም
የራቀ
ተዋና
ለፍትህ
ተለው
##ip
post
የኒው
የምናውቀው
ከህዝቡ
ማድሪድ
ጋዜጠኞችን
##ጎላ
##ere
በጎሳ
ሰምቶ
አድሃ
ለመግደል
ይጠቀሳሉ
የሄደ
ዉጭ
የባንኩ
ለዉጥ
ተመልክቶ
የኋ
##ሳቤ
ይጠብቃሉ
##ut
ከፍተኛውን
ከዳር
##ቆመው
ትዕዛ
አሠልጣ
ኮድ
##ሁለት
በበላይነት
የፕላ
ዝርዝሩን
ግኝት
##ቦጭ
##ኬድ
ለኢን
##ጠበቅም
ሰራዊቱ
በዓለማችን
ለዲሞክራሲ
ለመዋጋት
700
ፕሮጀክቶችን
መገልገ
የተሰራው
ከታሪክ
##ሯችን
ሙሐመድ
በሥር
በዋሽንግተን
ጠርቶ
አሳምነው
ራሳችን
የትግ
ብትሆን
ስዕ
ከ201
##ጭው
##ምህራን
ለአባ
ሰብሳቢነት
መሆናችንን
ከምና
##ያውቁት
በትጋት
አቡበ
የሚያገለግሉ
ብዙሃ
ድንጋጌዎች
ግቦችን
አስተካ
ክርስቲያኑ
እኚህ
መስተዳደር
##ጠራቸው
በአስራ
በጥበብ
ፈለግ
ስዋ
ስቃ
ለፕሬ
ይኑ
አውግ
ሙስናን
ቀረጥ
ጀርመናዊ
አስርት
በሚጠራው
ኢየሱስም
ሥርዓትን
በችግር
ሸክም
##ይለ
ሃቅ
##ጓጉ
የአንድን
የሚችሉበት
us
##ሸባብ
##ተታ
##ቅተኛ
የተፈጠሩ
በእዚህ
ከመሆናቸው
በመምጣቱ
ለኤርትራ
ኪር
##ግብግብ
ለእስር
ይሁዳ
የሚያካሂ
ወረቀ
ሌት
ሱቆች
##ጠቡ
##የአ
##ራዊነት
አለብዎት
ከጫ
ደፋ
##ወሰነው
የማይገባ
ሰልፉ
የአደባባይ
86
et
ሹፌ
የሚመሰ
##ማርክ
##ዎቻችንን
ለማር
የነበረዉ
አጥነት
##መለካከት
##ደናል
##ርቲን
ምኒስት
ገፀ
##ሕል
አለና
በባንክ
የጋብቻ
ክሶች
በአገልግሎት
ሚንስቴር
በመዋ
የሙስሊም
መቃወም
##የቱን
የመያዝ
ጓደኞቹ
ጠይቆ
አገሬ
ማተሚያ
የታሰሩት
ሀገሩ
##መላለስ
ጠፍቷል
##ካቶ
##ሠብ
ሥራን
በውኃ
##ወርዱ
64
ከጀመሩ
##ንድስና
አንገብ
##ተርፍ
ኮሙዩኒኬሽን
ተቆርቋሪ
##ወለደ
ዓመቷ
ያዘጋጀ
##ረሽ
እንዳታ
ፖርቱ
አዘጋጅቶ
ሣይሆን
እጠይ
ለመጀመርያ
የሚያመለክት
ለብቻው
መዋል
እባብ
##የነው
ሰብል
የሳዑዲ
##ቲም
ኢንቨስትመን
##ፏቸው
የሚጠብ
የተጠና
ሽንኩርት
##ይረሱን
ልሳነ
በገባ
ይባላሉ
##ለውጡ
##ራውን
እንዲታይ
ተቀይሮ
የልዑ
69
የዞን
የምታው
##ምፒዩተር
##ከፈሉ
78
ከልጅ
አስገዳጅ
##የውም
የጥምቀት
በሃገራችን
##ርቃ
##ሚና
##ጨበጥ
##ከፈቱ
ታቅዶ
ዋልታ
ድሬ
##ተርጎም
ተጨዋች
አስመዝግ
68
ሲበዛ
ተጥ
አስገድዶ
ባቀረበው
##ለቀቀ
##ቀዘ
አጋዥ
ከቴ
ፋውንዴ
ብሔሮች
fa
በቦሌ
##ወረደ
አዳጋች
mo
ማንነትን
አቀና
የደኅንነት
መገደላቸውን
ምረቃ
##ፈውን
##ቅሮ
##ከፈተ
የሚታየውን
ከህግ
##ደቁ
ሰርተው
የታሰበ
ተብዬ
ጉባዔው
ታዛዥ
ጋሻ
በአስር
አራጌ
ጉርሻ
ቅደም
##ቁረጥ
የማም
አመራሮችና
www
##ጨነቅ
##ኪንግ
##ፁዓን
##ኩልነት
የሕይወ
nove
የተዛባ
##ስስ
በማሰ
እያካሄደ
##ከብረው
ያስፈልጋቸዋል
ለስላሳ
የኪራይ
የወጣት
ethiore
ብርሃነ
የግለሰብ
ተወልዶ
##ጢፋ
መፅሀፍ
የተወለደው
ፈረንሳይኛ
መጠቀሚያ
በብሄር
አሰላለፍ
ሀይሉ
የተወለደ
እንደሚመጣ
በወል
ትምህርትና
የወጣውን
##ሺንግተን
የኮንት
በመከላከል
july
የክት
ጉዳቱ
የነበራቸውን
የመድረክ
የሚጠጋ
ከሕግ
ተሰብስበው
##ስተካከለ
##ስብሰባ
##ሆናችን
የሚዋ
የሚከፍ
ብሔረሰቦችና
በመክ
ጉድለ
አላምንም
መረዳ
ካቶሊ
አሳማኝ
ተከናው
ፍላጎትና
ማለታቸውን
በጂ
##ትከል
አምነው
አገልግለዋል
በደን
ተጠቂ
##መሳስ
አሰልጣኙ
##ደኝ
##ቀርባለን
ይበሉ
የሠላም
##ruary
በጽሑፍ
ይጀመ
አይሰማ
የኢፌ
እንደማይችሉ
መልእክተኛ
ቃለም
የምክክር
ሁኔታና
ማጨ
##ጦታ
##ግዝ
እንዲሰፍን
ፌደሬሽን
በመገንዘብ
በእድሜ
አስቀድመው
መመረ
በግንባር
ማሰር
##ያስፖራው
ethioreference
የተመለከቱ
ራያ
ፈቅ
አይልም
##ደርሰው
በህወሃት
የወሰደው
##ዲሪ
##ለጠኑ
##ደናቀፍ
ምንጩ
ምስረታ
የእውቀት
ባሌ
በመቃብር
##ኤፍ
february
ህዋ
መኳ
ረጋ
ከጥንት
እድሜያቸው
የህወሀት
ንፅ
ኤፕ
ክላ
##ትሮው
የመብራት
ስናይ
ስብዕና
በጦርነቱ
##ሟቸውን
እንመለከ
እንዲመ
ሞባይል
##ልዩ
##ሐን
ይሰቃ
##ራሚዎች
##ተፍ
መያዛቸውን
መመስ
ለማስፋፋት
መንስዔ
##ደተ
የመሪዎች
ላም
ቸርነት
ጋምቤላ
##ቋረጡ
የመሠረተ
የትኞቹ
በወጣት
november
ካባ
በአደጋ
ስለሺ
በጥቂቱ
##የሚ
ታድ
ታደርጋ
የተጠመ
ልጆቻችን
ይገኝበታል
ባይነት
ይከበ
የጅምላ
ጋና
አስጊ
ሲያልፍ
ከሞተ
ነቢያት
##ዎቼ
ማንዳ
በታማኝነት
አቀር
አይገኝም
የብልጽግና
##ሑድ
የጥንት
ኮርፖሬት
አትክልት
##ደረሰበት
ርዕሠ
አድናቆ
ልጃገረ
መታወቅ
ቃላትን
ካቴ
##ያንም
እንደወ
ለመድ
##ሰራጨ
ተፈጥሮአዊ
ደጅ
##በዉ
##ሀብት
የግብረ
ፕሬዝዳንቱ
##በታተን
እንደማይቻል
አያይዘውም
ምሰሶ
98
በሄ
በቻ
መተማ
reporter
ያገኙትን
ተወሰነ
##ሌው
የሃሳብ
ሚዲያው
መብታቸውን
ባቢ
##ደረገም
ተፈታ
ሙሉውን
የዘረኝነት
sp
we
##ላጆች
ደረጃም
##መረምር
አሜሪካውያን
ስውር
ጽንፈ
ናቸውና
##ፌዴሬሽን
ፍንጭ
##ራረ
##ጓጓዝ
የሚፈልገውን
ገጸ
##ሰተ
##ሲካ
የተጫዋ
በመምራት
እንዲሰጣቸው
ባጭሩ
ይዞት
ይቀንሳል
እትም
ፌብሩ
በትብብር
በባዶ
##የዉ
##ፊክ
ቀጥሎም
##ህራ
የሚያገለግል
##ተውታል
የፖለቲካና
##ታደስ
ስሜትን
የኢትዮጲያ
##ሃራ
በተዋ
የ20
ህዝብም
##ዋንጫ
በመግለፅ
አይሁዳውያን
ትሩ
መዋዕለ
ጨካኝ
##ንዳች
በፖሊ
አይባልም
ክልከላ
ለማህ
በምትገኘው
በየትኛው
የጊ
##ራዚል
እያገለ
ለማስተላለፍ
ካላቀረበ
በመመልከት
##ያውቀው
የድርጅት
ፓስፖርት
##ገፈ
##ለውና
ከእን
እንደተጠበቀ
##ቅያኖስ
አጨ
##ዴግ
ገልጧል
##ብኝም
ከፍሎ
77
##ተመው
##ኖቹን
##ጫዊ
በመጀመርያ
የጠቀሱት
ደሃ
ጉዳተኞች
ዓይነቱን
ሉዓላዊነት
ፕሬዘዳንት
ከፈለግ
የክለቡ
ይከታተሉ
ደረሰኝ
እንሰራ
የሚሰማው
ነሀሴ
ይወር
ራቅ
የሚቀር
የሚፈጸም
ድባብ
##ዛኙ
እነዚሁ
ትናገራለች
ቀዝቃዛ
ኾኖ
የሚመሩ
ቤቱም
##ጥኑ
ምህዳር
የአንደኛ
tr
ኤንድ
ተካሂዶ
አስመልክተው
ምቾት
##በረከቱ
ማሰባ
##እን
በዝግጅት
june
በኬ
ፓርኮች
አጅ
ኹኔታ
ጸጋዬ
እየሸ
የማር
##ደራስ
##ባሪነት
በቋሚነት
ረዘም
እክል
##ረጋገጠው
##ቆጣጠረው
##ይዘ
##ሄድም
ደምሴ
##ሰቃዩ
ሲመለሱ
##ነዳ
እህቶች
ጀምረው
በምህ
##ቅሎ
አራማ
የአውሮፕላን
ያመነ
ጐን
የሚያገኙት
ቀርተዋል
የሚጠቁ
##ካትት
የተረዳ
##ግራለች
እግሩ
##ገዛዙ
አራዳ
ዓመተ
የግድቡ
ይጀምራሉ
ፖስታ
የተናገሩ
የእናት
ጠቅሷል
##ፅር
ቀጥለዋል
ዘብ
አዋሳኝ
##ደርስበት
የዕድገት
ገፃ
##ከርድ
የ12
ዮናታን
##ፌን
የዋል
##አቶ
##ሗላ
የበታች
##ለፋ
##ላንት
ተግባሩ
ስንታ
##ሃላ
የሚስተዋ
የምታስ
እንደሚካሄድ
የወጡት
ተገም
መሐል
ሳውዲ
##ብሽ
አምድ
መውደድ
##ደገም
በስተጀርባ
ሰንብ
በዓልን
ወህኒ
እረኛ
ፍቅሬ
አክቲቪስት
በማድረጉ
ዎች
##ጣዩ
የተያዘው
ብሄርተኝነት
በአጋጣሚ
መጤ
ቁርጠኛ
ማእከላዊ
ክሮ
መወያ
##ምፕ
##ክንዮ
ከላ
ትንን
መብቶችን
መሀከል
እግረ
በተሰኘው
የአፈር
##ልኮል
ሰላማ
በመሸጥ
የመሸ
##ሰንት
ለምግብ
አንስተው
እውነተኛው
ወገኖቼ
የሚታወቁ
ተመለሰ
አመን
በመነጋገር
ስለነበሩ
መርከቦች
ያልተጠበቀ
አሳስቧል
ሁኑ
ይጠናቀ
##ጣመ
ለማስተናገድ
በኒው
አገዛዙ
ጎብኚ
##ይቼ
##ወሀት
ሃይለማርያም
አሻንጉ
ዘሮች
ተቀን
የክረምት
የፋና
##ለዋወጥ
መለያየት
ኖቬ
መነቃ
##ደበቅ
##ስታንቡል
እንግዲያው
ልማትን
##በተን
የውሀ
ገንቢ
ከጸ
በአእምሮ
በስሙ
ትላለህ
ለመሸጥ
እድሉ
አድማሱ
pro
ህሙማን
ሚን
ይፈር
ከተማዋን
ለእነርሱ
ከወራት
አፈወርቅ
መጉ
ሪል
በገለ
በመሠ
በማምጣት
##ታይን
በሜዳው
ፍስ
በርታ
ክርስትያ
ለመተግበር
ለፀ
ከጓደ
የቶ
በዋነኝነት
ተሻጋሪ
የዩኒቨርሲቲው
ለምር
እየሠሩ
የወላይታ
የሁላችንም
አንገብጋቢ
እንደገባ
ለማገዝ
የነፍስ
ፌዴራላዊ
ይጀመራል
እንጠብ
የሚሰበ
ኦሮሞን
አጃ
##ወያይ
##ዕር
##ደረገባቸው
ስሜታዊ
##ቀህ
ታክ
##ለምን
ሊገባ
በመቶው
አብዲሳ
ኬችዋ
አማልክት
ጨምሯል
##ተኑ
በማግኘ
ለሆ
ታምሩ
##ኋን
የአሰራር
አባዱላ
ሆናችሁ
ንክኪ
ሽህ
ከዲ
##ባልነት
መርምሮ
ጌታዬ
በላቲን
ተካፋይ
##ሉይ
##ክላል
ምስሎች
ግብዓ
ጐንደር
##ሾሙ
አካውንት
አልተናገ
በ2006
በግብጽ
አልፋ
ሩብል
##ቶችዎ
የልጆች
ወረደ
##መንግሥት
ሣምንት
ትራፊክ
ዓሣ
##ረውን
ቤል
##ሚያን
##ሕና
##ክቸ
እየገባ
##መሰግን
##ማሩት
ወደቀ
ሥቃይን
ሊካሄድ
ጉራ
የአካ
##ግራቸውን
##ገናኘው
ከሰባት
በለንደን
##ፈነው
አስተዋይ
ወለደ
መከራከሪያ
##ሙዲ
ለመጫወት
ሕጻ
##ሁራን
ያልፋል
መሳርያ
ጥላቻን
መስጠቱ
የገለ
የቀይ
dece
በመሠረቱ
የዘለቀ
አህጉር
የባለቤትነት
ሐዋርያዊ
እየደ
አራተኛው
ሲኦል
##ትረፍ
ወደሌ
ጊዜያቸውን
በ195
##48
አስቴር
መጽሀፍ
august
ማንዳሪን
ይድ
##ግራሙ
በግምት
በሆነበት
##ፕሊን
የምናደርገው
ከ25
መቃወሚያ
ውሏል
##ጓዘ
##ልምድ
##ረምቱ
መሬቱ
ገጥሞ
በዓለ
ይመስላሉ
##ሕአፓ
እጆ
ባጋ
የተዘረዘ
ክፍሎችን
ከሚመለከታቸው
ባህሪያት
ፊቱን
##ሪያኛ
መያዣ
በማስተማር
የሚታወቁት
ይኖራቸዋል
##ጋኒስታን
##ሚነት
ነበረባቸው
ማጣራት
ስሙኝ
##ፍንት
አደም
የታክስ
በፀጥታ
ከነዚህም
ቁስል
ስርጭትን
ካፌ
##ተካ
ከመዳን
ሰጪዎች
ሙጋቤ
በጠቅላላው
ተቀዳሚ
##መሳሰ
ዲባባ
እንታ
ስራን
##ጠንቀቅ
ፖል
በመስመር
ሞራ
ያመጣው
##ፊያው
የሚያውቁ
ፋኖ
##ዳኑ
##ነጣ
##ህደት
በዛው
ከዝ
እውቀ
##ሠራር
ያነጣ
ትሆናለች
96
በቀበሌ
##ቅረቡ
የስሜት
ከማዕ
በመግዛት
የሚስ
ኢያሱ
እንዲችል
ብልህ
##አቱ
አለመኖሩ
አጣብ
እንመለከታለን
##ላድ
##ትዮሽ
ስብከ
እዚህም
ሰማኒያ
ችሎቱ
የሚጠይቁ
ማስያዝ
የጎደ
አገልግሎትን
ጠመንጃ
በንቃት
##ምቦልቻ
ቁሳዊ
እመር
እንደሚገባው
ባይኖርም
ጥበቡ
የብልፅግና
አካሉ
ማዕቀ
##ደሰቱ
ዲቪ
##12
ከመታ
ይከ
በመሆኗ
##ጠራጥር
##በቃም
ይገልፃል
መጠጣት
መረጃውን
እቴጌ
አምል
##ሰበት
እነርሱን
እንደማንኛውም
##ኒልክ
##ጀንቲ
በመዲና
ጠይቀው
የጠቆመው
##ቶቿ
በአላህ
አሀ
##ምባሳ
ለሳ
ስምዖን
በምክትል
ስለምት
በእጃቸው
ትርኢ
ሶስተኛው
በጎች
ፈተ
##ብሎ
##ሕትና
ስራቸው
ያሉበትን
ሲጠናቀቅ
##ያኖች
##ነናል
ለሕዝ
ታይምስ
ጣልያን
ይርጋ
##ለታት
በመሸ
በመቆ
የአሁ
በመቀየር
times
ትግሬዎች
##ፈለገውን
ተንታኝ
ኦር
በተከሰተው
##ስትናን
ከየትኛውም
##ደዉ
##መርጡ
በብሄራዊ
ወጥተዋል
የካፒ
እዬ
አጫጭር
እንደነዚህ
የመመ
የበኩላቸውን
ሲኖሩ
ክቡ
አስቤ
ተፈት
የሸገር
የተቋቋመ
##ጸልይ
በአነስተኛ
ይረዳናል
አገናኝ
ከመነ
ከመጽሐፍ
ይዘህ
ከድን
ጊኒ
ጥቅሶች
ሙስሊሙ
ስቶ
የተነገረው
ይሁንታ
##ባጃ
አስተዳ
ሞኝ
##አፕ
መፅሃፍ
ለማምረት
በትር
ነፃነትን
december
soc
መገኛ
የተገኘውን
##ሻን
በስፍራው
ካጋ
##ድሩን
እሷም
ተቋማቱ
##ሬያለሁ
##ድረጉ
ነጥቦችን
ስላላቸው
ተግዳሮቶች
ሠላማዊ
##ሜይል
ትግበራ
ብሶት
##ast
ታስሮ
የተከለከለ
##ግጅጋ
የህፃናት
ጭምብ
##ሦስተኛ
ክፍሌ
##ለሌ
##ደርስም
ፋብሪካው
ወንድማማች
መቆየቱን
##ራሎች
አሸንፏል
ጠጋ
እንዳደረገ
##ገናዘበ
አዋቂዎች
የአማራው
መክፈቻ
ለመምረጥ
ጣይቱ
##ማለች
እንዳይገቡ
ታይተዋል
እርከን
የኤርትራን
እንዲቻል
##ብረታ
አቅማቸው
ምእመና
ተወስዶ
ወንበዴ
##ሙድ
ለብሶ
##ነጥበብ
ከ60
##ሻይ
እኒህ
ዝውው
ድርድሩ
አካባቢያዊ
በ2005
ሰምቻለሁ
ለሀገራችን
##ኪው
##መስለው
በእውቀት
በከተሞች
ራይትስ
##iz
ክፍተቶች
የባል
የብሪታንያ
ያነሳሳናል
ማጠቃለያ
##ሚት
እየወ
ደስተ
ጠል
##ቁጠር
እአአ
አልባሳት
ሰንሰለት
ልበ
መዉ
ይዳ
ሊያመጣ
በመመለስ
ይስተዋላል
ሲመለስ
ሲስተም
የምትገኘው
ይሰጡ
ሃይማኖቶች
ፍራንቸ
መስማማ
##ቀሻ
ጥቅምና
እስትን
##ነሳሳት
ግጥሞች
ሽኩቻ
አጣሪ
##ኡዲ
መተን
መማ
##ረሩ
ስታድየም
ሀሰን
ሲያን
##ዓያ
ለመነጋገር
መጠንቀቅ
መሆንን
በሩን
##ረቱን
##ፎን
##ገለጥ
የታመነ
መተዳደሪያ
like
ይከሰ
በመጠየቅ
የሚደርሰው
ትዝብ
ፖለቲካን
ገበታ
ይጠፋል
ከገቡ
##ድላ
የተግባር
በመግደል
መሪው
የቆየውን
ሀበሻ
ኢራቅ
አርሲ
ድሪ
##በአ
ለአገሪቱ
ለውጥን
##ያቂነት
##ብዛኛው
ኔትወርክ
ሳስብ
##ሕዛብ
ተወዳዳሪዎች
ሲዋ
ይጣ
የሙከራ
##ish
ውዳሴ
የአዲ
ተገቢው
ተሟጋቾች
የዩኒቨርስቲ
ፍጥረታት
ማሊ
##ናቅ
##ጌላ
ተፈጥሯል
ኦፕ
ይሄኔ
ለውይይት
መጫወቻ
ማጭበርበር
ኦዲት
##በይ
ጉዳያቸው
አማሮች
ማፍረስ
በ17
ኮንሰ
##ቀንስ
##ድሪ
##ጸባር
አገሩን
##ated
ማሪያም
የምድብ
የማስተዳደር
በጣሊያን
bbc
##ኒያኛ
ትሞ
የሰፈነ
ብርታት
##ሽያ
83
ሲቀር
ካህን
ውጥ
ለመከታተል
አመላክ
##ቸዉም
ከጋዜ
የጀርባ
የላትም
##ቻት
የሳይንስና
##ሳር
##ሻም
ተሳትፈዋል
ትጥ
##ባስ
##ፋሪዎች
##ሊቱ
የሚሹ
##ጠየቀ
ለፕሮ
ደጋግመው
ከፓርቲ
ጭንቀ
ከተማዎች
##ወተ
ወደመ
እመቤታችን
ነግሮ
እገሌ
ኩራ
ለእርስዎ
ተጽፎ
ዝግጅቱን
ፆታ
መኢአድ
ብርድ
መርጃ
አጋርነት
መዘንጋት
ርስት
ከዐ
እንዲቆዩ
##ጥታለች
ልምም
ለጥያቄ
በመረዳት
በወረዳ
መደራጀት
እንኳንስ
የሚያሰኝ
ሊል
የሰሞኑ
ኡስታዝ
##ጋስ
አንበጣ
የሃይል
ሲሞት
##ርፖ
##est
የሴቶችን
የተገለጸው
fr
ምነ
በለስ
ፊንፊኔ
##ሎታል
ቤተመንግስት
ዓለምአቀፍ
##መዘገብ
ጀመረች
ሞተዋል
ጀኔራል
ፓሪስ
በተጠቀሰው
##ቀመጡት
ኃይለሥላሴ
##188
ጎደል
##ተዳደር
ለመግለፅ
መልከ
አስተናግ
ውድነት
ትርዒ
ለወደፊት
በእጥፍ
በጥሬ
ከፈለ
##ሹም
ኢንፎርሜሽን
ማለቱን
ዩክሬን
መስጂ
አቋራጭ
##ለቱን
##ድቁ
##ነቱና
ድምር
##ረምፕ
የዘርፉ
በ12
ከግንቦት
የማቅረብ
ቢሮዎች
ይፍ
ትንፋሽ
ከቤተሰብ
ድግ
##በጠ
በማስታወስ
##ዘርባጃ
በመገልበጥ
ነብዩ
##ሬቱ
በተነሳ
የመድኃ
የማጥቃት
ኢንሹራንስ
##ሪኮ
የሰንበት
የቀሩት
ቧን
የመጠበቅ
መንበረ
አሉባል
ሀብትና
ለፊ
ጁን
ጣዕም
ማለፉን
የሚያስተላል
በሕገወጥ
አውታሮች
ማስፋፊያ
##ሺን
በስህተት
ማጥናት
ሜርክል
ቁመና
ለማሰብ
ስልሳ
ማለፉ
የካር
አሳልፈው
ፍቅሩ
የቁማር
በኩልም
፲፱፻
በምእ
ዲያብሎስ
ለሠ
ድጎማ
በሽታን
ውግ
የሚቀርበው
ሲሰማ
##ጠህ
ብሎኛል
በጥልቅ
የአትሌቲክስ
ያሸነ
የኤች
የዓለምን
##and
##ቀረብ
ተከራይ
መልቀቂያ
እያለን
ሕዝብና
የአይሁድ
የአክሱም
እንደገለጸው
እያለሁ
ማምሻውን
ከሳምንት
በሃይል
ማስፈራሪያ
እንቆቅል
ነግረውናል
ይከበራል
sup
ሀውልት
ማቋረጥ
አያት
እንደሰ
በመናገር
ደጉ
ጻድቅ
##ረስላሴ
ፈቃዱ
##መፅ
##ጫለሁ
እንደሚሰሩ
##ከርካሪ
##ዉያኑ
እየተፈጸመ
ከአደጋ
በፍቃ
ሰብስ
##ሊኮፕ
ሕወሃት
##ተማመን
##ብራውያን
በሀዋሳ
ጥቅል
ለኢትዮ
ሃገራችን
ኤፌ
##ጸመ
ማንነታቸው
ሕይወቱን
እልህ
የ7
የዘለለ
ለመሸፈን
የግለ
እራስን
አዘጋጆች
አድርጓቸዋል
ምረ
ከጤና
##ያማ
በርግጥም
ለችግሩ
##ጠናው
የጉባኤ
የንፁ
ከሕዝቡ
እሷን
እየተዘጋጀ
አሳቢ
አክሊሉ
በጠራ
ሥርጭት
ኃይልን
ግንባታዎች
ናይሮቢ
የመዝናኛ
አሉላ
በነበራቸው
ያሳየው
በማወ
የግጭት
በውስጣቸው
ኳሶች
##ኑፋ
##ጾችን
የምእ
ያገኘውን
አሳይተዋል
ቁጠባ
##ak
መካሄድ
ንግድና
ከኢን
ሁንዴ
ዓረቢያ
##ሬና
##ሉትም
መሪዎቹ
ምጥ
ትዕይንት
ይረ
አይኖር
##ገሪቷን
የፍሳሽ
በተመሳሳይም
የተቻ
የነፍ
ለማስታወስ
ማቋቋ
ዲና
##ቷት
ጠቅል
ከፊል
የሂሳብ
እስጢፋ
##ኬን
በመሰብሰብ
እንዲዘ
የኮንስትራክሽን
ቅጂ
ገዝቶ
##መጡት
##ጅራ
ቋንቋን
ወልዴ
አቧ
##ባታ
በድንበር
ይይዛል
ከራሳቸው
##ፓርታይድ
በሺህ
##ችለውን
your
ተመለስ
ውለው
##ዋጣ
የሚወስደው
##ቸግራል
የአበባ
የእም
ዘመኑን
የያዘውን
መደረ
ከፕሬ
ከተራ
አጥቶ
ከ12
ስልጣንን
የድርጅቱን
##ቅሱ
##ሕፍት
የሚሊ
##ሳተፉት
ጀግናው
76
ከትን
##ብሃል
##በህ
##ኪስ
##መጣቸው
ቢያደርጉ
እንከን
መያዙን
74
ያጋጥ
ይሆኑ
##ቤሪያ
አይፈልግም
እየመ
##ደረሰባቸው
ምሥጢር
መድሀኒት
የዚሁ
##ፋጠ
##ኳል
አቀማመጥ
ታኅሣሥ
እየተባባሰ
ሕይወቱ
##ፈራራት
አስቀምጧል
##መንም
##ጎለ
##ዞሩ
መቆራ
መጽሃፍ
የድምጽ
ያደረግነው
አአ
ግኑ
##ጠይቅም
ሬሳ
##ኒቱን
##ሒሳብ
ለማስተዋወቅ
ዉይይት
##ቻቻል
በሚኖሩ
በሰኔ
በከፋ
ታመ
የአይን
መስለው
የሶሪያ
##ማማቾች
ወክለው
ለመክፈት
መጽሐፍት
ባዮ
ጐጃም
##ከላካይ
በጉባኤው
ተሰማርተው
##ከብራ
በየሳ
የምትገኝ
##ግተው
##ቅት
ምሳሌዎች
የተመሰረተው
አቋርጠው
ሼክ
ውንጀ
አሳብ
በድህነት
ተሰጥቶት
ሄድ
ርቆ
በጾ
ኾነ
##ቀይ
ከተመ
ርዕይ
ያለአግባብ
በሪ
በትምህር
ከጎንደር
##ቦቻቸው
##ርቲስት
ሕልውና
##በላው
እየተንቀሳቀሰ
ንግግራቸው
ሃይማኖትን
የእኔን
የፕሬዚ
ሊያገኝ
195
ሞገ
##ml
የቅኝ
የመንግሥትን
##ክትሬት
##በላሹ
ካፒታ
ማፅ
አስተው
##ኖችና
##ነጋገረ
መግለጫዎች
##ሀው
##መዘገበው
ex
የነጻ
የተከፈለ
ዜግ
አይመ
አርሰናል
የባህ
ይጠቀማሉ
በቸ
##ረጅ
##ቤቴ
በመካሄድ
የቀለም
##ቅጭ
ለእሱ
በግብር
##ነዘረ
ይባስ
ለጉዳዩ
ተቆራጭ
ቀንበር
ሃርቬይ
ፖርቱጋል
ተጠብቆ
ተከላካ
እስኪያደርጉ
##ስታት
##ጫዎች
ወደር
72
ምረጥ
ሚኒስተር
ለቀጣይ
septe
##ዶኔዥ
##ሎግ
የተሰጡ
የምንፈልገው
ፈልጌ
##ሲሲ
እንዲሰጠው
ለመሙላት
ያስፈልግ
ቅንጣት
ማዳበር
ፍራንች
##ቹም
##ፅዮን
የሚወስድ
በቅንጅት
ቧንቧ
በባህል
ቢሰ
ለማቆም
##ጠርጣሪ
የተመራ
አቀባ
##ጉምሩክ
ሠርቶ
በሳይንስ
ጭፍን
እያጣ
ጦርነቶች
##ነሳም
##ከብድ
በበኩሌ
የመጨረሻውን
አስቆጥሯል
ሊገኝ
ሕዳር
ጓድ
ጣሪያ
የተጻፈው
በአሳ
##ገልጹ
ሲኾን
የነበረች
ወገኔ
##በራችሁ
አዘል
##ምህን
##ብራራ
##ደርስባቸው
አስታውሰው
ታዛቢ
በእም
የጥንቱ
##ጤም
##ነበቡ
የቱሪስት
ኮንሰርት
በኡ
ስርዓትን
የተሠሩ
እንደሚታ
በጥናቱ
አለማቀፍ
ፈልገው
ኤፕሪል
መገባ
##ሳያስ
ከእስራኤል
##ንጀሮ
በፌዴ
የጓ
ኮሚቴዎች
ባየር
##ለአ
##በላሽ
##ኪዳን
የእለት
ተነስቷል
##ምጭ
##ጸና
የማህበሩ
የቪዲዮ
መጫ
አቅኚ
ውሳኔዎችን
##ስተናግድ
በመወከል
አኗኗር
በመቀነስ
በጅማ
ማፍራት
ቅል
##ዲሾ
መሳሪያዎችን
ተወስኖ
##ምራዊ
በረሃብ
ለብሰው
ስምምነቱን
##ላሎች
##ፎርድ
በሚያሳ
ማባ
##ሳሰር
##ችንና
የመጠ
የመፍጠር
እንሰራለን
ንቃ
አሚ
በተሳካ
በሚታ
እምነቶች
መሸጋ
ያዘጋጀው
የዘመናዊ
ፖለቲካው
የጠላት
ህይወቱን
ተነግሮ
##ጊት
የተጠናከረ
የማው
##ታውስ
በኮሚ
ተወስኗል
ንቅሳቶች
he
ሰከንድ
ታቦር
የተፈ
የተገደሉ
መደበ
ማመቻቸት
ዓሊ
##ኮሳ
እየወሰደ
የፋብሪካ
ከቀረ
ጸሐፊው
ዊል
##ግበው
አውቀው
ዘርፉን
በትንሽ
ለዩ
በጄ
ከጦር
ዲን
##ዉስ
እየታወቀ
ጎማ
##ባበሩ
የባን
እራሳቸው
september
ምንድ
አንቶ
ወጣቱን
እስከአሁን
ዐይነት
##ካካ
##ተሙ
ደግነት
አንዱና
ይፈጠራል
መታወ
##ቺው
##ብሮት
ያነጋገራቸው
do
ከና
ከጀርመን
ሆነና
የስደ
እንቅስቃሴዎችን
##ዘርዝ
##ናፊነት
ሰይፍ
ተሻሽ
ከቦታ
ወያነ
ይቁም
የኮሙ
የለውጡ
የቅድስት
አንበሴ
ሊጋ
##ال
እናቀርባለን
##ial
ጀምረናል
ነዋሪዎችን
የተገለ
በመሳ
ሁለተኛውን
ልዑካን
ሲያስተ
አለመሆን
ሌቦች
እንዲሠሩ
##መልካች
ያቀረበውን
##ኔስኮ
የአርሶ
አልኩት
ሕጉን
ኪስ
ክንፈ
##ኒዚያ
##ጀን
አምሳ
አምነስቲ
መካከለኛው
ተሳክቶ
በሌለው
ልጆቼ
ይቃጠላል
የምትል
ኃይልና
ይጠናቀቃል
ሔክታር
ሕንድ
በሚያደርገው
org
የሕዝቡ
ለብቻ
መክፈት
ለማንሳት
ሰርቢያኛ
አሽከርካሪ
መንደ
##ማለሁ
ዴንትን
መንደሮች
ዕውን
ስለታ
##ንግላ
በቀረበ
ወላጆ
ጾታ
አሰጣ
ስርአቱ
በመስከረም
መሸፈኛ
በየሳምንቱ
##ቢያችን
ሕዝቅ
ምሽ
ቃለመ
አልፈዋል
ባለሀብት
ፓርቲዎችን
በብዙዎች
እያደረገልኝ
ዲያቆን
ሣጥን
የክር
ይገጥ
ከ199
ሙዚየም
መዘጋጀት
ቅመ
የጄ
የሚንቀሳቀ
የጎል
ሶማሊ
በቫ
እጆች
##ደጃ
##ብኝት
##ተረጎ
አልተገኘም
##ብቅና
##ጠች
ከመው
የኢትዮጵያዊነት
ሲነጻጸር
የታወ
እንዲሳተፉ
##ደነግ
በክረምት
አጣብቂኝ
##ተውና
የዓመቱ
ዙፋን
ገድል
የሚያገኘው
##ልቃይ
ምሥጢ
ለትውልድ
##ቄዶ
##ሙማ
እንወዳ
##ቀርብም
ደዌ
የሰለጠነ
አድም
መንገደኞች
ኦቦ
አምስቱ
ጥቅማ
ከነበረበት
##ራሳቸው
ይኼንን
እንዳስታወቁት
##ስሙላ
በማር
እስቴ
አሰል
የተደነገ
የበለፀ
sat
ለቀረበ
##መረው
##ዝሬት
##ሬታ
##ገኛቸው
የዉጭ
##ንግዶ
ተደርጐ
ከሃያ
ምዕተ
ህብረተሰቡን
ሜቴክ
##ሰህ
የሰይጣን
ከአቅ
##ሰራበት
##ጸባረቅ
##ሚካል
ሳይንስና
አልተናገረም
ባንተ
የጁ
አንፈልግም
አብራሪ
ተፈፅ
አውሮፓውያን
መቸም
##esday
ድምፃዊ
ከቱ
ማንነቱን
##ገቡም
እስካሁንም
ወታደሮችን
እንግሊዛ
ትዳ
ጭስ
##ጭቆ
ድርጅቱን
##ሞላበት
ማያ
##ላይን
ከአብ
የስልጠና
ዳኛቸው
አክቲቪስቶች
bro
ተማም
##ነቃቸው
ለማስፈጸም
የራያ
በገፍ
አሽከርካሪዎች
##ዬር
አስተባብ
ለሕግ
ተጭነው
በመጨመር
ገልፆ
ገዥዎች
ፈረንጅ
ቁርስ
እያደረ
በቁም
የዳን
##ዞታ
እንደሚመታ
ከመግባ
ከኢትዮ
መስሎኝ
ለሱ
ሽንት
ያት
##ወጫ
የመግለጽ
እንዳላት
አልፈለ
የነዚህ
አጋንንት
ሲገልጽ
##ፒያ
የአዳማ
የታጠቁ
##end
ሊፈ
##ካቸውን
##ዩጵያ
የህው
##ሠራበት
መወሰኑ
##ጎናጸ
መባል
ያስተም
ተያይዘው
መወያየት
የመጀመሪያዋ
በዋነኛ
ባገኘ
ጉቦ
መፍቻ
መሪዎችና
##ዋጅ
ደስታን
መዘግ
የታመ
እንደተገኘ
በጊ
ባቡ
ጉል
እየተጋ
ያሳዩ
ሴቶችና
እህቶቻችን
##ges
አይፈ
አላግባብ
ትብ
እሑድ
ደሴቶች
##ከክ
##ሩባ
##ቴስታ
እርሶም
አስጠንቅ
##ከራል
የማየት
እየተሸ
በመንግሥ
ይበቃል
ከንቲባው
##ላችሁን
##ካሔ
የወባ
ኢኮኖሚያዊና
ሲገልጹ
ሸም
##ኮብ
የትኛውን
የተወሰኑት
##ስፒታል
ይለያል
##ደሬሽን
በህብረተሰቡ
እብድ
የሄዱ
በርሄ
በሪፖር
##ጠኛው
የምናገኘው
ማቆሚያ
ጠንቅቆ
አመድ
##ስትሪ
እንደሚገባም
ወዳድነት
ህይወትን
አድናቂ
አልገባኝም
ዝነኛ
##ራትም
በጥሞና
##ንቀሳቃሽ
ተመዝ
ሕወ
##የእ
##ሴሎና
##መረቅ
እንደነገራችሁ
ኬሚካል
እንኩዋን
ኡጋንዳ
በመፈጸም
እንዲቀጥሉ
የአንተ
እንዲያቀርቡ
የማያውቁ
ተጓዳኝ
እኛው
ጡንቻ
##ካከል
##ነበት
##በርስ
ትንበያ
ፍላጎቱ
##ፈፀሙት
መስጠቱን
##ያየት
የእንግሊ
በሊጉ
##ሚዝ
##ወና
ፈይሳ
##ጨባ
##ኹን
ርካሽ
ውለዋል
##ደደው
የመሳ
ጥያቄና
ተብላ
##ያድ
የምትችለው
እንደነበርም
##ረጋግጡ
አደረገው
##ከራቸው
ምግባርና
##ውቁ
##ጣጌ
የተገባ
ልዩነቱ
መውረድ
እንዳስታወቀው
ተመልክተናል
በፀረ
##ሙሉ
እየመሰ
እየተከታተ
አርቆ
ዕቅድዎ
ሲጀምሩ
##ለዱ
በተደራጀ
ማስቆም
ምኒሊክ
ተከሳሾቹ
መጻሕፍትን
እዩ
##ሸግ
በሚችል
በቀጠ
##ያዊው
ቀጭን
##ጽያ
የተመለከተው
እንደቆ
መሰራት
ነቀ
ፅንሰ
##ፈሪያ
የሚሠራው
##ተኛውን
የሚፈጠር
ከህወሓት
መብረ
ዕረፍት
ሃውልት
##ጥኝ
##ተኛነት
በየመ
ልጅን
አክለው
ለህብረተሰቡ
እውነታውን
##ጥፎ
እያገኘ
የወንዶች
##ቆጣጠረ
መኩሪያ
ያቀረቡትን
የሚቀጥል
እንዲፈታ
የሰላማዊ
##ሰበሰበ
##ይተርስ
##ዘዘው
በመድረኩ
ዝግጅቱ
ፈጥኖ
የሬዲዮ
ለማጋራት
በተቀሰ
ለማው
ማሳደ
ኮሮናቫይረስ
በመሰረቱ
ገጠመኝ
##ቴም
የሚያራም
ከተቃዋሚ
እያጋ
##ፋሮ
እንደሚያሳየው
መፃፍ
የከሰ
አስነብ
##መስለኝ
በትላን
የግዥ
##ሰጠውም
##ይለር
##ሮቻቸውን
እየቆ
##መቻቸ
በኤሌክትሪክ
መፈታት
##eet
በመቆም
የእንግሊዝኛ
በቤኒሻንጉል
ቁልቁል
ስሞ
##ሰኝነት
##ተኛት
የሚሰሩት
ብልግና
##ንጀራ
እንጠብቃለን
አግብ
ጉባኤውን
በህጋዊ
ስለሚሆን
ከ198
##ርጌ
እየቀረበ
ጥሪውን
እስካልተ
የተማር
የሰማይ
አምር
የተመሠ
ትከሻ
ካለን
አትጨነቁ
ግብፃ
ማሳካት
ቀብር
ከሳሽ
ዕምነት
ከሆነም
የዳኝነት
ቀይሮ
የሁለቱም
ለኃ
ዋቢ
ፈጥረው
##ሎቻችን
##ገባችን
ክልልን
መምህሩ
ፋውንዴሽን
##ራሰ
መሰጠት
አጥፍቶ
##ገረኝ
የናንተ
ያድም
አልሞ
የቀጥታ
የሥጋ
ተጋጣሚ
አይሁዶች
ቃለምልልስ
ዓቢይ
ይገድ
##ቀደም
##ድመ
ያልታወቀ
##መቻች
አንዳንዴም
የበለጸ
ደንግ
አድባ
ድጋሚ
አጥተው
ጽሑፎችን
##ማያ
##ሬብ
የማሰብ
ብዙዎቻችን
የሚገጥ
መልሱን
በኢትዮጵያዊ
ጨረታው
##ፍለው
ቫይረስን
አሕዛብ
ጣት
##ቲዩብ
##ተሽ
አለቀ
መኾኑን
##ዳረጉ
ይፈጽ
##ንተው
ሃሳብን
ሳስበው
##ማታ
በአርባ
በርሊን
##ነበበው
ሞክረዋል
ተግዳሮት
##ጋሲ
መንገድና
ዕድገ
ተገዢ
ቁጥሮች
አፋፍ
##ጀክቱ
እየተሰ
የሚሰጣቸው
በመካከላ
ሲነግ
እንቢ
እየሰራን
አድርጋለች
አጠፋ
##ይኑ
ስድስተኛ
ይኑር
##ቀርም
ከስምንት
በቃሉ
##ሀገር
##35
##ሬስ
ኢንዱስትሪው
አከናው
ዑመር
በተያዘ
ሽረ
ጭቃ
##ፖች
አላገኘም
ያሸ
##ኛዉም
ጥቅሙ
አቅራቢዎች
ለማምለጥ
ማቲ
ጉዳይም
##ካሄደውን
አውስትራሊያ
ሱዳንን
ጎዳናዎች
##ሀድ
የሰዉ
ሃይሌ
የሰጡትን
በሳይ
ፔቭ
##ናችንን
ከተነሳ
ሊጠፋ
የጻ
ይመስገን
የደረሰበትን
##ራዊው
የእግዚአብሄር
ያነሳሳበትን
ከከ
የሚያቀርብ
##ጨረሻው
ጨፍ
ሲያጋጥ
ነገም
##ናነቅ
በመነ
ሐረግ
##ተማ
ሼህ
ንፋስ
##ባቂ
የሚከሰት
በይበልጥ
መጽሐፈ
በፈቃደኝነት
የቂ
##ደትና
ለአገልግሎት
የሙሉ
በሰብዓዊ
ሱዳ
ጋጋ
##ፌል
እነደ
ፕላኖቻችን
ለመጥለቅ
ቀንና
ሀይማኖ
##ቡላ
##ile
ይህቺ
ከእው
አገሮችን
አይገባውም
ስሙኝማ
ጽፈዋል
##ሊፎር
በሌላም
ገብረስላሴ
ለስድስት
ተጎጂ
በሜዳ
ባዘጋጀው
መሆናቸውንም
ከጥፋት
##ፈታት
በአመት
በሙዚቃ
የካንሰር
##ምምነቱ
መገኘቱን
ተናግራለች
መሳፍንት
ሕዝቡም
ከዜ
ካውን
የተጫ
የሰራው
ማስጠበቅ
አማራጮችን
የሐሳብ
አኳኋን
የሰጡትስ
ፍጥጫ
በቀረበው
መአ
##ሃመድ
ያለፉ
##ጊዜውም
ቡድኖችን
የመስራት
አብዱላ
ማርቲን
##ወዱ
አይስ
ጠባቂው
ከመለ
##ዘኑ
ምክርቤት
ናትናኤል
ፔቭልን
87
አጭበር
##ያለው
##ሊላ
የሚያገለግ
መድን
ተጠያቂው
በጨረታ
በሗላ
የጠበ
እንጃ
እንዳለን
##ጦጦ
##ተገ
የተበላሸ
መድረሻ
ይለያያል
ዒላማ
##ጎድ
ዘጋ
##ድዋን
ከተፈለገ
እንደሚፈልጉ
አብደላ
የሞቱት
ያደርጋቸዋል
ከክልል
እንዳደረገው
ምትኩ
##ፈራል
ፖሊሲዎች
መነኮሳት
ሠራዊቱ
ከመጀመሩ
በ30
አርባምንጭ
ያረጋግጣል
እግዜር
ተከብሮ
ግድም
ንብረታቸው
በሮች
##ገሳ
##ሣሌ
ህገመንግስት
ሲገባው
##ዋኔ
አለሁ
ምርጫን
አስከሬ
ይሻቸዋል
መዋቅራዊ
ድፍን
##ልሲ
##ፋትን
ባሁኑ
በመጓዝ
አይጥ
##ቸውንና
wed
ሙግት
ተቀር
##ሰብበት
ስንቅ
የቆሙ
ሙሳ
ስምኦን
##ደራጅ
##ደግፉ
እንዳልነበረ
ሽልማችሁን
እስከመቼ
በደረሰበት
የዝናብ
ዳያስፖራ
በራሴ
ባለስልጣኖች
ተቀናቃ
##ላዩ
##ብጦ
##ደነገ
የተካተቱ
እንዲያቀርብ
ተፈርዶ
በተመለከተም
በመሳሰሉት
ቀሚስ
##ዬሽን
ለመወያየት
pl
##ብሯል
##min
##ዮብ
##ቋረ
በመጫን
አሜሪካና
ድህረ
ኪሎሜትር
ቀሪው
አርት
##ገታ
አላየሁ
ተመልሰዋል
ለሽያጭ
ሳይንቲስቶች
የህልውና
ጨዋነት
ከቀድሞ
ቀልጣ
ሆሳዕና
ርብቃ
አጠር
የሚኖረውን
የፈጣሪ
በየአካባቢው
ድፍ
##ርፉ
##ቴሪያ
መዘር
ሪከርድ
##ሳባ
በሽታውን
በ2013
መሰናዶ
ጨቋኝ
ኮማንደር
ሊወስድ
እያከናወነ
በሆነችው
ሰፋፊ
ፈቃደኞች
ላከ
##ive
እንቅስቃሴው
አርጎ
ፍራንችስኮስ
79
##ህነግ
ልባቸው
ሰወች
##ቅማ
ያደረሰ
አድርሶ
የሚያስገድ
የሽያጭ
ይጠቀሳል
##ልፌ
ርዕዮት
የሁሉንም
ደጃዝማች
ወራሽ
ጤን
##ልተኝነት
##ካድ
ጋዜጠኝነት
መፍረስ
ከኢየሱስ
ሃሳቡን
html
በቀዳሚነት
ለቁ
ከግል
አግኝቼ
ከቀጠለ
84
ቢጤ
ከፕሮ
##ትረ
##ራጃ
##ፈፍ
እንረዳ
በአህጉ
ጠባቂዎች
ዞሯል
የአጭር
መሰረቱ
ሚኒስትሩን
እንዳይገባ
ደርሰናል
በማስወገድ
የዓባይ
##ዳብር
ሀይሌ
ተንኮ
ቢቻል
ከማል
ተገዥ
የሚመጥን
ተለዋዋጭ
ኣን
ከሻ
##ኛዋ
አይሻ
ሂደቶች
በድምቀት
ያስቆጠረው
ታውቃላችሁ
##ፍሬ
የታቀደ
የዶክተር
በ1997
##ሊሌ
በእርስዎ
##ቀበለ
በሥጋ
ሸንጎ
##ቦቿ
##ዝናና
የቦታ
ተመዝግቦ
ትውስታ
ምሽግ
ጥያ
አምቦ
##ወሰዱት
በሳዑዲ
የጣና
ተተኪ
ኹሉ
##መኑን
##ተተ
መስህ
##ደውል
##ፕሎማት
በመጠቆም
##ከፈላቸው
በጽኑ
የቁጥጥር
የአምልኮ
##ናፊዎች
ተከፍሎ
ካፕ
ከተወ
የመሰሉ
የተከሰተ
ያቀረብ
መስዋእትነት
ይልማ
እንዳያስ
ከአስራ
የዋህ
የላብራቶሪ
የመደመር
##ዚራ
ድርብ
መነሻው
የቡድ
ያለማቋረጥ
ምታት
አሟል
የአክሲዮን
ለመፈፀም
የነሱ
##ባክ
ሁላችሁም
ሲፈ
ቀም
##ጓሚ
ፓርቲን
ባታ
ለወንድ
በ13
አልፎም
##ፋችን
##ie
ንግስት
መድፈር
##በኝነት
##ክረ
እየገቡ
እንቅስቃሴን
ባለት
##ገነቡት
ሲፈጠር
ስምና
##iy
የሚያምር
ከዓመት
ግሎ
##ፍሽ
አስነ
ህፃናትን
##ሣሽ
እንዲሠራ
##ለችበት
መለኮት
ከስምምነት
ሠራተኞችን
የጋዜጠኞች
መገንጠል
መመልከ
አይፈልጉም
ወልዋሎ
ጌታነህ
ያገኘሁት
ተጠርጣሪዎቹ
የኮሚሽኑ
62
##አር
የተፈቀደ
ማስጨበ
የህንድ
ደስተኞች
ለመጓዝ
አገራቸውን
ማውጫ
እንደምንችል
ተቀናቃኝ
ኮንትራት
አሁንስ
##ሕዴድ
አስተዳዳሪዎች
ሕዝባችን
##ጅምሩ
ጥቂቶቹ
የመቀሌ
ለህል
##ነግር
የስድስት
ወልዲያ
ዘግይቶ
ከግራ
የትር
ያነሱት
##ወረው
ማዳመጥ
የቃላት
##እክ
ያልተለመደ
ጥበብን
ቅነሳ
##ታውራሪ
የራሳችን
የባህልና
እጠይቃለሁ
6ኛ
አኩሪ
ገዳማ
ግና
##ሰብም
በምድ
ዳውድ
የአዲሱ
ለመጨመር
እንዲቆይ
ግልጽነት
ከጃ
##ፊነት
ይጮ
ፍሳሽ
በማቋቋም
ይጠራል
##ኣን
##በኘ
##ዞችን
ድንበ
የሚሆንበት
ሥልጣኑን
የጃፓን
የመካከለኛው
ሲሞክሩ
ዲግ
የሚጎዳ
አስቀምጦ
ውሉ
የኢሳት
ነፋ
ሰፍ
ሽሮ
ባክህ
ትረምፕ
ዎር
##ኢህዴን
መገኘቱ
አለፍ
የትራምፕ
##ጠቀምባቸው
ቦይንግ
የውል
ፎቶግራፍ
ለማጣራት
satur
ለፖሊስ
በየእ
እርግማን
##ዊስ
በቅቷል
መራሹ
ትንንሽ
ጅፋር
የመወሰን
እየፈጠረ
ቴሌቭዥን
ብፁዓን
ክበብ
ዘራፊ
##ሎጅ
ላይሆን
የስደት
ባይኖር
89
ልባዊ
አዳራሹ
አስተዳደርን
አለምን
ሊቃውን
የብርሃን
የመግዛት
ጢሞቴዎስ
የዴ
እየተሰጠ
ተወው
##ፋኑ
በነሱ
##ደግፈው
መኪናዎች
ከዚያን
ድርጊቶችን
የኦሎምፒክ
ለመልቀቅ
ታራሚዎች
##ክሪ
##ፀባር
አብመድ
ወገኖችን
የቴዲ
ዲፕሎማቶች
saturday
ተፈራር
ከቅዱስ
ንብ
ለማብ
ከአሁኑ
##ራቸውም
የከተማዋን
የታየበት
ማሰባሰቢያ
ሐቅ
ከተማና
ሥዕል
ቆየ
ዉጪ
##ጊያው
እየመጡ
እያደረግን
በእለቱ
ኢትዮጵያዊት
ገዳማት
ባዩ
እንዲሄድ
##ገርምም
ከመደ
ችግርና
በኩራት
ተረፈ
##ረች
በማሰባሰብ
##ትናገር
አሰና
እንደምንም
ገብረመድ
የተላከ
##ሰኞች
##ፓል
##ታውም
ይነግረናል
ከሴ
##ጸት
ጉዞው
ይከናወ
##ቃውሞ
የተፃፈ
አስታውሳለሁ
##ቀምጥ
በንጹ
ሜዳልያ
ኦፌኮ
ከንግ
##ታሞች
የካቢኔ
የአንበጣ
በቄ
ከቫይረሱ
ፋሺ
##መኛል
እስያ
በትውልድ
እንዲያም
ቢባልም
ገልጠዋል
በሌሊት
ለሚሆኑ
ታዳጊዎች
ቁሳቁሶችን
በቪዲዮ
የሾ
ዘርዝ
ሕል
##ሚኒ
##ኖቻቸው
አበቤ
የዕለቱ
ክሪስቶ
ሲፈጸም
ቦንድ
አልቀ
ለነበረው
ሕልም
ቁንጮ
ኳስን
በተዘጋጀ
የኢራን
የሚመስሉ
ምደባ
የአሠራር
የጥን
የ14
ተስማሙ
ሱነ
ሲንቀሳቀሱ
##የመው
ካለፈ
በቅኝ
አረፍ
በዋነኛነት
me
ኢማ
የታች
የሚያስቡ
መክፈ
ስሕተት
##for
ኢትዮጵያውያ
ኃላፊነቱ
ያስተናገ
በተቃውሞ
የዚያን
##ክሳይ
የተረገ
ለሚያስ
##ጠፉም
በፎቶ
##ብሪ
##ሃይ
አይሰጥም
እየተባሉ
ተሳፋሪ
መስተጋ
አጥብቀው
##ኔጋል
በውሸት
ሶሻል
ትሰ
የጥቅም
ሚሊሻ
የጉልበት
##ቅጣጫው
##ዲፈቻ
ማድረግና
የሞተው
በሚሊዮኖች
##በኩር
##ባባቂ
የጀመረውን
ተሰራ
##ዓሊ
##ያላን
##ቪዥ
በሰውነት
በኦሮሚያና
ሟች
በመሳተፍ
ከሚባሉት
በዓመቱ
ፌደራሊዝም
አንባ
አልፈ
ሲኖዶሱ
ካቴድራል
ትኖ
##ለባቸው
##ራሪዎች
##ሞላው
አቅምን
ልብሶች
በማገልገል
ስላላ
በጋዜጣ
ግሪክኛ
ማርያምን
አትን
ይሔ
ያስቆጠረ
እንደሌለበት
ማሕበረሰብ
አቡበከር
##ዛር
በማከናወን
በትዳር
የሀገራችንን
ነዋሪዎቹ
ሳተላይት
ሊቨርፑል
ዘጠ
ፍሪ
እንሆና
የሚከ
የደረሰን
የተሰኘውን
ለዜጎች
ያነጣጠረ
##ጋትና
##ገራቸዉ
ተጋብ
አቁም
የታጠቀ
በህንድ
ተያዙ
ጀነ
##ልተን
ድርጅቶቹ
የግዕዝ
ኢኮኖሚው
ያወጣውን
ወርቃማ
ከንጉ
የአኗኗር
ለአካባቢው
አሳሰበ
ልማቶች
ሰምተው
ግንድ
##ሳሳ
##ፈልገውም
ጓደኞችን
የወሰደ
ጽሁፎች
##ህራሄ
የማንም
የሚያስፈልግ
አፍር
እንደማይሆን
##ደፈ
##ኪዮ
መዝገበ
ስፖርታዊ
መከላከ
እሙን
በ14
##ገሩኝ
የሚያስችለውን
ልኮ
##ሂሊ
የሌሊት
ስሜቶች
ታሪካችን
ኦርቶዶክ
##ገንን
##ሄረ
የሰላ
##ታወት
መላውን
##ትናንቱ
ብልጭ
መገልገያ
ፌብሩዋሪ
በኖር
ተስተካ
ያሳለፈ
የሽልማት
የሚያስተናግ
wh
አቋርጦ
ፈጽመዋል
በክልሎች
ዱር
##ደሙት
##ፍቲ
ክልሉን
ስርዓቶች
ተሐድሶ
ማስወ
ጥያቄም
ከእውነት
##ነገረን
ሰማሁ
ለመላክ
በልብ
በቅንነት
ትምህርትን
##ኒያም
መቆየቱ
getty
ዋናዎቹ
አይቻለሁ
ግጭቶችን
እየለ
በጥቅምት
ሃሳቦችን
##ትርያርኩ
ከደርግ
እንደሚያመለክተው
##ቋቋሙት
images
እንወዳለን
ሀረር
ለነሱ
##ቶና
እያላችሁ
ተቀበ
ብልት
ሊወሰድ
ያብ
ማንቸስተር
እሳቸውም
ጋዜጠኛው
ደክ
ከብቶች
ሜክሲኮ
##ቃጨ
በጥርጣሬ
ዋይ
እንደእ
ባይደን
ወጥመድ
ታፈሰ
ኪነ
የርስ
ዩጋንዳ
##ሃለን
##ቢሽን
ለሚፈልጉ
የቅማንት
የተወሰደው
ንረት
በስፖርት
የሀሰት
##ፈረጅ
##ሬትስ
ያብራራል
ከተቻለ
ተመልካቾች
የመክፈቻ
##ክቸሪንግ
ስሟ
የፈጸሙ
##ረገው
ክህሎ
##ፈራረስ
ነበረኝ
##ዮታዊ
የሚበላ
በሚፈለገው
የወዳጅነት
ሲኒማ
እንሆናለን
አቪ
አድረ
ዲጂታል
##ግንነት
ሁለገብ
አጥቢያ
##ትስአፕ
ሰምቼ
ሜይዴይ
ፓስተር
##ህንም
የሚከበር
በስተመ
በአማራው
ከቆየ
አንገቱን
ያሳተ
ቆራጥ
ከጌ
የጠቀ
##ቦቹን
##ንስና
አያይዘው
##ዳትና
በማረጋገጥ
ያስገኛል
ፍትሀዊ
ቅርንጫፎች
ኬሚካ
ለፓርላማ
ተሹ
የጡት
ጽንፈኛ
##ረዱን
##ቴስታንት
ዐይን
##በረክት
ይሰጠዋል
በጽናት
ስግብግብ
ከበር
ከአል
የተደረገበት
ቀዳሚው
ለድርድር
ከያዘ
በአፄ
##ሩንና
ለሚኖሩ
ልጃገረዶች
ኮት
##ካፋ
በኦሮምያ
ከጎን
ዱባይ
ቦታና
ከቀናት
ለክልሉ
ጂቡቲ
የማራቶን
ባለመቻላቸው
አንጋፋው
ኦዲተር
##ያንና
ሬስቶ
ጠቋሚ
ጭፈራ
##መቤታችን
##ዜን
የጨለማ
ያቺ
##ጳውሎስ
##መጥን
ቅጠ
ዮሀንስ
ፑቲን
##ህድ
የጽሑፍ
ያረፈ
##ቃዩ
የሚከሰቱ
ፐርሰንት
አሰማ
##ሳሰበ
##ጭጭ
##ጫወቱት
መሆ
ሰናይ
##ርቭ
የጥቃት
በተባሉ
ከወን
መውደቅ
##ice
##ጳጳ
የሚለዉ
የሚጠብቅ
አንጀት
የሚያከናው
ph
ሐዋ
ይቺን
ደረሱ
##ቆተ
ዘመዶች
እምነትና
እንደሚኖረው
ፍራቻ
ማስጨበጫ
##ሺፕ
ፓርቲዎቹ
ይጠብቃል
መጪ
ማየ
ያራ
የሚገድ
ፍሬው
##ነውና
የጥበቃ
ለዳ
##ሻሊስት
##33
##ጠቃለል
የራሳችንን
መጥራት
##ላውን
እንደሚፈልግ
ማስቆጠር
ሲያቀርቡ
መጥተዋል
ከወር
በቀጥታም
ሳህለወርቅ
መፈጠ
ስቱ
##ያሚ
##ዒድ
##ልቦ
ወደው
ይጠይቃሉ
ሄደን
##ክረን
ወረርሽኙ
ማውረድ
ይሉናል
##ላላት
አስተዳደሮች
ተሸክሞ
ደባ
ከአርባ
ተናጋሪዎች
##ነሪ
እየጠበቀ
##ባባሪዎች
የጅማ
##በጀት
የተቀሩት
##ፈላለግ
አዱ
##ነሮች
የተጎዱ
እየወጡ
አደረግ
##ባህ
##ሐስ
በይቅርታ
መጠናቀቅ
ዮርዳ
##ገሉት
እንዲጨምር
ለምክር
አመኔታ
ሳምሶን
እንደወጣ
ለማቆየት
##ማራቸው
##ላዊው
ሃሳባቸውን
አውጥቷል
##መላክት
ፈገግታ
መናገራቸውን
እወ
ይብ
##ባማ
እናማ
##ፈጸሚያ
ሀብቶች
ኢቲቪ
ገንዳ
##ቀፋዊ
##ሃነም
በተከ
ምዕራባዊ
ስመኘው
እየገ
##ልጣናቸው
ለወጣቶች
##መስሉ
ባልሆኑ
ጭነት
ሊያገኙ
ባህልን
##መንድ
ካልሆኑ
##አልና
አመራርና
ንው
ከጥር
##ደቱን
ከረጅም
የፅሁፍ
ህጻን
ታገኛ
ኑር
ዘነበ
##ጨነ
መራመድ
ሱነይሳ
ያለንበት
##ፈለጉት
በማክበር
ከመኖሪያ
ተዘግቶ
መከልከል
እዘርዝ
በማምረት
እንደተባለው
ትምሕርት
ተወያይተዋል
ብጹዕ
አተኩ
ያሳድ
የተመረጠ
ካቶሊክ
ፒቫል
የስሜ
##ካሂዱ
ማይክሮ
የሊቢያ
ውጫዊ
ደንታ
ጥምር
##ጠትና
ምርትና
ሱሪ
##ዛዥ
##ሻር
##ሞቻችን
ድምፁን
ብሄሮች
ወረርሽኝን
ኖት
አጫው
በአሉ
የርዕ
##ከባቢው
##ሳቡ
ብርሀን
መተባበር
የሚመጡት
ቦርሳ
ረብሻ
##ሽቆ
ተወግ
የዕር
ፋሲካ
ለመታገል
##ህይ
ሐዲስ
ሰሜናዊ
ሳይሳካ
ወጣቶችና
ለሱዳን
ናይጀሪያ
##ማኒነት
ዘፍጥረት
እንደራሴዎች
የማወቅ
ያለፉትን
በፍርሃት
ላንድ
የኳስ
አማራውን
ማኅበረሰቡ
ማስተባበሪያ
ግሽበት
ተለያዩ
ምንጮ
የኛን
መልዕክቶች
የወንጌል
ቢመጣ
ያገለገሉ
ልባችን
ሠፈር
ሰፈ
ያሰብ
ያበረታ
በስሜ
የሸዋ
እስጢፋኖስ
ታናሽ
ወዲ
የሚጥል
ግጭትና
የየመን
ተጠይቀው
ሕብረተሰብ
አዘርባጃ
በሃሳብ
ስልጣናቸውን
ሙሌት
ማከማ
ያልቻ
መሠረቱ
##ያፊ
##ser
##ፊቱን
##ንያም
ገበሬው
የይቅርታ
ውጤታማነት
ሽግ
ተነሱ
##ቴሉ
ቅዠት
##ሠሩት
አውር
ተዘዋ
##ጧት
ሚሳ
ኖረዋል
##ዮቻቸው
አባወራ
ወጪዎች
##ፈቅድም
የፒ
ንፁሃን
ሲቃ
##ቢል
የሚንቀሳቀስ
ያስታወሱት
ለንግድ
ሲጠበቅ
ትረካ
##ካሚዎች
##ጣታቸው
የአማራና
የሃገራችን
##ኣት
##ካፈ
##ጠየቀው
##ቷም
##ኋት
##ምንበት
አማፂ
በ24
##ዘዋወሩ
ወሮበላ
tweet
ለሸ
መፈፀም
##ልቂት
##ምገማ
የገባውን
ከሃገር
አሁኑኑ
##ሻማ
የሚቀጥለው
##ዶር
##ፀት
በተን
##ሠራም
##2006
አመልካች
ደደብ
##ፋለሁ
##ረጋቸው
የታጀ
በውጤ
አስተሳሰብና
የሚገባቸውን
ጥቃቱን
be
ትቤ
##ፅዋት
አስሮ
ተሰርቶ
##ass
ባየ
##ረስት
##ሽሽ
##ነበው
አጠራጣሪ
የኾ
ስለነበረው
መፍቀድ
የሚመጣውን
የተመረጡት
ቢቂ
##ዎትም
##ኤች
አላለም
በነዳጅ
ከምታ
ከትውልድ
##ፍላ
እንዲመጡ
የምህ
ለ4
ይቀርባሉ
##ዝድ
እየተና
እድሉን
ይጠቀማል
ይሰቃያሉ
አመር
ኢራ
ከመላው
አስተሳሰቦች
ማስቀጠል
የእርሱን
በዩኒቨርሲቲው
ለጋራ
##ፖል
ማስፈን
በቀጣዮቹ
ነበል
##26
ለውስጥ
የዘው
ባህላችን
የሚሸከመው
ስመለከት
መዝገ
ይታወቃሉ
##ቀናጀ
የጀርመኑ
ለኩ
ህወሃ
አይዞህ
ለከፋ
##ጥሉ
##ቢን
የተጠራ
መስኮ
ያደረገችው
የተናገረውን
ቆራጭ
አቅመ
የሚገኝበት
በባለሙያ
ሎጥ
የኑክሌር
የጾታ
ማመላለ
ሲከበር
ክሱን
##ቀኞች
ከእንግሊዝ
ምግብና
በማስተባበር
ቀሪዎቹ
ተላላፊ
የድረ
የጻፈው
##መሪያ
##ly
አጥኚ
ሔዋን
በሚመስል
ያልነበረ
አላህን
መቀበ
ከሩቅ
##ግለል
በዮ
ከ80
የፈለግ
##af
እንድንሆን
##ምባቡ
ኣይደለም
ማኒ
ኪም
##ልቅል
ከፈጣሪ
በአንቀጽ
##ካና
##ቫን
በጥንት
ያስታውሳሉ
በመክፈት
አሸዋ
##ፍራም
የሚገርመኝ
ይመለሳል
ec
ወዶ
የአሳ
አውታር
ጊዚያ
ጽፎ
ከኤጀንሲው
ያግዛል
ይመራል
ኮከ
መስራ
ከእስ
ኣሁን
ማይክል
1997
በወጣቶች
ኦብ
##ለቲከኞች
የፈለጉትን
የአገራችንን
የመግባ
መነም
በማስቀመጥ
ሃዘን
##ዲንግ
አቅምና
ለብሔራዊ
ዘንድሮም
በቀጣይነት
94
የቀኝ
የሌላቸውን
ልዋ
መጠናከር
##ነይ
እንቀጥ
በተጓ
የኤሌክትሮኒክስ
##ደህ
በመለስ
በኃላፊነት
አዙሪት
ለሀገሪቱ
በአዋጁ
##ሆናቸውን
##ለቅስ
ወንጌልን
ቢችልም
ቅዱሳዊ
##edia
በፊቱ
ተስተውሏል
የተጎ
አንጌላ
በደሴ
በመሆኑና
##ብሄር
ለማኅ
አበል
##ቆምም
መጽሐፉን
የኢየሱስን
በሄደ
##ድሮች
በተገናኘ
ሱማሌ
ተከተ
##ኮቹ
ተመልሷል
የቀድሞውን
it
ካላችሁ
የቀጠለ
ያልተገባ
ጡረታ
##ኩህ
በተደረጉ
ያስቸግራል
አማራዎች
ልሳን
መጎ
በቲ
ደኅን
ፍየል
##ሻሻለው
የፕሬዚዳንት
ከጅምሩ
ደቡባዊ
የሚችሉትን
ይወዳል
አጠባበቅ
ልባ
መጓጓዣ
ያሰበ
በዘመናችን
ይኼው
ሴንቲ
የፆታ
##ሳሳት
##አተ
##ድቀት
አጥፍ
##ከታተለው
የባህርዳር
የእንኳን
##ነባበረ
ስሰማ
ሸኔ
##አስ
አዳራ
ያስተላለፉት
የገንዘብና
የሚጠቁም
ጭምብሉን
ከኪ
አስገኝ
የታዳጊ
መወዳደር
ሱራ
አስጠነ
ብዙሀን
የተሰጣቸውን
እንደምትችል
ቦንብ
##ጨመሩ
ለማስፋት
##ርክና
በላከው
በዝቅተኛ
ቱሪስቶች
ትዉ
ከክፉ
##ርሞ
በማረሚያ
እየታዩ
ኮሚሽነሩ
የፍልስፍና
##ኛለች
ዕድሎች
ኢሌ
ፈጻሚ
##ድቋል
የአረንጓዴ
አማኝ
ይሰጠናል
ከዓመታት
አሳት
አከፋ
##ያትን
ያለኝን
አንድምታ
አብዝቶ
##ጠራቀሚያ
እንደኾነ
የክርስቶስን
ተገልጧል
ተስማምተው
ግርም
##ዳችንን
ለምታ
በመተከል
ተባብሮ
ባልንጀ
ብስክሌት
ወተ
##ጓት
ድርጅትን
ልጆቿ
ለንጉ
ሩስያ
ወስጥ
እንዲወስድ
እስክት
መግለፅ
ለማስቀመጥ
የድህነት
ወልቂጤ
ዴሞክራሲን
ቆርጠው
ቢልም
በማድረስ
የቻሉ
ፊልሙ
ማሕበር
መሰናክል
ደጀኔ
የልማትና
##ላሰል
##ደባቸው
##ቻልበት
##ከባሪዎች
በ2015
ኢብሳ
አድሃኖም
ለሊ
ስታይ
እንዲወስዱ
lol
ስላስ
የተቀደሰ
በዚች
##ረርሽኙ
ማድረግን
አሸባሪዎች
የምናስ
##ገጥመው
ይደነግ
ካለም
##ደታ
ተቃወ
ገብቼ
መደር
##ቸኝነት
##ዦር
##ደረግባቸው
በብድር
የመንግሥቱ
ምነመ
ሞሮኮ
ፋታ
##ዛዜ
##ተልአ
በመከታተል
የመፍ
የእህል
ማስፋፋት
##ገናተልአ
ወልድያ
##ማግኘ
እከሌ
ምረገናተልአ
##ሾማ
ለሚገኘው
ዩኒቨርስቲዎች
የሚያስከትለው
months
ትርምስ
የቆሻሻ
ተነጥ
በ2004
በአሰቃቂ
ባለንበት
##ዎቹና
የብቃት
##ወርወ
ማሽኖች
ሻምበል
ረፋ
ይባርክ
ልጃቸውን
ፈላጊዎች
ቅብ
ፍሎ
##ነተ
አዳሪ
##ፈልጋቸውን
ታሰሩ
##ምዶ
የሚነሳው
በመዳ
እንዲመራ
##ያየር
የደጋ
መስተዳድሩ
የዝውውር
ተደራጅቶ
##ነበራቸውም
ያማረ
ያየሁት
ግደይ
##ዛማ
##ነዱ
የሚያመጣው
ሰነዶችን
በፈጣሪ
##our
ማሾ
##ከቱት
##ረቱት
##ነማ
##ach
##ጋታል
##ህናት
ተመላ
ሰንጠረዥ
ሴትዮ
ጉዟ
አካሄዱ
ሊያደር
በዘለለ
መሸጫ
ታያ
##ዋለው
##ተላለፍ
##ሃው
##ቻቸ
እንደማያስ
##ረፍተ
##ረከበ
##ሊፎርኒያ
ያሸን
##ችስተር
##ዛወር
##ስተውል
አምላኬ
የፎ
##ረኛው
አንተነህ
##ቆርጥ
##ናቱን
##ሠር
##ሣቸው
እንደሚል
ልዩነትን
በታሪካ
የክፍለ
ነፍሳት
ዕድሉ
##ስራኤላውያን
ቀነኒሳ
ቴይለር
##ዳድረው
##له
የደንብ
በሎ
ካራ
##ራተን
##ግዛ
ሻሸመኔ
ቡናን
ገዛኸኝ
አውቶቡስ
ፅንፈኛ
ፍጅት
በመቆጣጠር
በተጋ
ከአይ
እውቀትና
ብንል
ይወጣሉ
ባለሥልጣኑ
ቪኦኤ
ንጋቱ
የተነሱት
እየሄዱ
ከማኅ
##ሰረዝ
admin
ቁምነገር
በእንግሊ
ለጌ
##ዲቅ
##ኛና
ተወለደ
በስተመጨረሻ
##ህትና
##ክታ
ኃጢአቶችህ
አስተላልፏል
መቆራረጥ
ሞቃ
ፋሽን
አጥጋቢ
ልጇን
##ዊቷ
##መስቀል
መቀስ
##ወቅቱ
ሜጀር
ዘም
እንደሚኖሩ
ሀሳቡን
አሰብ
የአረ
ህያው
ሱፐር
##ሞዝ
እንዲኖረን
የእቅድ
ያደርገናል
ጠባሳ
ጥሰቶች
መቋረጥ
ስለት
እንደተናገረው
ከዋክብት
##ድቆ
የታዩ
ያውቀዋል
ዕድሜው
##ኑፋክቸሪንግ
##ፍኑ
በኢትዮጵያዊነት
ወንድሞቼ
በቁርጠኝነት
ላሳ
ሲጠፋ
##ጋልጥ
ትምህርቱ
ተፈጽሟል
አእም
የሰለ
በግሉ
ብርሃኔ
በተሰኘ
የተቆራ
##የረው
እየተቃ
ስፍራው
የቫቲካን
ሃርነት
ሲቀጥል
ሳትሆን
በመኖሩ
አይጠፋም
የዋለው
ለዚ
ለውጦችን
ይሰማቸዋል
አባላትም
በተሳሳተ
የሚፈል
ከሚታ
##ናገራቸው
ፈራ
##ልቭ
##ik
ከተከሰተ
ጀመርን
ሊሰጡ
እንዲቋቋም
አስከባሪዎች
ተስፋን
ዶክመን
ማሸነ
የአመራ
የላቦራቶሪ
ለኮሮና
መጠናቀቁን
አግል
##ገለው
ለአመታት
ለእው
የፕሮጀክቱ
ሐበሻ
ክምር
##ቻቸዉን
በአጥ
እየተመራ
አስታዉ
የሳውዲ
ከተጠ
በጥራት
ገብሬ
ማሳለፍ
1000
##ኅራ
ገንዘብን
ተጫዋቹ
058
ሰልጣ
ብለናል
ዋሺንግተን
##ጉዳ
በአሰልጣ
አገርና
ለተጠቃ
##ኳታር
የትኩረት
የምስጋና
ክህነቱ
##ሻት
ከአም
ምርቱን
መዝጋት
አድርጋችሁ
አልተሳካም
በኒ
ተጻፈ
መስኖ
ተናገር
##ጀንቲና
ሐኪ
ኦስ
##ዝኑ
ለማስቻል
ራስህ
ያጋጠ
እንቆቅልሽ
ነቀል
ዕለታዊ
##ዊን
ሰዎችና
እሰከ
ለደን
እገም
ከሰል
ቅሬታቸውን
እልል
ከቀን
ግስ
##ቻርድ
እንሁን
ሕይወትና
ከግብጽ
ቀኖና
ቡልጋ
ኦን
ፖስቱ
አይመጣም
##ላቀለ
በቆሎ
##ኖዶ
ዋናውን
የተባሉትን
##ical
በፌስ
ይቀጥላሉ
መወሰድ
ለመሳብ
ተከላካዮች
ፕሮፖጋንዳ
ቢሞክ
ተመለከተ
##ችላቸው
##ነዘር
ለመጋ
ዘውዱ
ሃጫሉ
አቆ
##የዋ
##ቅመ
ምክሮች
የሀሳብ
ፈጠረ
##የንስ
##ቦችና
በማስመሰል
ፎቶዎች
ሊመ
ተፈፃሚ
የሚገኙበት
ዘመቻው
እሳቱን
ተያዘ
ትመስ
እየወጣ
##ታችንና
##ደገፉ
##ሰልጠን
በሩሲያ
ተሰባስበው
ቢኖሩ
በምርምር
ሸን
ኩባ
አውድ
መጽሄት
ከመፍ
የወሎ
የተጋለጡ
##ኒስቴሩ
የሚካሄዱ
##መጣበት
አወቀ
ስፖንሰር
##ver
ስብሐት
ጥበቃና
ለሚመለከተው
በመስኖ
የሚታዩት
##ገጥማቸው
አዘውት
ለፋ
ቆንስ
ነገን
ከደረ
ፖርቲ
በመጫወት
የማጥፋት
መሆናችን
ግልጋ
ከ16
ማመላለሻ
ተዉ
በሃይማኖ
ውይ
ለአዲሱ
በእርሻ
እቃዎችን
##ጣቀ
በተከሰተ
እንዳና
የሚያስጨ
መለዋ
##ጠረጠሩ
የደረሰባቸውን
ha
ንቀት
ከኩ
ከኬንያ
የገለጹ
##ገረም
በጥያቄ
እንደተገለጸው
ቅድም
ኋላቀር
ያነጋገር
ፌስ
ሊሸ
ማልማት
##ረቁ
በሙስሊ
በሕጋዊ
ልቡና
ሎጂ
ያፀ
##የበት
ዘዴዎችን
አታስ
es
መጋቢ
የተገደሉት
ተነጋግ
ህወሓትን
##ገሱ
##ዛምቢ
መካነ
ሊፈጥር
አጋል
የሃገሪቱን
ስንታየሁ
ለማስተዳደር
በማለቱ
ፍትህን
##ከታተሉት
የ15
አጠናክረው
ሊረዳ
የግር
##ቨን
እንደሁ
እየተፈፀመ
መቆጠብ
ሳምንታዊ
የሚያግዝ
ደራሽ
በማዋ
በመጠኑ
ኦማር
ከበረ
የታወቁ
ከተባለው
##ook
ናፋ
ወከፍ
ይታደ
ሪፖርቶች
##ኒስቴር
አንቶኒ
ችላለች
##ቸኝ
ተጠቆመ
ልዑክ
የቻል
የሰደደ
10ኛ
ትኩሳት
ደህንነቱ
ከሁለቱም
##ib
የአራ
አገሪቷ
ተፈናቅለው
ቁጭት
ቃላቸውን
##ርቆስ
እንዲጠቀሙ
አሸነፈ
ስርዓተ
93
እሾ
በውሳኔ
ባለቤታቸው
##ተሃል
አለችው
እያደረሰ
ትባል
##ንቆ
##ደትን
##ስኪ
የተፈፀመው
እየተወ
በርቱ
መጠራ
ነብይ
የምንዛሬ
በንብረት
ሸቀጦች
ርጋ
አሜ
ዘንግ
የለማ
##ከሉት
##ስጥር
አይደለምና
ከፌዴራል
ከጀ
ከሰራ
##ናቂ
##ቆጠብ
አይሰራም
ንሬብ
fre
ራሳችሁን
ቁመት
የሚያቀ
በደመ
መቀጠሉ
##ደርግበት
እንደማይቀር
መፍራት
ሐይል
ሞገድ
ሲሞቱ
ኢድ
##ለና
ሚኒስትርነት
አምባቸው
##ሳቸውም
ጅማሮ
ግጥሚያዎች
ሜዳው
በሲዳማ
በአንደኛው
ለለውጥ
ከኣ
ከአሥር
ሃላፊው
##ፋቶች
##መንግስቱ
ሐሳቦችን
የማኅበሩ
ቁነ
ሰርተዋል
አንቀጾች
ደብረፅዮን
ስዋሂሊ
ችያለሁ
##በይት
##ቡበት
##ነታችሁ
አለመቻሉ
የንጹ
በማግስቱ
ፈውስ
በመቐለ
የአመለካከት
በፖለቲካው
በፓርቲው
ውዝግ
##ደቢ
ክትትልና
ሻዕቢያ
ጣሊያ
##ምንም
##ኛዎቹ
##ጣትና
የጎርፍ
ከቀድሞው
የተገኘባቸው
ቱቦ
የቁም
በማደግ
ኃይሉን
ጉባኤዎች
##ጨትአ
ጠንክሮ
ክሬ
ፀሀይ
##ግማዊ
##ኸር
በማሻሻል
በረጅም
ያሏቸው
##ሀትን
##ጓልፈስያአ
##በታለን
ውቸጓልፈስያአ
የኢፌዲሪ
ቁነጨትአ
##ሰላም
መለስን
በቅርቡም
ሆስፒታሉ
ውስጡ
በጤ
ለማራዘም
ሎሚ
ሻቢያ
ውወተ
##ዶቻቸው
የእሱን
መጣጥፍ
##ስክንድር
በጓ
ከቻ
ገድሎ
ጸሀፊ
ያለሁት
አላስብም
##ልፍም
ጭቅጭ
አለያም
በጥቅም
የዛሬውን
ዘራ
##ስተጓ
##ታውያን
የነበረን
ተጠራ
በምድረ
አትር
##ሃኒት
ሌላዉ
##ለህም
##ንዴና
ለሲ
##ፈግ
##ሬሳ
የሚው
ለአገራችን
መንገድን
የተደረገላቸው
የተደበቀው
##ፅፍ
ያስከተለው
##ላፊነታቸው
የማስተማር
ላት
ምላስ
ስንቱን
አጥተዋል
መጸለይ
ሶዶ
ሽንፈ
ካይሮ
ያነሱ
##ፅና
ተቀራር
ትንሹ
መመሥረት
ለኪ
ዐውደ
##ሞስ
ከተሞችን
እስላም
መክረዋል
ከ500
##ዋጁ
በስመ
የለምና
ዓመታቸው
አጠናቅ
የኩላሊት
ብሆን
##ሳወ
የፈጀ
በግድቡ
ትታ
የሚያዋ
የምታወ
በሰባት
ኦሮምያ
በክሱ
ያውቅ
በ2003
81
በአለማችን
መርፌ
የኦሮምያ
ገናና
የሚፈጠሩ
ግንኙነትና
ገቢዎች
ምርታማነት
መፈለ
ከፈለገ
##ስራእ
የዋና
ቁልጭ
ሮናል
አክሎ
ይፃፉ
ለመገንዘብ
ለወራት
ግላዊ
የሌለውን
##ትድርና
የሚበቃ
የአርባ
##ባልን
በዕውቀት
ሰበካ
ሜካ
##ዲኦ
##ክቶች
እንደሚቻለው
ሰራተኞችን
የሚገባን
ሰዓሊ
ለ5
##ልቀው
ሞያ
ቻናል
##ሬቶች
መግባቱ
ማህበራዊና
ቆሮ
ከጐ
ጃፓ
መንታ
በነበር
ርዕሶች
ወልዱ
በኦነግ
##ንሱ
ተሰብስቦ
ይመረጣል
ዪአ
##ሣሣይ
በእንደዚህ
በአንዲት
ወሰደ
የመምረጥ
የደመወዝ
በጠራራ
ሃአ
ህደ
ቀስቃ
##ፈህ
##ዩስ
ዘርን
ከ300
የችግሩን
ቀንም
እንዲቋረጥ
በግንባታ
##ጥሬ
በአፈ
ለይተው
##60ዎቹ
ደጃፍ
ከምርጫው
ያፈራ
##ክሙ
በሚሰ
አሸንፈ
ወክሎ
##ኒሊክ
የምስራ
ዓለማዊ
ደሙ
##ቀባ
የተለመዱ
ካልቻለ
ለቅዱስ
አያስፈልጓቸው
ተንናእለ
ከተሳ
##ታውቀው
አላማው
ቤታቸውን
##እበ
ከአየር
##ሰበሰብ
የግብይት
ታደ
ካፍ
ውዶ
##ላሁ
##ቆችን
##ሻቸውን
ድንቁርና
ትንኮሳ
ተላልፎ
ምኒስትር
ሰከን
በሒ
ኢፍት
##ሀድሶ
ወቅቶች
##ማይቱ
##ከሰስ
እየሰፋ
ዬኛ
ጌታን
ፕሮፌሰሩ
##ልድያ
ጓደኛው
መገናኘት
##ጻለች
##ኞቼ
አስታወ
ለመፈለግ
አምጥቶ
በጭንቅ
በትላንትናው
አዉሮጳ
የሚያዙ
ግድብን
የሐዋርያት
አዉሮ
##ዎድሮስ
##ገንዘ
ሴን
ንግሥ
አቦይ
ለሆኑት
ፍቅረኛ
ሲገደሉ
ብሎት
ክትባ
##ሌክትሮኒክ
##ሌቶች
ከእዚህ
ሳልቫ
ቢመስልም
አዶ
አይለ
ስልቶች
ተሻለ
##ጉዳዩ
በመንቀሳቀስ
የሰነበ
ከመከላከያ
ያስገድ
በወልቃይት
##ፈርሱ
ሥፍራዎች
ሲወርድ
ምዝ
ተጠቃ
##ቀጥቀጥ
ገመዳ
የፕላስቲክ
ዬኛደጓ
ምኅ
##67
እንዲሸ
ፌደራላዊ
ደርግን
##ጹአል
ቡድንን
ቀጣዩን
##ችኋለን
ከፋይ
ከሃዲ
እመኛለሁ
ጎሳዎች
ሥጋዊ
##27
አይከብ
በምድብ
ፕሬዚደን
##ዞት
መስማማት
ከሚኖሩ
##ከፍለው
የሚያሳስ
በሮም
ወደየ
##ምርእ
ቃና
ውሲ
ዘወር
ያሏቸውን
##ግብት
አባሎች
##ብረዋል
##ናቸውንም
ቡር
የወታደራዊ
##ገናዘብ
##ወቅን
አዋጭ
አምባሳደሮች
መሬቶች
በረን
##ማሚ
##ጠግር
ተቀመጠ
ነዋይ
ለሁላችንም
መልካሙን
የሚቻልበት
ዴንእ
ተፈጽሞ
ትነኝጠግር
support
እንቀጥላለን
ትነኝጠግርእበ
ብሬ
ያመራ
ጠራ
##ኤከ
##ዶሎ
የእንግ
ፍቃደኛ
አንብቤ
ቢቂላ
ሞክሮ
##ያያቂ
ምንሊክ
የበቀል
ተጋሩ
ግለሰቦችና
##ጠነቅ
በ2016
ተስማምተዋል
ሙት
ዎድቅ
ዩጣቀ
ጃምርእ
ግዕዝ
##ካፍ
አይነቱን
ደንእ
ውነድንም
ዎድቅዕ
ጥንት
##ሔም
የግዛት
ለልጆች
##ወግድ
##ነቃቃ
ዎአ
ፅንፈ
##ጉዝ
መብራቱ
##ንጀኤከ
##ሰጡም
በቃላት
##መለክቱ
ውሲንጀኤከ
##ዳሪዎች
ማህበራ
አለመቻል
ይፈቱ
##plf
ፆም
##ንሳ
##ቀተ
አዳኝ
ሙሉቀን
ፖለቲካዊና
መስተጋብር
በማናቸውም
መንግስታ
ማስረዳት
ማስመዝገብ
ህዝቡም
##ቶቻችሁ
እንዲሄዱ
አልነበራቸውም
አገኙ
ሳይል
የበዓል
ኮንቴ
የሚታይበት
ያቅ
ገጽታዎች
የህዳሴው
ለመተካት
ልሳነይ
##በታቸው
##ፈናል
የፍል
መተካት
ቅሬታዎች
መሬትን
ሚስቱን
አቀርባለሁ
ምድን
ትሳእ
ከ70
በድርድር
አረጋውያን
አቀንቃኝ
ጎሣ
##ክሎች
##ክክለ
አውሎ
##ኝነትና
ዓላማና
እንድንችል
ፌዴሬሽ
ቢኖረውም
##ኒካል
የተቸ
የመብ
የምንቀ
መቅደሱ
ያገለግላል
ህነማ
መዘርጋት
አጨዋወት
##ቬን
##ጭል
እንዳገኘ
ወንድማማቾች
በኢሕአዴግ
12ኛ
በአንደኛ
የረዥም
የፈጠሩት
በሪፖርቱ
ሊሰሩ
##ዲየ
##ፋም
ለማስመለስ
የሚያሳዝን
የዞረ
ተርፎም
መፈተሽ
ክብራ
ይበቃ
የሚያስከትለውን
##በረከቱት
ሀኪም
ቦጋለ
##ዶቻችን
##ዓብ
##ምንና
በዓይ
በኢት
ተዋን
ዶክተሩ
##ገቡን
በውድድር
የኤርትራው
በቅድመ
ሉሲ
ላኋ
ልጣመ
ለችግር
እሸቴ
ላኋበ
ልጣመይ
ሊባኖስ
በርት
ብአዴ
##ዳጆች
##ዴስ
የሚከናወን
አባታቸው
ማስታ
እድሜው
ተሻግሮ
ከአፍሪቃ
መሥፈር
ድረገጽ
ማሻሻ
አልታወቀ
##መልካ
እንዳልሆኑ
##ወሓትን
የወሰዱት
ትዕግሥት
ጎልማሳ
ይታሰ
ያወጣል
ሙላት
ኑሩ
የሒሳብ
የሚያበረታታ
የሚያቀርቡት
ዓላማዎች
ቀጠሉ
ምእራፍ
ሊኖረን
ሳባ
ወዮ
##ማቲም
##ጶስ
ተከፍቶ
ማስተላለፊያ
የጭካኔ
መድሃኒቶች
ለዋ
የተዘጋ
ተከፈተ
አህመድን
ተገልጾ
ሀሳብን
አሻሽ
##ቋን
የአልኮል
ማንነቱ
ተቃዋሚዎችን
ገብረማርያም
ፍሃ
##ራቂ
##እንደ
አደባባ
ተሰጥቶታል
##ስተላልፍ
በጎርጎሮ
ጋን
የትርፍ
መዋላቸውን
ውብሸት
በግለሰቦች
ባሻ
##ለያየት
የሕፃናት
##ራንክ
ተመሥ
ተደራሽነት
ማይክ
ጣሊያንኛ
አመጣጥ
##ጎቹ
ያደጉ
አረብኛ
ረሀብ
እሰጥ
የሚስማማ
ከአገሪቱ
በቀላል
ሰማዕታት
እፎይታ
ኦሞ
ዳም
መትከል
ባዕድ
ክልመ
ከሰኔ
የጋዜጠኝነት
እጩዎች
ፍሃሾማ
##ቢና
##ኩትም
በማንም
ጠርዝ
ቲያትር
ደሀ
ዲፕሎማት
##ጣጠር
በግሪክ
##መናቸው
##ወደድ
እንዲወሰድ
በተለመደው
ማስክ
በርዕ
ሲያገኝ
ተሰር
ዜናዎችን
ብሮ
##ለወጠ
##ቅዝ
እየተነሳ
በቅድስት
##ዓታት
መልክት
ታስረዋል
ያደረጋቸው
መቁጠር
ሲሲ
ስረ
ኘሮ
እታ
ፍወ
##ሜኑ
##ፅሐ
ለመመርመር
በላይነህ
##ገልጋ
የሁለትዮሽ
ነገሥቱ
ለኅ
ሲሳ
ዜናው
እንዲጠፋ
ለመገናኘት
ለማሰባሰብ
ያስብ
ሚራ
ምጽ
ነብስ
ውቀበ
ጀን
ጂኦ
ጎላ
##ቋቁ
እንደያዘ
ጉዳያችን
የመጣሁት
እርግዝና
ስንያ
ተገር
ትሊሌ
ከበርካታ
ዋትስአፕ
የጠቀስ
##ቃድ
##ፌስቶ
የሚያይ
ተፈጸመ
የዕውቀት
ይመክራሉ
##ደተየ
ውቀበደተየ
ፅርቅ
##ቱዋ
##ፀድቅ
አስተምሮ
በደጋ
ከወጡ
መቅረት
ቀጣና
ማነቆ
ትሊሌየ
ዐፄ
ፒያሳ
##ዘግ
##ጽፉ
ነገርም
ብትሆንም
የፕሬዝ
የተዘጋጀውን
በጅቡቲ
ሰበታ
ቴክኖ
ከአር
ሲያዩ
በሕጉ
የአንዱ
በመጣስ
የጠየቁ
እየኖሩ
##ተውም
መሰለህ
ተጠቂዎች
አስፈጻሚው
መቻቻል
ማተኮር
ሲዳ
ንቱ
በዙሪያ
##ፋቱን
በጃፓን
##መሩን
##ቅሰው
##ክቷል
አሸብር
መፈናቀ
##ይቸ
##ጥጥ
##ናገሩም
የቴሌኮም
አስመስሎ
tplf
የሆነዉ
ይቆያል
ፈለገ
ልብን
መሄዱ
በገና
ታንዛኒያ
ከኅ
##ሁሩ
##ፍራል
ከአላህ
##ሩትም
የፈተና
##ብሮነት
ሀላፊዎች
ተዋጊዎች
##ብዙ
በአሥራ
እነኚህ
##ፈረኝ
##ሰመ
ስለኢትዮጵያ
አጠያያቂ
አያይዞ
ርብቃመበ
ምድንወ
ሲም
የገለፀው
##አቀፉ
##ha
ለመገኘት
አበጋ
እኛስ
መገደል
የሚደርሰውን
ማዘጋጀ
ጊላ
##ሪቲ
ከፍለው
ያሸነፈ
በተገኘው
ለማፍራት
መርሕ
መውለድ
ባለሙያዎቹ
እስክንድ
ፍልሰ
ግሪን
##ጠናቸው
##ያውም
ለህክምና
የዕድገትና
አጀማ
ያጠቃል
ምኪ
ሩጥ
##ያቸዉ
ኃላፊነታቸውን
##ገነዘቡት
በሽብርተኝነት
ቀለማት
አስቻለው
ከተፈጥሮ
ጠንካራና
የሊጉ
ተዘጋጅቷል
መባሉን
ፖርቱጋልኛ
ቡራ
ጠሚ
የሚጠቀሙበት
የሚጠቀሱ
ታላቁን
አብሮነት
##ገነዘበው
እላችኋለሁ
አራማጆች
ባሏ
ካት
ድርጅትና
አሳር
ከብር
##ሮብ
የሚጠቀስ
ከመተ
መልካሙ
ስፔን
##ቻኖ
በሕክምና
ማደር
በማሰር
ድርሰት
ግንባታና
##ከፈተው
##መጃ
በመቅረብ
ቤተሰቦቹ
ላአ
እንጨ
መተላለፊያ
የሰብል
የጸሎት
አስቀያሚ
በመምረጥ
does
ማነህ
ሠላሳ
##ራንት
የተጀመሩ
አይሆን
አካውን
አይደለምን
ምስኪ
እንደነበርና
ተቆጥሮ
ኬንያታ
ለ10
##ፓርትመንት
በሴት
##ላባ
##ዛቱ
እንገል
ዓመትም
##ደራጃ
ለነዚህ
ስጡ
ትሬ
ዉጤ
ውቅያኖስ
ድካ
##95
##መልጥ
በድርቅ
##ogle
የቅንጅት
መሙላት
ቅልት
##ፋዮች
መስማ
ንልና
አእ
እንደሚጀምር
ብቻቸውን
ምስሎችን
##ረምጀ
በልቡ
ንቱሳእ
ንልናረምጀ
ሥዩም
ሪያል
ነድ
ዴሞክራቲክ
እንደሰማ
በቤቱ
ኢጣሊያ
ጦርነቱን
##ገነዘበ
ተገንዝቦ
በዘንድሮ
ጋጋረተ
ምኪሐ
ከቃ
##ረዘ
ለመደ
እነዚያን
ልናሳ
ደው
##ይቲ
##ሄድን
በመማር
##ጠበቁት
በህብረት
እራሳችንን
መግደ
ከድርጅቱ
ጳጉሜ
ma
ሊቀጥል
መረጋጋ
ድቅ
##ጃጅ
የተገናኙ
በመሳሰሉ
##ታለህ
##ክኛ
ዎስራእ
ጠብቁ
ማጣርያ
ማሠል
##ሰየ
##ዌት
አበቃ
ያልቻሉ
ሚሊዮኖች
ለሃገር
ትዎነ
ጉምዝ
##በጅ
##ተውት
##ምናው
ባልቻ
ህዝቦችን
ከብሔራዊ
ማሕበራዊ
ኢትዬጵያ
ለአንባቢ
##ቪኦኤ
ማስረጃዎችን
ስላለበት
ማግኘቱን
ይሏል
የመሩት
##ሰውም
##ለይቶ
##ቀጥልም
ወጥተን
ማሩ
##ረሸ
##ተኞቹን
አከራካሪ
መሻሻ
ሽሳፍ
የሹ
ፅምድ
##በሽ
ለመጎብኘት
ስልኮች
ጠብቅ
ለስደት
##ሰናበት
ሽሳፍየ
መታደግ
##ቂቁ
የሚጣል
አንድዬ
እንደሚጠቁ
##ገልግሎ
እገምታለሁ
ህድቅ
ጽናት
##ዳጁ
የተመጣጠነ
ለማቃለል
ከፋዮች
አስመሳይ
ሕንፃዎች
ለማጥቃት
ልካአ
brow
ህድቅእየ
ገፁ
ለማልማት
##መለከትን
ክለቡን
ኮርፖሬሽኑ
##ኅራኄ
ማጠራቀሚያ
ሳኒ
የሚከፈል
ወደታች
##ቡርግ
ሉላችይ
በድምፅ
ርገናመ
ስንያቢ
በላቀ
##ቅሳ
##ዓመት
ለመለ
ኤርፖርት
views
ኔባ
ዓውደ
##ሩገን
ወደማ
##ግባኝ
በራሷ
ወንዶችና
ሙዝ
ኝሩገን
##ትለር
የተለመደው
ቀንሷል
በነፍስ
ይልቁንስ
በባህላዊ
ቀፎ
##ናፈ
##ሩህ
አላየ
አምባገነናዊ
ብሎኝ
አስተዋጽዖ
በሠላም
መመዝገብ
ሠዎች
የቸ
##ሌይ
ሰርቷል
በመፍታት
ተደጋግሞ
ሲፒ
ግሪ
##ብድ
በማጥፋት
##መጡም
ስነምግባር
##ays
የተወለዱ
መዘጋጀቱን
##ቢያቸው
የኢህአ
ለእውነት
የሚፈጥሩ
ከፌደራል
##መረመር
አደጋን
በገዳ
ፕሬዚዳንታዊ
ይነገር
ማንነታቸውን
የሚያስፈልጋቸው
የተወሰዱ
የተጠቀሱትን
ስለው
ችለው
ኮምፒውተር
##ቸሻይ
በሌሉበት
ሕግጋት
ለማሳወቅ
ጽሑፉ
በዙሪያው
የዮሐንስ
መርሆዎች
ያስተላልፋል
ልዋቸሻይ
##ይፍ
##በዘ
##ሂብ
አስፈለገ
ምርቃት
##ከናወኑት
ማመንጨት
ሀሳቦችን
ወፎች
ይተር
በመግባ
በተሟላ
በጠላትነት
ለነበሩ
##ጻል
ኃይሎችን
ካሜሩን
የተካሄደውን
ከሆንክ
ንሉሁ
ውሃን
ይሰብ
አልኮል
##ማሪው
በጉዳት
ወዳጆ
cl
##ያዋን
##ዳርግ
የመምራት
አልሰጠ
##ገዛው
ክብርን
እቅዱ
የቫይረሱ
ከአቅም
##ከፋፈሉ
እንደሚገባቸው
እርስዎን
ያቀፈ
ባለስልጣኑ
የሚያም
የምሥራ
እየተመ
##ጻጸም
ሁላችንንም
##ገሪያ
##age
ነገርግን
በየካቲት
ለብዙዎች
በቤንሻንጉል
ኡመር
##ዩቱ
##ሣዊ
በልቶ
የጎን
##ፈስአ
ህወሃትን
ንችቻኖ
ጊላፈስአ
ንችቻኖላፕ
##ነተኛው
ግብአት
##ሄዱበት
ያንኑ
tot
ሊዮ
ዘልቆ
ትናንትና
ኢብኑ
ተችሉ
##ጥራ
##ሞትም
ቤተሰቡን
መኮነን
ማጋሪያ
ቀንን
ቱር
ወጋ
ጋዳፊ
##አየ
##ዩና
ወደድ
ማስፈጸሚያ
ስንቱ
##ቶቹም
እህቴ
አመክንዮ
ካርቱም
ከሁለታችን
ይስማማሉ
##ጠሩን
በመጡ
ወጥነት
ስነስርዓት
##ባዔው
##ጅተው
##ደፋ
##ፍናል
##ቻብ
በመኖሪያ
ሆነዉ
ተመላሽ
መኖርን
መከላከልና
##ቆጣጠሩት
ባልደረቦች
ኢስላም
doesn
browser
ቆራ
ዶክተሮች
##ሌም
ባለመስ
##ካርያስ
ብስራት
ንውቻብ
በጀር
##ክሊ
የማምረት
ከተጋ
ተመራቂ
የሚደረግበት
ተዛማጅ
በትክክለኛው
ቼኞደጓ
##ቋት
የመቆጣጠር
ይጫወታል
ምሉደይአ
##ፋማ
##ልጣል
የኢትዮጵያዊያን
ሲያይ
##ለማቀፍ
ሀገሩን
መግባቱን
እርግጠኞች
እይታዎች
ሃውስ
ምመህ
ተረጋጋ
የሚረ
ለመልካም
ከመጋቢት
አንዳቸው
ቅዱሳ
ለነበሩት
የሳተ
##ደቡብ
ከአካባቢ
የተጋነነ
አንዷለም
ሪት
አክስ
ያካሂ
##ነጀ
የወሰን
የጅቡቲ
የበዛበት
ድባከ
##ራሰይ
ሉራሰይ
ውዢ
ይላቸዋል
ጦማር
##ግቷል
የእግ
የሲቪክ
ለፍክለ
ተውኔት
ሁንዴሳ
ውዢገ
ህጉን
መጣሁ
ባለማወቅ
እንረዳለን
መወገድ
ታር
የመሪ
ሕዝብም
ከ13
ያሰራ
በአረብ
ለመከላከያ
ከአስተ
ኢንዶኔዥ
ይጠቅሳሉ
አስመላሽ
ከዩኒቨርሲቲ
የተመሠረተው
ብሂ
ኤድ
ይከራ
##ያያዝ
##ልሰን
ቁጥርም
ባለፈም
ካልን
ዝማሬ
ይዘጋ
##ይራ
##ለበ
ይለወጣ
##47
አቅሙን
የኮርፖ
መጣጥ
ካልተቻለ
የወደቀ
##ሃዊነት
እያደር
አዋሽ
የገጠመው
መስተካከል
##ነዘሩ
ታኅሳስ
ማገዝ
እማማ
##ሸጉ
##ሠየ
##ጽሔ
##ድርገው
የሀገሬ
የድርድር
##ዲሁም
##ሎፕ
##ጄርያ
የጉራጌ
##ሽከርከር
ኑሮን
አይገባኝም
እዉነት
ንትር
##ሰሰው
አለባችሁ
##ባቢሎን
ተግባራቸው
አስታውሷል
የሩጫ
ኦባንግ
wedn
ለጸ
ለቀጣዩ
wednesday
ተረዳ
ዚምባብዌ
##ሌና
ለማነጋገር
አካባቢን
ጦርነትን
##ቃወሙት
##በረታቱ
ሥልጣንን
##ምፒዮንስ
የ2012
የልዑካን
ጉዳቶች
##ደውም
የከበረ
አለችኝ
ንድፈ
html5
ውጡ
የኖሩት
ስምሪት
ተከበረ
ነፍሴ
የሽም
ያደገው
በፍትህ
ሪቻርድ
##ባዥ
##ፃን
የተገናኘ
የተሽከርካሪ
ባለማግኘ
የቀደመ
ተከታታ
እውነተኛውን
##ደናቅ
የኃጢያት
በጠንካራ
ተመዝግቧል
የፈለገው
የተፈናቀ
የሚያስችለው
ዘውድ
ታትሞ
ሲያበቃ
አጋሮች
##ዮርዳ
ልትሆን
##ጋዴር
ነቀር
የኾነ
ዳታ
ጎረም
የማና
የህብረተሰቡን
የብሔረ
የምታደርገው
ተጨምሮ
አዘዘ
ተሰምቶ
##ure
በሚሰጠው
ይምጣ
ለመመሥረት
ሠራሽ
ሴንት
ለመንፈ
ብዙኃ
በታዳጊ
ተገዝ
##ረበየ
በድርጅ
የተመዘገበው
ኤክስፖርት
ሱእየ
ንሱ
ኛደጓ
ኝል
ይሻለ
##ካፈሉ
##ሦስቱ
በመኖር
በመመርመር
##መንን
ነገዶች
ነፍሱን
##ገረደያ
መቅሰ
አዘጋጅነት
ኝልገረደያ
ኝልገረደያእ
ባደረጉ
ይናገር
##መክ
ባስተላለፉት
ራረበየ
ከዘር
ጠጠር
ለበጎ
ድቅእ
ሊሰጣቸው
እንዲፈጸም
ከፍተው
ያልከው
ሁለታ
በፕሪ
ቀረቡ
ምልል
##ቀለው
##ቅሙ
የመገንጠል
የሮማ
መድኃኒቶች
total
ቦን
##ቦል
የሚጓዙ
ለማዳበር
##ጋብዝ
##ቡዓን
መቀላቀል
አድርገውታል
ከጎረቤት
ደርሶባቸዋል
አዘርባጃኒ
ሀሙስ
##ፌት
የሚከሰ
እንዲቀር
ለማስታ
ያለቀ
የታሰረ
መርዶ
ደንቆሮ
ጥናቱን
ተሰጥቷቸው
ተቆጣጥሮ
በሰራ
የዶሮ
ብክነት
ምኤ
ቀሲስ
ድራ
ጻድቃን
መርካቶ
በ11
ይበጃል
ተባብረው
##ማሮች
##ረጉት
##ሥራኤል
##ጠይቃቸው
ሱዳንና
ጥበበኛ
week
ሸር
ያሰማ
##66
ሲያገለግሉ
ያሳለፈው
አፈላ
##ኖረኝ
ኢንስፔ
አኗኗ
የሚከበረው
##ታዊው
##ጣምማ
ባሕርያ
ከህወሃት
ቁርኝት
ገባሁ
ሰጠው
##ሳሾች
ጉዞውን
ህአ
ኳሱ
ብዙኀ
ትክክለኛነት
የተዘረጋ
ያተ
##ፉር
እንዲያስተ
ከርቀት
መልእክቶች
##ፈራቸው
አይሮ
በአውሮፕላን
ቆመ
##ቤቶች
ደረጃና
እንዳይሆኑ
ለሚደረገው
rel
ተከሳሹ
የማይሆን
ቆይታቸው
ማስተዋወቅ
##ከፋፈለ
የአፍሪካን
